{
  "version": "1.0",
  "truncation": null,
  "padding": null,
  "added_tokens": [
    {
      "id": 0,
      "content": "<pad>",
      "single_word": false,
      "lstrip": false,
      "rstrip": false,
      "normalized": false,
      "special": true
    },
    {
      "id": 1,
      "content": "<unk>",
      "single_word": false,
      "lstrip": false,
      "rstrip": false,
      "normalized": false,
      "special": true
    },
    {
      "id": 2,
      "content": "<bos>",
      "single_word": false,
      "lstrip": false,
      "rstrip": false,
      "normalized": false,
      "special": true
    },
    {
      "id": 3,
      "content": "<eos>",
      "single_word": false,
      "lstrip": false,
      "rstrip": false,
      "normalized": false,
      "special": true
    }
  ],
  "normalizer": null,
  "pre_tokenizer": {
    "type": "ByteLevel",
    "add_prefix_space": false,
    "trim_offsets": true,
    "use_regex": true
  },
  "post_processor": null,
  "decoder": {
    "type": "ByteLevel",
    "add_prefix_space": true,
    "trim_offsets": true,
    "use_regex": true
  },
  "model": {
    "type": "BPE",
    "dropout": null,
    "unk_token": "<unk>",
    "continuing_subword_prefix": null,
    "end_of_word_suffix": null,
    "fuse_unk": false,
    "byte_fallback": false,
    "ignore_merges": false,
    "vocab": {
      "<pad>": 0,
      "<unk>": 1,
      "<bos>": 2,
      "<eos>": 3,
      "!": 4,
      "\"": 5,
      "#": 6,
      "$": 7,
      "%": 8,
      "&": 9,
      "'": 10,
      "(": 11,
      ")": 12,
      "*": 13,
      "+": 14,
      ",": 15,
      "-": 16,
      ".": 17,
      "/": 18,
      "0": 19,
      "1": 20,
      "2": 21,
      "3": 22,
      "4": 23,
      "5": 24,
      "6": 25,
      "7": 26,
      "8": 27,
      "9": 28,
      ":": 29,
      ";": 30,
      "<": 31,
      "=": 32,
      ">": 33,
      "?": 34,
      "@": 35,
      "A": 36,
      "B": 37,
      "C": 38,
      "D": 39,
      "E": 40,
      "F": 41,
      "G": 42,
      "H": 43,
      "I": 44,
      "J": 45,
      "K": 46,
      "L": 47,
      "M": 48,
      "N": 49,
      "O": 50,
      "P": 51,
      "Q": 52,
      "R": 53,
      "S": 54,
      "T": 55,
      "U": 56,
      "V": 57,
      "W": 58,
      "X": 59,
      "Y": 60,
      "Z": 61,
      "[": 62,
      "\\": 63,
      "]": 64,
      "^": 65,
      "_": 66,
      "`": 67,
      "a": 68,
      "b": 69,
      "c": 70,
      "d": 71,
      "e": 72,
      "f": 73,
      "g": 74,
      "h": 75,
      "i": 76,
      "j": 77,
      "k": 78,
      "l": 79,
      "m": 80,
      "n": 81,
      "o": 82,
      "p": 83,
      "q": 84,
      "r": 85,
      "s": 86,
      "t": 87,
      "u": 88,
      "v": 89,
      "w": 90,
      "x": 91,
      "y": 92,
      "z": 93,
      "{": 94,
      "|": 95,
      "}": 96,
      "~": 97,
      "¡": 98,
      "¢": 99,
      "£": 100,
      "¤": 101,
      "¥": 102,
      "¦": 103,
      "§": 104,
      "¨": 105,
      "©": 106,
      "ª": 107,
      "«": 108,
      "¬": 109,
      "®": 110,
      "¯": 111,
      "°": 112,
      "±": 113,
      "²": 114,
      "³": 115,
      "´": 116,
      "µ": 117,
      "¶": 118,
      "·": 119,
      "¸": 120,
      "¹": 121,
      "º": 122,
      "»": 123,
      "¼": 124,
      "½": 125,
      "¾": 126,
      "¿": 127,
      "Â": 128,
      "Ã": 129,
      "Ä": 130,
      "Å": 131,
      "Ç": 132,
      "Ë": 133,
      "Ì": 134,
      "Î": 135,
      "Ï": 136,
      "Ð": 137,
      "Ñ": 138,
      "Ø": 139,
      "Ù": 140,
      "Ú": 141,
      "Û": 142,
      "à": 143,
      "á": 144,
      "â": 145,
      "ã": 146,
      "ä": 147,
      "å": 148,
      "æ": 149,
      "ç": 150,
      "è": 151,
      "é": 152,
      "ï": 153,
      "ð": 154,
      "ă": 155,
      "ĉ": 156,
      "Ċ": 157,
      "č": 158,
      "Ġ": 159,
      "Ģ": 160,
      "ģ": 161,
      "Ĥ": 162,
      "ĥ": 163,
      "Ħ": 164,
      "ħ": 165,
      "Ĩ": 166,
      "ĩ": 167,
      "Ī": 168,
      "ī": 169,
      "Ĭ": 170,
      "ĭ": 171,
      "Į": 172,
      "į": 173,
      "İ": 174,
      "ı": 175,
      "Ĳ": 176,
      "ĳ": 177,
      "Ĵ": 178,
      "ĵ": 179,
      "Ķ": 180,
      "ķ": 181,
      "ĸ": 182,
      "Ĺ": 183,
      "ĺ": 184,
      "Ļ": 185,
      "ļ": 186,
      "Ľ": 187,
      "ľ": 188,
      "Ŀ": 189,
      "ŀ": 190,
      "Ł": 191,
      "ł": 192,
      "Ń": 193,
      "Ġt": 194,
      "Ġa": 195,
      "in": 196,
      "he": 197,
      "re": 198,
      "Ġs": 199,
      "on": 200,
      "Ġthe": 201,
      "er": 202,
      "at": 203,
      "nd": 204,
      "Ġc": 205,
      "or": 206,
      "es": 207,
      "en": 208,
      "Ġw": 209,
      "ou": 210,
      "ing": 211,
      "it": 212,
      "Ġp": 213,
      "Ġand": 214,
      "an": 215,
      "Ġf": 216,
      "al": 217,
      "Ġo": 218,
      "is": 219,
      "Ġm": 220,
      "Ġto": 221,
      "Ġb": 222,
      "ed": 223,
      "Ġin": 224,
      "ar": 225,
      "ion": 226,
      "Ġof": 227,
      "ic": 228,
      "Ġd": 229,
      "as": 230,
      "le": 231,
      "ro": 232,
      "Ġh": 233,
      "us": 234,
      "Ġe": 235,
      "ent": 236,
      "Ġth": 237,
      "ve": 238,
      "om": 239,
      "Ġre": 240,
      "ct": 241,
      "il": 242,
      "Ġl": 243,
      "Ġy": 244,
      "et": 245,
      "Ġyou": 246,
      "ĠT": 247,
      "ĠĠ": 248,
      "Ġg": 249,
      "ra": 250,
      "im": 251,
      "ow": 252,
      "id": 253,
      "ch": 254,
      "ce": 255,
      "Ġn": 256,
      "Ġfor": 257,
      "el": 258,
      "ation": 259,
      "Ġst": 260,
      "Ġhe": 261,
      "ol": 262,
      "Ġthat": 263,
      "ers": 264,
      "ig": 265,
      "Ġon": 266,
      "ĠI": 267,
      "ith": 268,
      "Ġpro": 269,
      "st": 270,
      "ir": 271,
      "ly": 272,
      "Ġbe": 273,
      "ut": 274,
      "ot": 275,
      "Ġwith": 276,
      "am": 277,
      "Ġis": 278,
      "ur": 279,
      "ad": 280,
      "ĠC": 281,
      "ĠS": 282,
      "if": 283,
      "ay": 284,
      "ist": 285,
      "ant": 286,
      "ul": 287,
      "ess": 288,
      "ver": 289,
      "se": 290,
      "ĠA": 291,
      "Ġor": 292,
      "un": 293,
      "Ġex": 294,
      "Ġcan": 295,
      "Ġcon": 296,
      "ate": 297,
      "ure": 298,
      "ĠThe": 299,
      "Ġit": 300,
      "Ġas": 301,
      "ag": 302,
      "Ġan": 303,
      "Ġal": 304,
      "ment": 305,
      "ke": 306,
      "ore": 307,
      "ab": 308,
      "Ġare": 309,
      "out": 310,
      "pp": 311,
      "ive": 312,
      "Ġsu": 313,
      "Ġcom": 314,
      "Ġus": 315,
      "Ġv": 316,
      "Ġwh": 317,
      "ere": 318,
      "ies": 319,
      "ld": 320,
      "Ġyour": 321,
      "her": 322,
      "oo": 323,
      "ity": 324,
      "__": 325,
      "pe": 326,
      "iv": 327,
      "'s": 328,
      "ac": 329,
      "ass": 330,
      "ter": 331,
      "Ġde": 332,
      "Ġch": 333,
      "qu": 334,
      "ill": 335,
      "oc": 336,
      "Ġen": 337,
      "ort": 338,
      "Ġha": 339,
      "est": 340,
      "Ġtheir": 341,
      "our": 342,
      "igh": 343,
      "ain": 344,
      "ĠH": 345,
      "em": 346,
      "ust": 347,
      "ud": 348,
      "Ġne": 349,
      "Ġse": 350,
      "ĠM": 351,
      "Ġad": 352,
      "ome": 353,
      "op": 354,
      "Ġsh": 355,
      "ial": 356,
      "th": 357,
      "ĠĠĠĠ": 358,
      "Ġwas": 359,
      "Ġim": 360,
      "ĠP": 361,
      "ri": 362,
      "ect": 363,
      "ĠB": 364,
      "Ġle": 365,
      "ide": 366,
      "ould": 367,
      "all": 368,
      "iz": 369,
      "ions": 370,
      "res": 371,
      "pl": 372,
      "um": 373,
      "Ġr": 374,
      "nt": 375,
      "ĠW": 376,
      "Ġmore": 377,
      "rou": 378,
      "art": 379,
      "os": 380,
      "Ġab": 381,
      "Ġte": 382,
      "Ġwor": 383,
      "Ġinc": 384,
      "istant": 385,
      "rom": 386,
      "pt": 387,
      "du": 388,
      "user": 389,
      "king": 390,
      "Ġpl": 391,
      "assistant": 392,
      "age": 393,
      "Ġhave": 394,
      "and": 395,
      "Ġimp": 396,
      "ight": 397,
      "per": 398,
      "ff": 399,
      "Ġint": 400,
      "Ġwe": 401,
      "Ġby": 402,
      "Ġat": 403,
      "ĠD": 404,
      "Ġfe": 405,
      "ĠTh": 406,
      "Ġher": 407,
      "are": 408,
      "Ġu": 409,
      "act": 410,
      "able": 411,
      "od": 412,
      "ip": 413,
      "ĠF": 414,
      "Ġme": 415,
      "Ġfrom": 416,
      "ake": 417,
      "orm": 418,
      "ge": 419,
      "reat": 420,
      "ĠR": 421,
      "gh": 422,
      "ine": 423,
      "ĠE": 424,
      "ast": 425,
      "og": 426,
      "ign": 427,
      "ie": 428,
      "Ġhel": 429,
      "Ġcomp": 430,
      "Ġthey": 431,
      "ther": 432,
      "Ġhelp": 433,
      "cc": 434,
      "Ġsome": 435,
      "ance": 436,
      "form": 437,
      "ations": 438,
      "____": 439,
      "Ġ1": 440,
      "ell": 441,
      "ks": 442,
      "Ġcont": 443,
      "ru": 444,
      "so": 445,
      "âĢ": 446,
      "ind": 447,
      "ard": 448,
      "Ġprov": 449,
      "ach": 450,
      "ry": 451,
      "Ġj": 452,
      "ical": 453,
      "Ġun": 454,
      "ost": 455,
      "ĠL": 456,
      "Ġhas": 457,
      "ult": 458,
      "ence": 459,
      "ail": 460,
      "Ġadd": 461,
      "av": 462,
      "Ġk": 463,
      "ep": 464,
      "Ġhow": 465,
      "ĠG": 466,
      "vel": 467,
      "ack": 468,
      "Ġabout": 469,
      "Ġres": 470,
      "Ġalso": 471,
      "ous": 472,
      "Ġthem": 473,
      "ice": 474,
      "ional": 475,
      "ĠThis": 476,
      "Ġcl": 477,
      "ich": 478,
      "Ġtra": 479,
      "Ġall": 480,
      "Ġother": 481,
      "Ġ(": 482,
      "ood": 483,
      "Ġhad": 484,
      "Ġapp": 485,
      "ase": 486,
      "ĠO": 487,
      "ces": 488,
      "Ġwill": 489,
      "ific": 490,
      "Ġout": 491,
      "Ġdis": 492,
      "Ġthis": 493,
      "Ġ2": 494,
      "ated": 495,
      "Ġ\"": 496,
      "lud": 497,
      "ents": 498,
      "Ġman": 499,
      "ime": 500,
      "ress": 501,
      "Ġsp": 502,
      "ace": 503,
      "Ġem": 504,
      "ite": 505,
      "ib": 506,
      "ans": 507,
      "ong": 508,
      "ual": 509,
      "Ġbut": 510,
      "Ġshe": 511,
      "Ġup": 512,
      "ark": 513,
      "Ġar": 514,
      "Ġsuch": 515,
      "Ġnot": 516,
      "Ġwhe": 517,
      "Ġspe": 518,
      "red": 519,
      "ĠU": 520,
      "ĠN": 521,
      "Ġinclud": 522,
      "ike": 523,
      "ne": 524,
      "ile": 525,
      "ĠIn": 526,
      "ors": 527,
      "get": 528,
      "end": 529,
      "Ġev": 530,
      "The": 531,
      "ak": 532,
      "Ġwhich": 533,
      "Ġsc": 534,
      "Ġ-": 535,
      "ful": 536,
      "Ġdes": 537,
      "ĠĠĠ": 538,
      "ap": 539,
      "fere": 540,
      "Ġrec": 541,
      "ction": 542,
      "Ġuse": 543,
      "ĠY": 544,
      "ound": 545,
      "ĠCan": 546,
      "Ġover": 547,
      "Ġso": 548,
      "Ġany": 549,
      "ĠIt": 550,
      "Ġcomm": 551,
      "ater": 552,
      "one": 553,
      "ia": 554,
      "Ġqu": 555,
      "les": 556,
      "Ġwho": 557,
      "ities": 558,
      "ory": 559,
      "ang": 560,
      "Ġro": 561,
      "Ġpe": 562,
      "Ġacc": 563,
      "Ġmy": 564,
      "Ġdif": 565,
      "Ġind": 566,
      "ove": 567,
      "ue": 568,
      "rough": 569,
      "ĠJ": 570,
      "Ġexam": 571,
      "Ġcol": 572,
      "erv": 573,
      "Ġnew": 574,
      "Ġeff": 575,
      "Ġlike": 576,
      "ame": 577,
      "Ġoff": 578,
      "Ġfl": 579,
      "Ġwork": 580,
      "Ġcre": 581,
      "Ġtime": 582,
      "Ġprovide": 583,
      "Ġexper": 584,
      "ience": 585,
      "ings": 586,
      "Ġprodu": 587,
      "Ġper": 588,
      "Ġhis": 589,
      "ram": 590,
      "ments": 591,
      "Ġmake": 592,
      "ays": 593,
      "Ġinto": 594,
      "ount": 595,
      "ary": 596,
      "Ġwere": 597,
      "alth": 598,
      "ild": 599,
      "bs": 600,
      "ook": 601,
      "ire": 602,
      "chn": 603,
      "Ġits": 604,
      "ord": 605,
      "âĢĻ": 606,
      "Ġcould": 607,
      "lic": 608,
      "ric": 609,
      "Ġgo": 610,
      "ures": 611,
      "Ġpre": 612,
      "Ġsa": 613,
      "now": 614,
      "Ġspec": 615,
      "Ġpart": 616,
      "ear": 617,
      "xt": 618,
      "pport": 619,
      "very": 620,
      "ious": 621,
      "oy": 622,
      "ens": 623,
      "ract": 624,
      "Ġthrough": 625,
      "Ġtechn": 626,
      "erg": 627,
      "aking": 628,
      "Ġmed": 629,
      "Ġsy": 630,
      "ert": 631,
      "gg": 632,
      "Ġdo": 633,
      "velop": 634,
      "Ġthese": 635,
      "________": 636,
      "Ġdiffere": 637,
      "Ġtr": 638,
      "round": 639,
      "row": 640,
      "Ġinform": 641,
      "Ġneed": 642,
      "dit": 643,
      "Ġhealth": 644,
      "ustom": 645,
      "ices": 646,
      "Ġour": 647,
      "int": 648,
      "ility": 649,
      "Ġwould": 650,
      "ple": 651,
      "ness": 652,
      "Ġsm": 653,
      "ating": 654,
      "Ġstr": 655,
      "Ġdet": 656,
      "ick": 657,
      "Ġrel": 658,
      "olog": 659,
      "ck": 660,
      "rit": 661,
      "ely": 662,
      "Ġbeen": 663,
      "ll": 664,
      "ber": 665,
      "ize": 666,
      "we": 667,
      "ning": 668,
      "Ġprog": 669,
      "als": 670,
      "Ġone": 671,
      "ree": 672,
      "ĠSt": 673,
      "gan": 674,
      "ĊĠĠĠĠ": 675,
      "Ġpers": 676,
      "ife": 677,
      "ower": 678,
      "Ġthere": 679,
      "iqu": 680,
      "Ġcustom": 681,
      "elf": 682,
      "ov": 683,
      "ular": 684,
      "Ġdevelop": 685,
      "ons": 686,
      "Ġcreate": 687,
      "ef": 688,
      "Ġdifferent": 689,
      "Ġreal": 690,
      "uring": 691,
      "Ġinv": 692,
      "Ġif": 693,
      "arket": 694,
      "Ġused": 695,
      "ond": 696,
      "cess": 697,
      "Ġinformation": 698,
      "Ġknow": 699,
      "Ġcons": 700,
      "Ġcreat": 701,
      "ub": 702,
      "Ġcommun": 703,
      "ns": 704,
      "Ġsoc": 705,
      "low": 706,
      "ject": 707,
      "ade": 708,
      "ips": 709,
      "ased": 710,
      "te": 711,
      "its": 712,
      "Ġproduct": 713,
      "ish": 714,
      "ates": 715,
      "ange": 716,
      "Ġam": 717,
      "Ġusing": 718,
      "Ġke": 719,
      "enc": 720,
      "ough": 721,
      "lect": 722,
      "Ġserv": 723,
      "Ġco": 724,
      "ose": 725,
      "ative": 726,
      "Ġbet": 727,
      "Ġshould": 728,
      "ise": 729,
      "ting": 730,
      "00": 731,
      "Ġeach": 732,
      "Ġ3": 733,
      "Ġimpro": 734,
      "Ġinter": 735,
      "ph": 736,
      "Ġwell": 737,
      "ĠK": 738,
      "'t": 739,
      "Ġund": 740,
      "ob": 741,
      "ily": 742,
      "Ġloc": 743,
      "Ġstud": 744,
      "ĠThey": 745,
      "Ġmay": 746,
      "iness": 747,
      "Ġact": 748,
      "Ġhigh": 749,
      "stem": 750,
      "ples": 751,
      "ĠAd": 752,
      "Ġgreat": 753,
      "ft": 754,
      "ata": 755,
      "Ġsign": 756,
      "Ġsk": 757,
      "Ġart": 758,
      "ĠV": 759,
      "ural": 760,
      "old": 761,
      "ys": 762,
      "Ġwhat": 763,
      "Ġway": 764,
      "ĠCh": 765,
      "oth": 766,
      "Ġbl": 767,
      "ized": 768,
      "Ġbu": 769,
      "ential": 770,
      "Ġeffect": 771,
      "Ġprogram": 772,
      "ient": 773,
      "Ġpos": 774,
      "ics": 775,
      "Ġinst": 776,
      "Ġvar": 777,
      "Ġwhen": 778,
      "Ġperson": 779,
      "Ġmarket": 780,
      "ĠHere": 781,
      "Ġopt": 782,
      "Ġdesign": 783,
      "Ġprovid": 784,
      "ople": 785,
      "ergy": 786,
      "iet": 787,
      "Ġag": 788,
      "Ġph": 789,
      "Ġmus": 790,
      "Ġredu": 791,
      "In": 792,
      "Ġeng": 793,
      "Ġreg": 794,
      "Ġlear": 795,
      "Ġbus": 796,
      "hed": 797,
      "Ġvis": 798,
      "Ġrem": 799,
      "hes": 800,
      "Ġpo": 801,
      "Ġfeel": 802,
      "Ġatt": 803,
      "Ġlife": 804,
      "arch": 805,
      "up": 806,
      "Ġsocial": 807,
      "Ġimpact": 808,
      "Ġsupport": 809,
      "Ġbec": 810,
      "wn": 811,
      "Ġpeople": 812,
      "eng": 813,
      "Ġworld": 814,
      "Ġpr": 815,
      "ditional": 816,
      "Ġincluding": 817,
      "ĊĠĠĠ": 818,
      "eth": 819,
      "own": 820,
      "omm": 821,
      "Ġtrans": 822,
      "Ġsystem": 823,
      "Ġenergy": 824,
      "Ġback": 825,
      "Ġset": 826,
      "port": 827,
      "Ġexamples": 828,
      "Ġve": 829,
      "ĠHe": 830,
      "Ġdata": 831,
      "ren": 832,
      "anc": 833,
      "Ġspecific": 834,
      "Ġche": 835,
      "ener": 836,
      "ĠĊ": 837,
      "rib": 838,
      "Ġlead": 839,
      "Ġexpl": 840,
      "Ġ=": 841,
      "Ġfind": 842,
      "ition": 843,
      "rand": 844,
      "Ġpot": 845,
      "Ġprom": 846,
      "Ġsur": 847,
      "Ġfeat": 848,
      "Ġbusiness": 849,
      "ian": 850,
      "ĠShe": 851,
      "Ġpract": 852,
      "Ġtechnolog": 853,
      "Ġincre": 854,
      "ts": 855,
      "Ġdec": 856,
      "ible": 857,
      "Ġmany": 858,
      "ĠYou": 859,
      "ink": 860,
      "pect": 861,
      "Ġinf": 862,
      "Ġwhile": 863,
      "ĠHow": 864,
      "ues": 865,
      "Ġmin": 866,
      "Ġevery": 867,
      "Ġdetail": 868,
      "ruct": 869,
      "ten": 870,
      "Ġwater": 871,
      "Ġmade": 872,
      "Ġfun": 873,
      "Ġwhere": 874,
      "Ġthan": 875,
      "Ġval": 876,
      "fore": 877,
      "Ġins": 878,
      "Ġchall": 879,
      "Ġplay": 880,
      "iew": 881,
      "Ġprocess": 882,
      "Ġsignific": 883,
      "Ġcult": 884,
      "ives": 885,
      "Ġfam": 886,
      "ertain": 887,
      "ense": 888,
      "ms": 889,
      "Ġjust": 890,
      "Ġsec": 891,
      "ivid": 892,
      "riend": 893,
      "Ġexperience": 894,
      "``": 895,
      "Ġstart": 896,
      "amp": 897,
      "Ġra": 898,
      "Ġav": 899,
      "Ġadv": 900,
      "irst": 901,
      "Ġsee": 902,
      "Ġmost": 903,
      "ward": 904,
      "ique": 905,
      "Ġty": 906,
      "ollow": 907,
      "Ġca": 908,
      "Ġallow": 909,
      "line": 910,
      "Ġgu": 911,
      "led": 912,
      "Ġget": 913,
      "any": 914,
      "ident": 915,
      "Ġimprove": 916,
      "Ġ4": 917,
      "Ġyear": 918,
      "ccess": 919,
      "new": 920,
      "Ġcle": 921,
      "Ġbr": 922,
      "Ġfew": 923,
      "Ġsal": 924,
      "iss": 925,
      "Ġens": 926,
      "urn": 927,
      "Ġchar": 928,
      "ĠUse": 929,
      "uc": 930,
      "Ġlong": 931,
      "ality": 932,
      "Ġeas": 933,
      "Ġeven": 934,
      "ĠAs": 935,
      "put": 936,
      "Ġcomple": 937,
      "Ġmem": 938,
      "olut": 939,
      "Ġdisc": 940,
      "Ġpat": 941,
      "Ġpower": 942,
      "Ġbre": 943,
      "itive": 944,
      "ax": 945,
      "Ġmod": 946,
      "ever": 947,
      "Ġaccess": 948,
      "Ġret": 949,
      "--": 950,
      "ateg": 951,
      "Ġac": 952,
      "Ġmedia": 953,
      "Ġteam": 954,
      "Ġsmall": 955,
      "Ġment": 956,
      "Ġgrow": 957,
      "erst": 958,
      "Ġwant": 959,
      "ines": 960,
      "ix": 961,
      "Ġass": 962,
      "Ġplan": 963,
      "Ġexample": 964,
      "Ġinclude": 965,
      "Ġcar": 966,
      "Ġ20": 967,
      "Ġfound": 968,
      "Ġduring": 969,
      "ources": 970,
      "ocus": 971,
      "Ġtw": 972,
      "Ġown": 973,
      "Ġimport": 974,
      "Ġbefore": 975,
      "Ġ5": 976,
      "Ġnum": 977,
      "ages": 978,
      "Ġben": 979,
      "ĠWe": 980,
      "ients": 981,
      "Ġuser": 982,
      "iron": 983,
      "Ġhand": 984,
      "Ġno": 985,
      "Ġfollow": 986,
      "eg": 987,
      "ĠâĢ": 988,
      "ered": 989,
      "arm": 990,
      "________________": 991,
      "Ġsignificant": 992,
      "ify": 993,
      "Ġread": 994,
      "Ġexp": 995,
      "other": 996,
      "Ġshow": 997,
      "ec": 998,
      "Ġref": 999,
      "Ġrequ": 1000,
      "ational": 1001,
      "Ġsuccess": 1002,
      "ĠFor": 1003,
      "Ġorgan": 1004,
      "Ġfood": 1005,
      "Ġindust": 1006,
      "Ġtake": 1007,
      "Ġaround": 1008,
      "Ġpol": 1009,
      "erest": 1010,
      "Ġtext": 1011,
      "Ġpersonal": 1012,
      "Ġcontent": 1013,
      "ĠWh": 1014,
      "Ġsim": 1015,
      "ĠSure": 1016,
      "Ġgr": 1017,
      "roup": 1018,
      "Ġform": 1019,
      "lement": 1020,
      "Ġfin": 1021,
      "use": 1022,
      "Ġed": 1023,
      "self": 1024,
      "con": 1025,
      "Ġnat": 1026,
      "Ġent": 1027,
      "Ġoffer": 1028,
      "ved": 1029,
      "fter": 1030,
      "Ġaut": 1031,
      "Ġfirst": 1032,
      "Ġday": 1033,
      "Ġbuild": 1034,
      "iety": 1035,
      "ĠĠĠĠĠĠĠĠ": 1036,
      "ars": 1037,
      "agement": 1038,
      "ling": 1039,
      "hip": 1040,
      "erstand": 1041,
      "viron": 1042,
      "Ġchalleng": 1043,
      "Ġpromot": 1044,
      "Ġperform": 1045,
      "ner": 1046,
      "Ġess": 1047,
      "ally": 1048,
      "ween": 1049,
      "akes": 1050,
      "ividual": 1051,
      "Ġmaking": 1052,
      "Ġsound": 1053,
      "Ġcur": 1054,
      "Ġfocus": 1055,
      "Ġconc": 1056,
      "wor": 1057,
      "els": 1058,
      "ĠThese": 1059,
      "Ġbetween": 1060,
      "ware": 1061,
      "ization": 1062,
      "Ġwebs": 1063,
      "ggest": 1064,
      "Ġtechnology": 1065,
      "Ġdel": 1066,
      "Ġaud": 1067,
      "Ġinterest": 1068,
      "til": 1069,
      "por": 1070,
      "ited": 1071,
      "Ġindividual": 1072,
      "Ġsuggest": 1073,
      "Ġend": 1074,
      "Ġbenef": 1075,
      "ols": 1076,
      "lease": 1077,
      "Ġmusic": 1078,
      "Ġunique": 1079,
      "nect": 1080,
      "Ġgl": 1081,
      "Ġenviron": 1082,
      "Ġgener": 1083,
      "ron": 1084,
      "Ġanal": 1085,
      "Ġide": 1086,
      "ves": 1087,
      "Ġproject": 1088,
      "ict": 1089,
      "Ġhim": 1090,
      "Ġpop": 1091,
      "Ġrese": 1092,
      "tern": 1093,
      "Ġdown": 1094,
      "Ġunderstand": 1095,
      "Ġprof": 1096,
      "erm": 1097,
      "Ġgra": 1098,
      "Ġactiv": 1099,
      "ider": 1100,
      "Ġeffective": 1101,
      "ways": 1102,
      "Ġpres": 1103,
      "ving": 1104,
      "aging": 1105,
      "avor": 1106,
      "Ġmain": 1107,
      "Ġtips": 1108,
      "Ġgroup": 1109,
      "az": 1110,
      "Ġlist": 1111,
      "Ġuntil": 1112,
      "Ġpartic": 1113,
      "ables": 1114,
      "Ġ`": 1115,
      "ĊĠĠĠĠĠĠĠ": 1116,
      "ining": 1117,
      "ash": 1118,
      "ven": 1119,
      "Ġtry": 1120,
      "ript": 1121,
      "ier": 1122,
      "ble": 1123,
      "ath": 1124,
      "Ġstrateg": 1125,
      "Ġhere": 1126,
      "Ġtoget": 1127,
      "Ġtogether": 1128,
      "aterial": 1129,
      "ills": 1130,
      "atch": 1131,
      "Ġcare": 1132,
      "Ġresp": 1133,
      "Ġensure": 1134,
      "Ġmarketing": 1135,
      "hen": 1136,
      "Ġthen": 1137,
      "air": 1138,
      "Ġcount": 1139,
      "Ġlearn": 1140,
      "ooking": 1141,
      "ros": 1142,
      "Ġtop": 1143,
      "Ġlove": 1144,
      "Ġappro": 1145,
      "aut": 1146,
      "Ġpass": 1147,
      "Ġkeep": 1148,
      "ploy": 1149,
      "erc": 1150,
      "mer": 1151,
      "Ġbest": 1152,
      "ins": 1153,
      "ĠPro": 1154,
      "Ġenc": 1155,
      "Ġconf": 1156,
      "ribut": 1157,
      "Ġbel": 1158,
      "ences": 1159,
      "ants": 1160,
      "Ġcontin": 1161,
      "Ġcamp": 1162,
      "ability": 1163,
      "vent": 1164,
      "Ġstory": 1165,
      "Ġenvironment": 1166,
      "Ġbrand": 1167,
      "Ġaff": 1168,
      "Ġlight": 1169,
      "Ġpotential": 1170,
      "Ġdist": 1171,
      "Ġmon": 1172,
      "Ġdevelopment": 1173,
      "ied": 1174,
      "Ġoften": 1175,
      "Ġmaterial": 1176,
      "Ġindustry": 1177,
      "Ġpur": 1178,
      "cho": 1179,
      "Ġonly": 1180,
      "As": 1181,
      "Ġdr": 1182,
      "Ġlar": 1183,
      "Ġfriend": 1184,
      "ather": 1185,
      "Ġresult": 1186,
      "lu": 1187,
      "Ġgood": 1188,
      "Ġwebsite": 1189,
      "ries": 1190,
      "Ġident": 1191,
      "iving": 1192,
      "Ġclass": 1193,
      "Ġext": 1194,
      "Ġlocal": 1195,
      "ted": 1196,
      "Ġboth": 1197,
      "ds": 1198,
      "Ġwrit": 1199,
      "Ġstep": 1200,
      "Ġsub": 1201,
      "ommend": 1202,
      "Ġsure": 1203,
      "und": 1204,
      "Ġfamily": 1205,
      "ĠHowever": 1206,
      "Ġsty": 1207,
      "ced": 1208,
      "Ġhist": 1209,
      "ty": 1210,
      "Ġbeing": 1211,
      "ivers": 1212,
      "Ġfeatures": 1213,
      "bers": 1214,
      "Ġreduce": 1215,
      "ertainly": 1216,
      "Ġlevel": 1217,
      "Ġ$": 1218,
      "ĠIf": 1219,
      "Ġprot": 1220,
      "Ġcr": 1221,
      "Ġsense": 1222,
      "ĠAn": 1223,
      "Ġthose": 1224,
      "iven": 1225,
      "Ġtoo": 1226,
      "ists": 1227,
      "Ġdetails": 1228,
      "arget": 1229,
      "Ġconnect": 1230,
      "Ġpub": 1231,
      "Ġob": 1232,
      "Ġsom": 1233,
      "Ġgive": 1234,
      "Ġchang": 1235,
      "Ġrest": 1236,
      "orpor": 1237,
      "Ġfac": 1238,
      "Ġrecommend": 1239,
      "ĠEn": 1240,
      "atform": 1241,
      "Ġresearch": 1242,
      "chie": 1243,
      "Ġservices": 1244,
      "nce": 1245,
      "Ġtwo": 1246,
      "Ġ[": 1247,
      "ock": 1248,
      "com": 1249,
      "ave": 1250,
      "Ġcost": 1251,
      ".\"": 1252,
      "Ġusers": 1253,
      "der": 1254,
      "Ġchallenges": 1255,
      "Ġexperi": 1256,
      "ired": 1257,
      "Ġalways": 1258,
      "ĠYes": 1259,
      "ories": 1260,
      "Ġtyp": 1261,
      "Ġcharact": 1262,
      "Ġlet": 1263,
      "ody": 1264,
      "Ġchild": 1265,
      "ency": 1266,
      "ee": 1267,
      "Ġsever": 1268,
      "Ġinvol": 1269,
      "to": 1270,
      "ew": 1271,
      "Ġproducts": 1272,
      "Ġkey": 1273,
      "Ġemot": 1274,
      "Ġhum": 1275,
      "ah": 1276,
      "reen": 1277,
      "Ġmet": 1278,
      "Ġcommunity": 1279,
      "resh": 1280,
      "Ġplace": 1281,
      "Ġbeh": 1282,
      "Ġplatform": 1283,
      "verall": 1284,
      "ication": 1285,
      "ĠAl": 1286,
      "io": 1287,
      "ĠCertainly": 1288,
      "Ġcour": 1289,
      "Ġafter": 1290,
      "Ġachie": 1291,
      "uch": 1292,
      "Ġaudience": 1293,
      "Ġshare": 1294,
      "ism": 1295,
      "Ġear": 1296,
      "Ġcustomers": 1297,
      "Ġbetter": 1298,
      "Ġseveral": 1299,
      "Ġ{": 1300,
      "Ġcent": 1301,
      "ustain": 1302,
      "rite": 1303,
      "Ġmind": 1304,
      "aign": 1305,
      "Ġhome": 1306,
      "Ġvarious": 1307,
      "ically": 1308,
      "Ġcustomer": 1309,
      "ps": 1310,
      "Ġyears": 1311,
      "elt": 1312,
      "pped": 1313,
      "ode": 1314,
      "Ġop": 1315,
      "oura": 1316,
      "ĠRe": 1317,
      "Ġimplement": 1318,
      "Ġinvest": 1319,
      "ĠBut": 1320,
      "ĠBy": 1321,
      "light": 1322,
      "iel": 1323,
      "Ġtraditional": 1324,
      "joy": 1325,
      "Ġimportant": 1326,
      "Ġveget": 1327,
      "cing": 1328,
      "Ġcall": 1329,
      "cept": 1330,
      "Ġdon": 1331,
      "Ġonline": 1332,
      "Ġfil": 1333,
      "angu": 1334,
      "ital": 1335,
      "Ġsoft": 1336,
      "Ġagain": 1337,
      "ope": 1338,
      "Ġthough": 1339,
      "read": 1340,
      "way": 1341,
      "ined": 1342,
      "Ġcompany": 1343,
      "po": 1344,
      "pportun": 1345,
      "ason": 1346,
      "Ġcup": 1347,
      "Ġright": 1348,
      "Ġcampaign": 1349,
      "Ġtarget": 1350,
      "over": 1351,
      "Ġdef": 1352,
      "Ġways": 1353,
      "Ġser": 1354,
      ").": 1355,
      "abor": 1356,
      "Ġinflu": 1357,
      "cript": 1358,
      "ross": 1359,
      "Ġminut": 1360,
      "ething": 1361,
      "view": 1362,
      "less": 1363,
      "Ġbenefits": 1364,
      "ets": 1365,
      "ditionally": 1366,
      "ually": 1367,
      "Ġopportun": 1368,
      "pend": 1369,
      "be": 1370,
      "Ġsustain": 1371,
      "tle": 1372,
      "'m": 1373,
      "uce": 1374,
      "Ġ201": 1375,
      "Ġbo": 1376,
      "Ġlangu": 1377,
      "tain": 1378,
      "Ġpain": 1379,
      "Ġla": 1380,
      "Ġresources": 1381,
      "Ġoptions": 1382,
      "day": 1383,
      "ex": 1384,
      "Ġskills": 1385,
      "Ġself": 1386,
      "ĠCon": 1387,
      "pr": 1388,
      "Ġstill": 1389,
      "ik": 1390,
      "Ġpast": 1391,
      "ĊĠ": 1392,
      "Ġstudents": 1393,
      "Ġdid": 1394,
      "err": 1395,
      "Ġclear": 1396,
      "Ġsomething": 1397,
      "mon": 1398,
      "Ġrelations": 1399,
      "ination": 1400,
      ");": 1401,
      "Ġmental": 1402,
      "lus": 1403,
      "ese": 1404,
      "Ġemploy": 1405,
      "conom": 1406,
      "Ġtre": 1407,
      "Ġavail": 1408,
      "Ġbeaut": 1409,
      "wards": 1410,
      "Ġcor": 1411,
      "ases": 1412,
      "Ġphys": 1413,
      "Ġnatural": 1414,
      "Ġtest": 1415,
      "redients": 1416,
      "ank": 1417,
      "Ġrep": 1418,
      "Ġris": 1419,
      "Ġlook": 1420,
      "Ġrange": 1421,
      "ĠUn": 1422,
      "'re": 1423,
      "Ġeasy": 1424,
      "Ġposs": 1425,
      "Ġindividuals": 1426,
      "Ġsum": 1427,
      "Ġeduc": 1428,
      "Ġtell": 1429,
      "Ġincrease": 1430,
      "Ġnumber": 1431,
      "imes": 1432,
      "ream": 1433,
      "ording": 1434,
      "ery": 1435,
      "Ġmuch": 1436,
      "Ġneeds": 1437,
      "Ġiss": 1438,
      "St": 1439,
      "Ġcal": 1440,
      "Ġminutes": 1441,
      "ĠAdd": 1442,
      "Ġoil": 1443,
      "Ġlearning": 1444,
      "ato": 1445,
      "Ġsit": 1446,
      "Ġpositive": 1447,
      "Ġoffers": 1448,
      "irect": 1449,
      "Ġreally": 1450,
      "Ġgoals": 1451,
      "ilities": 1452,
      "oid": 1453,
      "Ġmove": 1454,
      "raph": 1455,
      "Ġfact": 1456,
      "```": 1457,
      "Ġable": 1458,
      "care": 1459,
      "Ġstand": 1460,
      "Ġcreating": 1461,
      "ouse": 1462,
      "work": 1463,
      "ĠAdditionally": 1464,
      "Ġothers": 1465,
      "Ġfelt": 1466,
      "Ġair": 1467,
      "ush": 1468,
      "vers": 1469,
      "Ġheart": 1470,
      "Ġprovides": 1471,
      "ethod": 1472,
      "thing": 1473,
      "Ġnever": 1474,
      "Ġeconom": 1475,
      "Ġmom": 1476,
      "Ġbusinesses": 1477,
      "Ġbased": 1478,
      "Ġpopular": 1479,
      "Ġcontro": 1480,
      "Ġmat": 1481,
      "ems": 1482,
      "ately": 1483,
      "Ġele": 1484,
      "uss": 1485,
      "ray": 1486,
      "Ġtem": 1487,
      "Ġhapp": 1488,
      "Ġpublic": 1489,
      "Ġdev": 1490,
      "Ġcomb": 1491,
      "iques": 1492,
      "rap": 1493,
      "Th": 1494,
      "Ġdep": 1495,
      "Ġknew": 1496,
      "Ġquality": 1497,
      "Ġworks": 1498,
      "Ġland": 1499,
      "oh": 1500,
      "Ġcity": 1501,
      "ern": 1502,
      "labor": 1503,
      "//": 1504,
      "Ġmess": 1505,
      "Ġexerc": 1506,
      "oose": 1507,
      "ĠAnd": 1508,
      "ape": 1509,
      "pping": 1510,
      "Ġlit": 1511,
      "Ġgrowth": 1512,
      "Ġ6": 1513,
      "Ġcolor": 1514,
      "ior": 1515,
      "ium": 1516,
      "ĠEm": 1517,
      "Ġcho": 1518,
      "back": 1519,
      "Ġpie": 1520,
      "uture": 1521,
      "Ġmeas": 1522,
      "ead": 1523,
      "Ġfore": 1524,
      "Ġlanguage": 1525,
      "Ġful": 1526,
      "Ġnut": 1527,
      "Ġincorpor": 1528,
      "Ġflavor": 1529,
      "Ġplease": 1530,
      "Ġprofess": 1531,
      "Ġstay": 1532,
      "orts": 1533,
      "Ġperformance": 1534,
      "Ġevents": 1535,
      "Ġexplore": 1536,
      "Ġtools": 1537,
      "Ġpost": 1538,
      "Ġchange": 1539,
      "br": 1540,
      "Ġmethod": 1541,
      "Ġconst": 1542,
      "alk": 1543,
      "land": 1544,
      "ĠSh": 1545,
      "Ġrole": 1546,
      "Ġcook": 1547,
      "hips": 1548,
      "Ġbelie": 1549,
      "ering": 1550,
      "oss": 1551,
      "ĠTo": 1552,
      "Ġhelps": 1553,
      "illed": 1554,
      "Ġactivities": 1555,
      "Ġelect": 1556,
      "pper": 1557,
      "Ġopen": 1558,
      "Ġwithout": 1559,
      "Ġevent": 1560,
      "Ġhistory": 1561,
      "ipe": 1562,
      "ney": 1563,
      "Ġvide": 1564,
      "Ġtechniques": 1565,
      "Ġfresh": 1566,
      "Ġmanagement": 1567,
      "Ġpoint": 1568,
      "Ġjour": 1569,
      "Ġpractices": 1570,
      "Ġstrong": 1571,
      "Ġfunction": 1572,
      "Ġing": 1573,
      "Ġfuture": 1574,
      "aring": 1575,
      "Ġquest": 1576,
      "Ġenjoy": 1577,
      "Ġessential": 1578,
      "cial": 1579,
      "Ġbody": 1580,
      "Ġsauce": 1581,
      "Ġareas": 1582,
      "weet": 1583,
      "Ġavailable": 1584,
      "ĠThere": 1585,
      "Ġsuccessful": 1586,
      "Ġanaly": 1587,
      "oring": 1588,
      "asing": 1589,
      "Ġcome": 1590,
      "Ġstru": 1591,
      "Ġfriends": 1592,
      "Ġcultural": 1593,
      "Ġapplic": 1594,
      "Ġinteract": 1595,
      "Ġ19": 1596,
      "Ġcontribut": 1597,
      "ats": 1598,
      "Ġnow": 1599,
      "ĠEx": 1600,
      "Ġstore": 1601,
      "Ġstudy": 1602,
      "rent": 1603,
      "urity": 1604,
      "Ġhope": 1605,
      "Ġpow": 1606,
      "Ġmot": 1607,
      "Ġoptim": 1608,
      "Ġreport": 1609,
      "Ġeffic": 1610,
      "ructure": 1611,
      "ale": 1612,
      "Ġdeep": 1613,
      "Ġbecome": 1614,
      "ried": 1615,
      "Ġfree": 1616,
      "ĠDo": 1617,
      "Ġknown": 1618,
      "izing": 1619,
      "Ġvisit": 1620,
      "Overall": 1621,
      "fect": 1622,
      "Ġscho": 1623,
      "Ġrenew": 1624,
      "Ġsaid": 1625,
      "________________________________": 1626,
      "let": 1627,
      "Ġservice": 1628,
      "Ġaddit": 1629,
      "ivity": 1630,
      "ĠAr": 1631,
      "Ġsym": 1632,
      "Ġidentify": 1633,
      "Ġmult": 1634,
      "Ġdra": 1635,
      "Ġemail": 1636,
      "Ġexc": 1637,
      "by": 1638,
      "ogn": 1639,
      "ĠWhat": 1640,
      "Ġstyle": 1641,
      "Ġanim": 1642,
      "âĢĿ": 1643,
      "Ġprofessional": 1644,
      "ibility": 1645,
      "Ġrun": 1646,
      "Ġmix": 1647,
      "Ġencoura": 1648,
      "Ġimm": 1649,
      "Ġmust": 1650,
      "Ġsystems": 1651,
      "olution": 1652,
      "Ġproper": 1653,
      "Ġinput": 1654,
      "Ġview": 1655,
      "Ġsaf": 1656,
      "gar": 1657,
      "ared": 1658,
      "Ġlim": 1659,
      "Ġey": 1660,
      "ames": 1661,
      "ze": 1662,
      "----": 1663,
      "ĠPl": 1664,
      "Ġlarge": 1665,
      "lex": 1666,
      "Ġhead": 1667,
      "Ġpa": 1668,
      "ret": 1669,
      "Ġsearch": 1670,
      "ours": 1671,
      "ger": 1672,
      "Ġaddress": 1673,
      "aves": 1674,
      "nces": 1675,
      "Ġequ": 1676,
      "Ġinteg": 1677,
      "Ġdiff": 1678,
      "ci": 1679,
      "Ġprotect": 1680,
      "Ġthink": 1681,
      "Ġmaterials": 1682,
      "Ġrele": 1683,
      "Ġstrugg": 1684,
      "Ġaffect": 1685,
      "oot": 1686,
      "ature": 1687,
      "Ġstrategies": 1688,
      "Ġmaintain": 1689,
      "Ġsens": 1690,
      "Ġworking": 1691,
      "Ġadditional": 1692,
      "vern": 1693,
      "ularly": 1694,
      "Ġtypes": 1695,
      "Ġphysical": 1696,
      "Ġhealthy": 1697,
      "Ġlow": 1698,
      "ĠBe": 1699,
      "hor": 1700,
      "rodu": 1701,
      "Ġest": 1702,
      "Ġfeed": 1703,
      "Ġcontrol": 1704,
      "Ġstress": 1705,
      "Ġhard": 1706,
      "Ġproviding": 1707,
      "Ġsol": 1708,
      "ember": 1709,
      "Ġcourse": 1710,
      "Ġ'": 1711,
      "irt": 1712,
      "Ġless": 1713,
      "Ġmil": 1714,
      "Ġ<": 1715,
      "Ġdirect": 1716,
      "fort": 1717,
      "ights": 1718,
      "meric": 1719,
      "ooks": 1720,
      "Ġ#": 1721,
      "ĊĠĠĠĠĠĠĠĠ": 1722,
      "ĠThat": 1723,
      "Ġel": 1724,
      "imate": 1725,
      "Ġpresent": 1726,
      "Ġachieve": 1727,
      "ring": 1728,
      "Ġbro": 1729,
      "Ġprograms": 1730,
      ",\"": 1731,
      "Ġwind": 1732,
      "Ġtransport": 1733,
      "ĠDe": 1734,
      "Ġconsum": 1735,
      "Ġexperiences": 1736,
      "Ġtru": 1737,
      "Ġquick": 1738,
      "Ġperfect": 1739,
      "Ġpromote": 1740,
      "Ġthings": 1741,
      "ances": 1742,
      "Ġcompet": 1743,
      "),": 1744,
      "Ġingredients": 1745,
      "Ġdeterm": 1746,
      "Ġtraining": 1747,
      "Ġface": 1748,
      "Ġpar": 1749,
      "Ġgovern": 1750,
      "ners": 1751,
      "omp": 1752,
      "Ġdoes": 1753,
      "Ġfollowing": 1754,
      "ention": 1755,
      "Ġchanges": 1756,
      "Ġrenewable": 1757,
      "Ġanother": 1758,
      "Ġtowards": 1759,
      "Ġideas": 1760,
      "Ġclean": 1761,
      "Ġoper": 1762,
      "come": 1763,
      "Ġspace": 1764,
      "Ġhelped": 1765,
      "Ġcharacter": 1766,
      "reng": 1767,
      "Ġtas": 1768,
      "Ġ10": 1769,
      "ource": 1770,
      "Ġupd": 1771,
      "Ġenh": 1772,
      "Ġoverall": 1773,
      "ising": 1774,
      "Ġmag": 1775,
      "Ġvers": 1776,
      "Ġtravel": 1777,
      "Ġcap": 1778,
      "ains": 1779,
      "Ġunder": 1780,
      "Ġwriting": 1781,
      "Ġspecial": 1782,
      "Ġprevent": 1783,
      "Ġstate": 1784,
      "Ġrout": 1785,
      "urther": 1786,
      "itation": 1787,
      "Ġmov": 1788,
      "Ġrecipe": 1789,
      "ann": 1790,
      "ograph": 1791,
      "Ġsun": 1792,
      "ĠâĢĵ": 1793,
      "Ġmight": 1794,
      "Ġcomplex": 1795,
      "Ġtrack": 1796,
      "ield": 1797,
      "Ġwithin": 1798,
      "Ġarea": 1799,
      "anies": 1800,
      "Ġsoftware": 1801,
      "apt": 1802,
      "ause": 1803,
      "Ġbal": 1804,
      "ote": 1805,
      "here": 1806,
      "vert": 1807,
      "Ġ}": 1808,
      "Ġacross": 1809,
      "word": 1810,
      "ugh": 1811,
      "ral": 1812,
      "Ġmar": 1813,
      "Ġvariety": 1814,
      "ĠWrite": 1815,
      "Ġvalue": 1816,
      "Ġbreat": 1817,
      "ression": 1818,
      "Ġcurrent": 1819,
      "oad": 1820,
      "Ġcrit": 1821,
      "Ġincludes": 1822,
      "me": 1823,
      "Ġgar": 1824,
      "ĠCould": 1825,
      "ration": 1826,
      "Ġdig": 1827,
      "ision": 1828,
      "Ġwee": 1829,
      "lish": 1830,
      "Ġreach": 1831,
      "acks": 1832,
      "Ġconsider": 1833,
      "ysis": 1834,
      "Ġculture": 1835,
      "Ġsame": 1836,
      "icult": 1837,
      "lusion": 1838,
      "Ġstreng": 1839,
      "oney": 1840,
      "Ġallows": 1841,
      "Ġopportunities": 1842,
      "Ġvisual": 1843,
      "ĠInd": 1844,
      "idd": 1845,
      "Ġes": 1846,
      "Ġmeet": 1847,
      "Ġhuman": 1848,
      "play": 1849,
      "Ġrece": 1850,
      "Ġsmo": 1851,
      "Ġmembers": 1852,
      "Ġjo": 1853,
      "fact": 1854,
      "Ġneg": 1855,
      "Ġelements": 1856,
      "Ġjob": 1857,
      "Ġfit": 1858,
      "Ġrequire": 1859,
      "aling": 1860,
      "Ġsweet": 1861,
      "ĠâĢľ": 1862,
      "sc": 1863,
      "Ġsat": 1864,
      "Ġcolle": 1865,
      "just": 1866,
      "ished": 1867,
      "Ġtast": 1868,
      "Ġchildren": 1869,
      "Ġsustainable": 1870,
      "Ġfund": 1871,
      "Ġbreak": 1872,
      "gin": 1873,
      "Ġseason": 1874,
      "Ġtype": 1875,
      "Ġbehav": 1876,
      "ides": 1877,
      "Ġtreat": 1878,
      "Ġbegan": 1879,
      "Ġheat": 1880,
      "Ġrespons": 1881,
      "ditions": 1882,
      "rast": 1883,
      "Ġcollabor": 1884,
      "Ġnet": 1885,
      "Ġbuilding": 1886,
      "ĠAmeric": 1887,
      "Ġpossible": 1888,
      "vant": 1889,
      "'ll": 1890,
      "osp": 1891,
      "Ġhot": 1892,
      "Ġside": 1893,
      "Ġ0": 1894,
      "Ġdifficult": 1895,
      "Ġinsp": 1896,
      "Ġdepend": 1897,
      "Ġtour": 1898,
      "Ġlast": 1899,
      "Ġobject": 1900,
      "ming": 1901,
      "Ġcheese": 1902,
      "Ġeducation": 1903,
      "nov": 1904,
      "ton": 1905,
      "ĠInst": 1906,
      "aur": 1907,
      "Ġissues": 1908,
      "ince": 1909,
      "Ġinit": 1910,
      "ift": 1911,
      "ĠInc": 1912,
      "Ġpepper": 1913,
      "Ġreturn": 1914,
      "Ġapproach": 1915,
      "Ġtimes": 1916,
      "Ġthroughout": 1917,
      "ĠSome": 1918,
      "Ġalong": 1919,
      "Ġbring": 1920,
      "iting": 1921,
      "reate": 1922,
      "yc": 1923,
      "Ġaccording": 1924,
      "Ġcommunication": 1925,
      "ees": 1926,
      "Ġdem": 1927,
      "Ġroom": 1928,
      "Ġengaging": 1929,
      "ises": 1930,
      "Ġmoment": 1931,
      "ĊĠĠĠĠĠĠĠĠĠĠĠ": 1932,
      "ructions": 1933,
      "Ġturn": 1934,
      "Ġlevels": 1935,
      "Ġfeeling": 1936,
      "de": 1937,
      "Ġcompanies": 1938,
      "Ġgame": 1939,
      "Ġsle": 1940,
      "Ġdescript": 1941,
      "aster": 1942,
      "Ġjourney": 1943,
      "Ġpan": 1944,
      "Ġsw": 1945,
      "Ġnext": 1946,
      "Ġmiss": 1947,
      "based": 1948,
      "Ġsources": 1949,
      "ards": 1950,
      "Ġpolic": 1951,
      "nam": 1952,
      "ug": 1953,
      "the": 1954,
      "icate": 1955,
      "Ġprep": 1956,
      "ĠSc": 1957,
      "Ġability": 1958,
      "Ġfeature": 1959,
      "Ġinfluenc": 1960,
      "Ġbreath": 1961,
      "rain": 1962,
      "Ġbas": 1963,
      "Ġparticip": 1964,
      "ffic": 1965,
      "ently": 1966,
      "Ġproble": 1967,
      "Ġpay": 1968,
      "ĠWith": 1969,
      "Ġagainst": 1970,
      "aj": 1971,
      "rehe": 1972,
      "ĠSp": 1973,
      "Ġpractice": 1974,
      "Ġavoid": 1975,
      "Ġtaking": 1976,
      "Ġvegetables": 1977,
      "izations": 1978,
      "Ġfeedback": 1979,
      "Ġsupp": 1980,
      "20": 1981,
      "Ġcommon": 1982,
      "face": 1983,
      "ĠTe": 1984,
      "ots": 1985,
      "Ġdesigned": 1986,
      "Ġter": 1987,
      "anced": 1988,
      "Ġstarted": 1989,
      "Ġnon": 1990,
      "Ġsteps": 1991,
      "Ġ7": 1992,
      "ibr": 1993,
      "icken": 1994,
      "iment": 1995,
      "Ġhealthcare": 1996,
      "10": 1997,
      "Ġbook": 1998,
      "Ġprint": 1999,
      "ived": 2000,
      "ĠRes": 2001,
      "Ġreducing": 2002,
      "ĠCl": 2003,
      "oci": 2004,
      "Ġsounds": 2005,
      "000": 2006,
      "ĠWhen": 2007,
      "Ġwarm": 2008,
      "Ġintern": 2009,
      "Ġleading": 2010,
      "oor": 2011,
      "Ġrepres": 2012,
      "Ġshort": 2013,
      "Ġsecurity": 2014,
      "Ġline": 2015,
      "Ġexpect": 2016,
      "Ġold": 2017,
      "Ġgreen": 2018,
      "ator": 2019,
      "ĠOne": 2020,
      "Ġleft": 2021,
      "ches": 2022,
      "pro": 2023,
      "ilar": 2024,
      "Ġaccount": 2025,
      "Ġaway": 2026,
      "hers": 2027,
      "duct": 2028,
      "Ġcheck": 2029,
      "rior": 2030,
      "af": 2031,
      "Ġname": 2032,
      "Ġdark": 2033,
      "Ġsn": 2034,
      "ruction": 2035,
      "Ġhold": 2036,
      "Ġlay": 2037,
      "Ġneeded": 2038,
      "Ġanalysis": 2039,
      "Ġunderstanding": 2040,
      "Ġmodern": 2041,
      "Ġbat": 2042,
      "Ġnecess": 2043,
      "side": 2044,
      "ancial": 2045,
      "elves": 2046,
      "Ġcode": 2047,
      "tt": 2048,
      "Ġclos": 2049,
      "owl": 2050,
      "Ġeffects": 2051,
      "()": 2052,
      "Ġpack": 2053,
      "ued": 2054,
      "Ġprogress": 2055,
      "Ġdi": 2056,
      "pos": 2057,
      "Ġfre": 2058,
      "Ġamount": 2059,
      "Ġschool": 2060,
      "Ġcra": 2061,
      "Ġeconomic": 2062,
      "friend": 2063,
      "Ġwom": 2064,
      "aw": 2065,
      "co": 2066,
      "Ġsalt": 2067,
      "Ġemotional": 2068,
      "Ġadjust": 2069,
      "icious": 2070,
      "Ġcomfort": 2071,
      "cul": 2072,
      "ths": 2073,
      "ified": 2074,
      "Ġsecond": 2075,
      "Ġnature": 2076,
      "Ġcream": 2077,
      "Ġcase": 2078,
      "ird": 2079,
      "Ġcolors": 2080,
      "selves": 2081,
      "Ġfile": 2082,
      "bo": 2083,
      "ele": 2084,
      "ĠCol": 2085,
      "ĠCreate": 2086,
      "orth": 2087,
      "Ġbecause": 2088,
      "Ġgovernment": 2089,
      "Ġdiscuss": 2090,
      "It": 2091,
      "aily": 2092,
      "aces": 2093,
      "arent": 2094,
      "Ġmean": 2095,
      "Ġhig": 2096,
      "Ġtool": 2097,
      "Ġdish": 2098,
      "ng": 2099,
      "Ġlik": 2100,
      "Ġred": 2101,
      "ĠIm": 2102,
      "ĠIs": 2103,
      "Ġcommunities": 2104,
      "Ġrisk": 2105,
      "Ġbutter": 2106,
      "ork": 2107,
      "Ġconvers": 2108,
      "ĠCons": 2109,
      "ĠSe": 2110,
      "Ġplatforms": 2111,
      "'ve": 2112,
      "Ġuses": 2113,
      "We": 2114,
      "izes": 2115,
      "Ġautom": 2116,
      "Ġsou": 2117,
      "Ġste": 2118,
      "Ġvol": 2119,
      "Ġkind": 2120,
      "Ġ8": 2121,
      "Ġsl": 2122,
      "itud": 2123,
      "Ġphot": 2124,
      "val": 2125,
      "ene": 2126,
      "Ġeffectively": 2127,
      "ledge": 2128,
      "irtual": 2129,
      "Ġtur": 2130,
      "ched": 2131,
      "pite": 2132,
      "Ġgoing": 2133,
      "overed": 2134,
      "Ġnav": 2135,
      "ferences": 2136,
      "ology": 2137,
      "ĠNew": 2138,
      "ixt": 2139,
      "Ġanx": 2140,
      "Ġlog": 2141,
      "aged": 2142,
      "ival": 2143,
      "rown": 2144,
      "Ġamong": 2145,
      "Ġvery": 2146,
      "ones": 2147,
      "Ġlooking": 2148,
      "Ġtransportation": 2149,
      "ĠQ": 2150,
      "ane": 2151,
      "lend": 2152,
      "ury": 2153,
      "Ġadapt": 2154,
      "time": 2155,
      "Ġyourself": 2156,
      "Ġnight": 2157,
      "Ġinnov": 2158,
      "Ġcontinue": 2159,
      "Ġsumm": 2160,
      "arah": 2161,
      "Ġreflect": 2162,
      "Ġleg": 2163,
      "Ġengagement": 2164,
      "Ġpurch": 2165,
      "Ġground": 2166,
      "ening": 2167,
      "iple": 2168,
      "Ġrelevant": 2169,
      "crib": 2170,
      "unch": 2171,
      "gle": 2172,
      "Ġthree": 2173,
      "iful": 2174,
      "Ġrelationships": 2175,
      "itut": 2176,
      "Ġcountry": 2177,
      "Ġcapt": 2178,
      "ires": 2179,
      "Ġcut": 2180,
      "Ġcooking": 2181,
      "Ġhours": 2182,
      "idence": 2183,
      "for": 2184,
      "poon": 2185,
      "sing": 2186,
      "Ġpaper": 2187,
      "Ġbowl": 2188,
      "anks": 2189,
      "igate": 2190,
      "Ġhighlight": 2191,
      "Ġattention": 2192,
      "Ġeverything": 2193,
      "Ġbehavior": 2194,
      "place": 2195,
      "Ġmakes": 2196,
      "Ġessay": 2197,
      "Ġmotiv": 2198,
      "rate": 2199,
      "ges": 2200,
      "Ġsize": 2201,
      "Ġdaily": 2202,
      "Ġchoose": 2203,
      "Ġbecame": 2204,
      "rop": 2205,
      "ored": 2206,
      "Ġflow": 2207,
      "Ġproduction": 2208,
      "book": 2209,
      "ĠZ": 2210,
      "Ġnecessary": 2211,
      "app": 2212,
      "ened": 2213,
      "Ġfurther": 2214,
      "oun": 2215,
      "Ġfru": 2216,
      "Ġvideo": 2217,
      "Ġsymb": 2218,
      "Ġnegative": 2219,
      "Ġorder": 2220,
      "ĠMar": 2221,
      "Ġpress": 2222,
      "orn": 2223,
      "Ġspir": 2224,
      "Ġskin": 2225,
      "Ġsimple": 2226,
      "Ġemotions": 2227,
      "Ġenhance": 2228,
      "friendly": 2229,
      "Ġput": 2230,
      "Ġfinancial": 2231,
      "ixture": 2232,
      "Ġ//": 2233,
      "olutions": 2234,
      "Ġimportance": 2235,
      "Ġrecommendations": 2236,
      "ĠYour": 2237,
      "Ġrestaur": 2238,
      "Ġgre": 2239,
      "Ġguide": 2240,
      "To": 2241,
      "Ġled": 2242,
      "atic": 2243,
      "Ġreview": 2244,
      "ĠJoh": 2245,
      "arr": 2246,
      "alls": 2247,
      "istic": 2248,
      "iod": 2249,
      "Ġlives": 2250,
      "Ġliving": 2251,
      "Ġdigital": 2252,
      "Ġlive": 2253,
      "Ġcreative": 2254,
      "Ġtemper": 2255,
      "Ġmanage": 2256,
      "atoes": 2257,
      "Ġhy": 2258,
      "oph": 2259,
      "Ġmo": 2260,
      "Ġsleep": 2261,
      "Ġbeauty": 2262,
      "Ġsurround": 2263,
      "Ġresults": 2264,
      "Ġocc": 2265,
      "Ġguid": 2266,
      "Ġeyes": 2267,
      "Ġmessage": 2268,
      "Ġquestions": 2269,
      "Ġchicken": 2270,
      "Ġidea": 2271,
      "Ġattract": 2272,
      "Ġseen": 2273,
      "Ġlocation": 2274,
      "oms": 2275,
      "Ġbeautiful": 2276,
      "Ġprote": 2277,
      "Ġaction": 2278,
      "elebr": 2279,
      "Ġfactors": 2280,
      "ĠRem": 2281,
      "Ġegg": 2282,
      "ili": 2283,
      "ops": 2284,
      "Ġefforts": 2285,
      "Ġaddition": 2286,
      "Ġport": 2287,
      "Ġpowerful": 2288,
      "Ġdays": 2289,
      "Ġfull": 2290,
      "Ġprior": 2291,
      "Step": 2292,
      "Ġthin": 2293,
      "ĠMake": 2294,
      "Ġstrategy": 2295,
      "itude": 2296,
      "fulness": 2297,
      "ators": 2298,
      "Ġcell": 2299,
      "Ġalm": 2300,
      "Ġhelpful": 2301,
      "Ġill": 2302,
      "Ġseem": 2303,
      "Ġgarlic": 2304,
      "Ġaware": 2305,
      "ids": 2306,
      "Ġlittle": 2307,
      "Ġamaz": 2308,
      "Ġquickly": 2309,
      "iver": 2310,
      "Ġshowc": 2311,
      "Ġbar": 2312,
      "Ġanxiety": 2313,
      "Ġthought": 2314,
      "ott": 2315,
      "(\"": 2316,
      "ĠDes": 2317,
      "ised": 2318,
      "Ġcountries": 2319,
      "onse": 2320,
      "asc": 2321,
      "elling": 2322,
      "Ġmixture": 2323,
      "Ġtherap": 2324,
      "Ġblack": 2325,
      "Ġfavor": 2326,
      "Ġsitu": 2327,
      "Ġz": 2328,
      "Ġmonit": 2329,
      "Ġexplain": 2330,
      "Ġtaste": 2331,
      "illing": 2332,
      "cking": 2333,
      "head": 2334,
      "Ġarch": 2335,
      "Ġincreasing": 2336,
      "Ġ&": 2337,
      "Ġinstall": 2338,
      "ging": 2339,
      "Ġsales": 2340,
      "Ġwond": 2341,
      "ilt": 2342,
      "Ġorganizations": 2343,
      "fer": 2344,
      "Ġsatis": 2345,
      "rehens": 2346,
      "ground": 2347,
      "Ġcru": 2348,
      "nds": 2349,
      "enge": 2350,
      "Ġbegin": 2351,
      "Ġadding": 2352,
      "Ġtri": 2353,
      "Ġdue": 2354,
      "Ġever": 2355,
      "Ġconsist": 2356,
      "Ġemployees": 2357,
      "Ġprovided": 2358,
      "Ġbur": 2359,
      "These": 2360,
      "Ġcaus": 2361,
      "emic": 2362,
      "ont": 2363,
      "ront": 2364,
      "Ġthemselves": 2365,
      "Ġcreated": 2366,
      "But": 2367,
      "Ġrelax": 2368,
      "Ġcover": 2369,
      "Ġincreased": 2370,
      "Ġcosts": 2371,
      "Ġemerg": 2372,
      "erve": 2373,
      "Ġweb": 2374,
      "Ġencourage": 2375,
      "Ġdetailed": 2376,
      "Ġmultiple": 2377,
      "Ġarr": 2378,
      "Ġknowledge": 2379,
      "quality": 2380,
      "Ġcampaigns": 2381,
      "ters": 2382,
      "Ġhom": 2383,
      "Ġauthor": 2384,
      "Ġherself": 2385,
      "ina": 2386,
      "Ġcool": 2387,
      "Ġdelicious": 2388,
      "Ġbalance": 2389,
      "ĠBl": 2390,
      "Ġimages": 2391,
      "Ġabove": 2392,
      "ged": 2393,
      "hel": 2394,
      "Ġblend": 2395,
      "Ġorganization": 2396,
      "of": 2397,
      "Ġtom": 2398,
      "Ġant": 2399,
      "Ġimag": 2400,
      "terns": 2401,
      "Ġefficient": 2402,
      "Ġbread": 2403,
      "Ġgiven": 2404,
      "par": 2405,
      "Ġselect": 2406,
      "Ġperiod": 2407,
      "Ġ9": 2408,
      "Ġrealized": 2409,
      "Ġestab": 2410,
      "Ġmob": 2411,
      "iced": 2412,
      "Ġexercise": 2413,
      "reci": 2414,
      "Ġgain": 2415,
      "Ġremind": 2416,
      "Ġsuggestions": 2417,
      "ura": 2418,
      "illion": 2419,
      "One": 2420,
      "Ġaim": 2421,
      "Ġdest": 2422,
      "Ġsurv": 2423,
      "Ġcharacters": 2424,
      "atives": 2425,
      "Ġcontain": 2426,
      "Ġapplication": 2427,
      "Ġcomput": 2428,
      "Ġassoci": 2429,
      "Ġsugar": 2430,
      "vey": 2431,
      "Ġenough": 2432,
      "Ġclimate": 2433,
      "ĠĠĠĠĠĠĠĠĠĠĠĠĠĠĠĠ": 2434,
      "Ġpric": 2435,
      "acy": 2436,
      "):": 2437,
      "ows": 2438,
      "Ġcomprehens": 2439,
      "Ġrecogn": 2440,
      "Ġinteresting": 2441,
      "ites": 2442,
      "Ġsche": 2443,
      "inally": 2444,
      "Ġwords": 2445,
      "Ġinvolves": 2446,
      "sh": 2447,
      "Ġmaj": 2448,
      "Ġtasks": 2449,
      "Ġtakes": 2450,
      "Ġsmooth": 2451,
      "Ġnear": 2452,
      "Ġexh": 2453,
      "Ġhigher": 2454,
      "ump": 2455,
      "Ġbud": 2456,
      "Ġstat": 2457,
      "Ġtou": 2458,
      "Ġfield": 2459,
      "Ġwin": 2460,
      "Ġitems": 2461,
      "Ġpoem": 2462,
      "Ġappreci": 2463,
      "Ġut": 2464,
      "Ġtables": 2465,
      "iverse": 2466,
      "ĠHer": 2467,
      "Ġglob": 2468,
      "cell": 2469,
      "Ġpatterns": 2470,
      "Ġconclusion": 2471,
      "This": 2472,
      "istance": 2473,
      "ĠMay": 2474,
      "uro": 2475,
      "Ġsource": 2476,
      "Ġremain": 2477,
      "aching": 2478,
      "Ġsomeone": 2479,
      "Ġmeditation": 2480,
      "pose": 2481,
      "Ġcomes": 2482,
      "Ġtrying": 2483,
      "umb": 2484,
      "Ġprojects": 2485,
      "aving": 2486,
      "Ġfunct": 2487,
      "inal": 2488,
      "ĠSarah": 2489,
      "pecial": 2490,
      "Ġparticularly": 2491,
      "Ġsing": 2492,
      "Ġpage": 2493,
      "Ġlearned": 2494,
      "Ġconditions": 2495,
      "Ġsolutions": 2496,
      "ĠOr": 2497,
      "ests": 2498,
      "Ġheav": 2499,
      "And": 2500,
      "Ġdisplay": 2501,
      "itect": 2502,
      "Ġcelebr": 2503,
      "Ġlov": 2504,
      "ĠApp": 2505,
      "ĠWow": 2506,
      "ument": 2507,
      "ety": 2508,
      "Ġsalad": 2509,
      "Ġwaste": 2510,
      "olutely": 2511,
      "Ġoption": 2512,
      "bon": 2513,
      "Ġpiece": 2514,
      "Ġvirtual": 2515,
      "ley": 2516,
      "anger": 2517,
      "Ġvalues": 2518,
      "icle": 2519,
      "Ġyoung": 2520,
      "Ġearly": 2521,
      "Ġwood": 2522,
      "Ġmach": 2523,
      "erson": 2524,
      "Ġactivity": 2525,
      "Ġerr": 2526,
      "ĠEng": 2527,
      "Ġbig": 2528,
      "rics": 2529,
      "Ġpersonalized": 2530,
      "Ġbehind": 2531,
      "zz": 2532,
      "Ġrelationship": 2533,
      "Ġfoot": 2534,
      "Ġtechnologies": 2535,
      "Ġexercises": 2536,
      "astic": 2537,
      "Ġadded": 2538,
      "Ġexperienc": 2539,
      "Ġrepresent": 2540,
      "Ġhouse": 2541,
      "Ġdishes": 2542,
      "Ġadvert": 2543,
      "Ġcomprehensive": 2544,
      "Ġslic": 2545,
      "Ġemb": 2546,
      "Ġsaw": 2547,
      "ma": 2548,
      "Ġappe": 2549,
      "cent": 2550,
      "Ġversion": 2551,
      "Ġstructure": 2552,
      "Ġrates": 2553,
      "Ġelectric": 2554,
      "Ġlikely": 2555,
      "Ġamazing": 2556,
      "Ġcouldn": 2557,
      "Ġslow": 2558,
      "Ġplant": 2559,
      "Ġcommit": 2560,
      "Ġprotein": 2561,
      "imately": 2562,
      "Ġonce": 2563,
      "Ġiniti": 2564,
      "Ġap": 2565,
      "outh": 2566,
      "Ġsymbol": 2567,
      "ffee": 2568,
      "Ġyog": 2569,
      "iveness": 2570,
      "Ġcritical": 2571,
      "Ġwide": 2572,
      "sp": 2573,
      "Ġwalk": 2574,
      "Ġlower": 2575,
      "istics": 2576,
      "Ġwa": 2577,
      "ĠAll": 2578,
      "Ġask": 2579,
      "eds": 2580,
      "Ġvari": 2581,
      "ĠKe": 2582,
      "Ġenvironmental": 2583,
      "Ġdevices": 2584,
      "aches": 2585,
      "Ġdise": 2586,
      "Ġinvolved": 2587,
      "Ġmen": 2588,
      "Ġsince": 2589,
      "ians": 2590,
      "ĠTra": 2591,
      "Ġresponse": 2592,
      "wer": 2593,
      "ption": 2594,
      "Ġmeasure": 2595,
      "Ġtook": 2596,
      "Ġengine": 2597,
      "For": 2598,
      "hood": 2599,
      "Ġdeveloping": 2600,
      "na": 2601,
      "med": 2602,
      "ulation": 2603,
      "oogle": 2604,
      "Ġmeans": 2605,
      "urt": 2606,
      "rist": 2607,
      "Ġleaves": 2608,
      "Ġmethods": 2609,
      "Ġstories": 2610,
      "Ġexpress": 2611,
      "gor": 2612,
      "Ġcame": 2613,
      "ivate": 2614,
      "ĠName": 2615,
      "aken": 2616,
      "Ġpartners": 2617,
      "Ġimproving": 2618,
      "Ġtoday": 2619,
      "Ġfear": 2620,
      "An": 2621,
      "Ġpreferences": 2622,
      "Ġextra": 2623,
      "Ġengage": 2624,
      "Ġregular": 2625,
      "Ġfaced": 2626,
      "Ġbit": 2627,
      "Ġtexture": 2628,
      "Ġarchitect": 2629,
      "Ġstring": 2630,
      "Ġmention": 2631,
      "Ġpolit": 2632,
      "Ġtable": 2633,
      "oice": 2634,
      "ĠInt": 2635,
      "Ġfavorite": 2636,
      "Ġstrength": 2637,
      "Ġlot": 2638,
      "Ġsong": 2639,
      "Ġchann": 2640,
      "ensive": 2641,
      "ĠAmerican": 2642,
      "Ġdone": 2643,
      "Ġju": 2644,
      "rid": 2645,
      "uck": 2646,
      "Ġbudget": 2647,
      "Ġwhy": 2648,
      "Ġsetting": 2649,
      "cy": 2650,
      "phas": 2651,
      "Ġcrucial": 2652,
      "ĠSy": 2653,
      "ull": 2654,
      "Ġtrust": 2655,
      "ĠMed": 2656,
      "Ġeasily": 2657,
      "Ġcontact": 2658,
      "Ġinsights": 2659,
      "Ġsimilar": 2660,
      "Ġpeace": 2661,
      "Ġaltern": 2662,
      "unte": 2663,
      "Ġdidn": 2664,
      "Ġtal": 2665,
      "Ġdam": 2666,
      "Ġshap": 2667,
      "Ġ+": 2668,
      "Ġparent": 2669,
      "set": 2670,
      "ĠComp": 2671,
      "________________________________________________________________": 2672,
      "aks": 2673,
      "ĠMe": 2674,
      "Ġsho": 2675,
      "Ġchallenge": 2676,
      "Ġpromoting": 2677,
      "Wh": 2678,
      "Ġrich": 2679,
      "Ġhappy": 2680,
      "Ġrev": 2681,
      "Ġfilm": 2682,
      "Ġmajor": 2683,
      "iency": 2684,
      "Ġminim": 2685,
      "go": 2686,
      "Ġinstructions": 2687,
      "Ġmilk": 2688,
      "orage": 2689,
      "Ġweight": 2690,
      "Ġregion": 2691,
      "Ġur": 2692,
      "Ġol": 2693,
      "pecially": 2694,
      "gorith": 2695,
      "Ġwatch": 2696,
      "ĠThanks": 2697,
      "urs": 2698,
      "ĠChe": 2699,
      "Ġartists": 2700,
      "Ġinterested": 2701,
      "Ġpowder": 2702,
      "Ġpair": 2703,
      "Ġroutine": 2704,
      "Ġtown": 2705,
      "olate": 2706,
      "ĠPh": 2707,
      "AR": 2708,
      "Ġleast": 2709,
      "Ġsave": 2710,
      "Ġbecom": 2711,
      "aps": 2712,
      "Ġgoal": 2713,
      "Ġcalled": 2714,
      "aly": 2715,
      "Ġcoffee": 2716,
      "Ġwal": 2717,
      "Ġhaving": 2718,
      "nder": 2719,
      "Ġwar": 2720,
      "isp": 2721,
      "Ġgenerate": 2722,
      "Ġscient": 2723,
      "Ġelse": 2724,
      "ĠAm": 2725,
      "Ġorig": 2726,
      "Ġaspect": 2727,
      "ony": 2728,
      "Ġpred": 2729,
      "Ġstre": 2730,
      "ĠSu": 2731,
      "Ġcenter": 2732,
      "Ġdress": 2733,
      "Ġalgorith": 2734,
      "ĠJohn": 2735,
      "Ġtemperature": 2736,
      "Ġdiet": 2737,
      "Ġones": 2738,
      "=\"": 2739,
      "Ġespecially": 2740,
      "Ġclients": 2741,
      "Ġtransform": 2742,
      "ipment": 2743,
      "Ġmobile": 2744,
      "ĠCar": 2745,
      "50": 2746,
      "cer": 2747,
      "Ġlost": 2748,
      "Ġgroups": 2749,
      "cast": 2750,
      "oud": 2751,
      "Ġchopped": 2752,
      "Ġmel": 2753,
      "Ġemphas": 2754,
      "Ġpath": 2755,
      "ext": 2756,
      "gest": 2757,
      "..": 2758,
      "Ġnetwork": 2759,
      "cle": 2760,
      "Ġwild": 2761,
      "ĠTr": 2762,
      "Ġmedium": 2763,
      "man": 2764,
      "Ġforest": 2765,
      "ĠAbs": 2766,
      "Ġinstead": 2767,
      "ding": 2768,
      "ĠComm": 2769,
      "Ġeveryone": 2770,
      "Ġanything": 2771,
      "Ġrecip": 2772,
      "Ġbackground": 2773,
      "life": 2774,
      "Ġweather": 2775,
      "apan": 2776,
      "Ġhab": 2777,
      "Ġlif": 2778,
      "Ġsubst": 2779,
      "Ġcard": 2780,
      "Ġcause": 2781,
      "Ġfitness": 2782,
      "ĠConsider": 2783,
      "nding": 2784,
      "Ġgen": 2785,
      "Ġmeal": 2786,
      "Ġarray": 2787,
      "Ġsafety": 2788,
      "ĠSo": 2789,
      "ification": 2790,
      "Ġdream": 2791,
      "Ġspirit": 2792,
      "Ġallowing": 2793,
      "Ġconduct": 2794,
      "ĠOur": 2795,
      "ength": 2796,
      "ER": 2797,
      "Ġloss": 2798,
      "ĠDevelop": 2799,
      "hold": 2800,
      "Ġcertain": 2801,
      "Ġpowers": 2802,
      "iddle": 2803,
      "Ġmodel": 2804,
      "Ġpoints": 2805,
      "era": 2806,
      "ĠAbsolutely": 2807,
      "ky": 2808,
      "Ġwhite": 2809,
      "dule": 2810,
      "Ġeasier": 2811,
      "itch": 2812,
      "ĠRed": 2813,
      "den": 2814,
      "yth": 2815,
      "Ġdescrib": 2816,
      "Ġsav": 2817,
      "ĠSal": 2818,
      "Ġsecure": 2819,
      "Ġdemand": 2820,
      "Ġanimals": 2821,
      "Ġmatter": 2822,
      "Ġexist": 2823,
      "ai": 2824,
      "Ġincorporate": 2825,
      "ils": 2826,
      "ufact": 2827,
      "ĠSm": 2828,
      "Ġconflic": 2829,
      "Ġprev": 2830,
      "Ġgetting": 2831,
      "Ġimage": 2832,
      "Ġadvent": 2833,
      "Ġtrue": 2834,
      "Ġmoney": 2835,
      "ĠWor": 2836,
      "Ġafford": 2837,
      "ĠCont": 2838,
      ".,": 2839,
      "Ġopportunity": 2840,
      "Ġweek": 2841,
      "ole": 2842,
      "ecut": 2843,
      "Ġsent": 2844,
      "Ġexcell": 2845,
      "ĠOf": 2846,
      "--------": 2847,
      "yle": 2848,
      "Ġrelated": 2849,
      "uable": 2850,
      "ĠProv": 2851,
      "Ã©": 2852,
      "Ġfar": 2853,
      "Ġexperiment": 2854,
      "ronic": 2855,
      "ĠJapan": 2856,
      "ĠSoc": 2857,
      "ĠMan": 2858,
      "ials": 2859,
      "Ġplayed": 2860,
      "Ġthoughts": 2861,
      "tics": 2862,
      "Ġterms": 2863,
      "term": 2864,
      "step": 2865,
      "Ġcareer": 2866,
      "free": 2867,
      "opt": 2868,
      "ws": 2869,
      "Ġintrodu": 2870,
      "Ġattend": 2871,
      "being": 2872,
      "Ġglobal": 2873,
      "Ġmindfulness": 2874,
      "Ġfish": 2875,
      "Ġforward": 2876,
      "venue": 2877,
      "ctor": 2878,
      "lished": 2879,
      "Ġblog": 2880,
      "Ġrequired": 2881,
      "rastructure": 2882,
      "Ġdry": 2883,
      "Ġhistor": 2884,
      "Ġassociated": 2885,
      "Ġtouch": 2886,
      "'d": 2887,
      "ĠWhile": 2888,
      "Ġwhole": 2889,
      "Ġcollect": 2890,
      "Ġflav": 2891,
      "uff": 2892,
      "Ġscript": 2893,
      "rated": 2894,
      "mit": 2895,
      "ological": 2896,
      "Ġfarm": 2897,
      "Ġgard": 2898,
      "ĠAlso": 2899,
      "Ġinteractive": 2900,
      "ĠLe": 2901,
      "Ġcir": 2902,
      "Ġbrown": 2903,
      "Ġdecor": 2904,
      "Ġsqu": 2905,
      "Ġwent": 2906,
      "Ġmemory": 2907,
      "ĠMarket": 2908,
      "ension": 2909,
      "Ġfocused": 2910,
      "Ġrecent": 2911,
      "ĊĠĠĠĠĠ": 2912,
      "Ġawareness": 2913,
      "Ġdemon": 2914,
      "Ġrate": 2915,
      "ĠUnited": 2916,
      "Ġequipment": 2917,
      "Ġtraffic": 2918,
      "Ġstudies": 2919,
      "print": 2920,
      "Ġoutd": 2921,
      "Ġplanning": 2922,
      "ino": 2923,
      "Ġ30": 2924,
      "Ġhighly": 2925,
      "ying": 2926,
      "Ġobs": 2927,
      "Ġhost": 2928,
      "Ġanc": 2929,
      "ashion": 2930,
      "Ġlat": 2931,
      "Ġgames": 2932,
      "ancing": 2933,
      "Ġcomplete": 2934,
      "Ġfour": 2935,
      "ĠOnce": 2936,
      "Ġmeaning": 2937,
      "rig": 2938,
      "ĠGoogle": 2939,
      "Ġovercome": 2940,
      "Ġleaders": 2941,
      "oyal": 2942,
      "ags": 2943,
      "Ġteas": 2944,
      "Ġfight": 2945,
      "Ġann": 2946,
      "Ġappear": 2947,
      "Ġwhether": 2948,
      "Ġimplemented": 2949,
      "Ġseries": 2950,
      "Ġ|": 2951,
      "Ġstorage": 2952,
      "Ġmeasures": 2953,
      "Ġolive": 2954,
      "Ġclose": 2955,
      "Ġpark": 2956,
      "Ġworked": 2957,
      "Ġdoing": 2958,
      "Ġliter": 2959,
      "Ġfrequ": 2960,
      "cks": 2961,
      "Ġsay": 2962,
      "rel": 2963,
      "Ġprim": 2964,
      "Ġbaking": 2965,
      "Ġsurface": 2966,
      "asted": 2967,
      "Ġshape": 2968,
      "Ġchoice": 2969,
      "Ġdeveloped": 2970,
      "ok": 2971,
      "Ġmeat": 2972,
      "By": 2973,
      "Ġmedical": 2974,
      "Ġvideos": 2975,
      "ocolate": 2976,
      "ĊĠĠĠĠĠĠĠĠĠĠĠĠ": 2977,
      "Ġtherapy": 2978,
      "issions": 2979,
      "Ġcalcul": 2980,
      "Ġpieces": 2981,
      "ĠSet": 2982,
      "ught": 2983,
      "Ġinfrastructure": 2984,
      "Ġbelieve": 2985,
      "Ġsil": 2986,
      "Ġnumbers": 2987,
      "Ġmount": 2988,
      "Ġstream": 2989,
      "Ġdat": 2990,
      "Ġplants": 2991,
      "dition": 2992,
      "Ġserve": 2993,
      "Ġcred": 2994,
      "Ġrice": 2995,
      "urope": 2996,
      "Ġfall": 2997,
      "Ġhair": 2998,
      "Ġarg": 2999,
      "uild": 3000,
      "atitude": 3001,
      "ĠOn": 3002,
      "Ġhands": 3003,
      "ana": 3004,
      "Ġpolicies": 3005,
      "Ġtaken": 3006,
      "earch": 3007,
      "icles": 3008,
      "ached": 3009,
      "Ch": 3010,
      "IN": 3011,
      "Ġcontinued": 3012,
      "Ġapplications": 3013,
      "Ġlimited": 3014,
      "Ġchallenging": 3015,
      "aff": 3016,
      "pective": 3017,
      "ields": 3018,
      "Ġvolunte": 3019,
      "pri": 3020,
      "hent": 3021,
      "Ġelement": 3022,
      "Ġvaluable": 3023,
      "iversity": 3024,
      "Ġoutside": 3025,
      "Ġmanufact": 3026,
      "init": 3027,
      "Ġbright": 3028,
      "Ġtax": 3029,
      "Ġoven": 3030,
      "Ġhandle": 3031,
      "mosp": 3032,
      "Ġstir": 3033,
      "Ġexpert": 3034,
      "Ġposition": 3035,
      "Ġcarbon": 3036,
      "Ġdistribut": 3037,
      "Ġexpand": 3038,
      "Ġconnection": 3039,
      "Ġfail": 3040,
      "Ġemp": 3041,
      "19": 3042,
      "Ġ200": 3043,
      "Ġpractical": 3044,
      "agram": 3045,
      "Ġsuit": 3046,
      "Ġge": 3047,
      "ĠAv": 3048,
      "Ġflour": 3049,
      "Ġutil": 3050,
      "Ġcou": 3051,
      "Ġmass": 3052,
      "itle": 3053,
      "Ġdecision": 3054,
      "Ġlonger": 3055,
      "Ġpurchase": 3056,
      "inating": 3057,
      "sy": 3058,
      "Ġrecord": 3059,
      "ĠEurope": 3060,
      "Ġthr": 3061,
      "Ġwrite": 3062,
      "Ġlocated": 3063,
      "Ġnutrit": 3064,
      "Ġcompon": 3065,
      "Ġtim": 3066,
      "lection": 3067,
      "Ġsoon": 3068,
      "Ġbuilt": 3069,
      "Ġefficiency": 3070,
      "Ġsuper": 3071,
      "Ġatmosp": 3072,
      "Ġoffering": 3073,
      "Ġsand": 3074,
      "Ġdemonst": 3075,
      "ned": 3076,
      "Ġgold": 3077,
      "ster": 3078,
      "Ġexcellent": 3079,
      "Ġteac": 3080,
      "Ġplans": 3081,
      "Ġthemes": 3082,
      "Ġreli": 3083,
      "iction": 3084,
      "Ġdesigns": 3085,
      "Ġdoc": 3086,
      "Ġstra": 3087,
      "une": 3088,
      "Ġmovement": 3089,
      "att": 3090,
      "Ġdraw": 3091,
      "Ġmatch": 3092,
      "Ġentire": 3093,
      "alf": 3094,
      "Ġoptimize": 3095,
      "Ġproblem": 3096,
      "min": 3097,
      "ĠAlex": 3098,
      "ference": 3099,
      "Ġadvanced": 3100,
      "Ġcontribute": 3101,
      "alu": 3102,
      "Ġgraph": 3103,
      "Ġreceive": 3104,
      "Ġflex": 3105,
      "isions": 3106,
      "Ġmax": 3107,
      "Ġmentioned": 3108,
      "fl": 3109,
      "Ġadvance": 3110,
      "Ġsus": 3111,
      "iring": 3112,
      "Ġfilled": 3113,
      "Ġshared": 3114,
      "Ġprevious": 3115,
      "Ġupdated": 3116,
      "Ġstyles": 3117,
      "inks": 3118,
      "Ġsess": 3119,
      "icro": 3120,
      "Ġproductivity": 3121,
      "agon": 3122,
      "Ġsolar": 3123,
      "lying": 3124,
      "Ġincorporating": 3125,
      "Ġpriorit": 3126,
      "Ġsmart": 3127,
      "overy": 3128,
      "ado": 3129,
      "plic": 3130,
      "rict": 3131,
      "othing": 3132,
      "Ġbir": 3133,
      "Ġhear": 3134,
      "Ġlooks": 3135,
      "Ġplayers": 3136,
      "my": 3137,
      "Ġfire": 3138,
      "arian": 3139,
      "fs": 3140,
      "Ġfig": 3141,
      "ĠFace": 3142,
      "ties": 3143,
      "ena": 3144,
      "eter": 3145,
      "Ġcand": 3146,
      "Ġded": 3147,
      "Ġdanger": 3148,
      "irm": 3149,
      "Ġdetect": 3150,
      "Ġseemed": 3151,
      "yond": 3152,
      "Ġet": 3153,
      "Ġcreatures": 3154,
      "Ġcollection": 3155,
      "Ad": 3156,
      "Ġdance": 3157,
      "ĠCent": 3158,
      "Ġquestion": 3159,
      "oint": 3160,
      "isc": 3161,
      "rame": 3162,
      "Ġdepending": 3163,
      "ades": 3164,
      "ĠCo": 3165,
      "ĠChrist": 3166,
      "Ġabilities": 3167,
      "Ġconstant": 3168,
      "ĠThank": 3169,
      "Ġsociety": 3170,
      "Ġactive": 3171,
      "],": 3172,
      "net": 3173,
      "iling": 3174,
      "stac": 3175,
      "Ġbase": 3176,
      "bor": 3177,
      "inary": 3178,
      "Ġfest": 3179,
      "Ġimproved": 3180,
      "ES": 3181,
      "Ġcoc": 3182,
      "Ġrestaurant": 3183,
      "Ġfashion": 3184,
      "Ġevalu": 3185,
      "Ġappropri": 3186,
      "Ġthing": 3187,
      "Ġ18": 3188,
      "Ġtrends": 3189,
      "rect": 3190,
      "oop": 3191,
      "Ġroll": 3192,
      "Ġinvestment": 3193,
      "Ġnews": 3194,
      "12": 3195,
      "Ġgreater": 3196,
      "Ġvoice": 3197,
      "Ġinterests": 3198,
      "Ġnavigate": 3199,
      "Ġspeak": 3200,
      "ban": 3201,
      "eper": 3202,
      "Ġfasc": 3203,
      "Ġtesting": 3204,
      "ography": 3205,
      "ĠFl": 3206,
      "Ġformat": 3207,
      "Ġsubject": 3208,
      "Ġage": 3209,
      "tings": 3210,
      "Ġmor": 3211,
      "Ġlink": 3212,
      "Ġdrive": 3213,
      "Ġmillion": 3214,
      "Ġproblems": 3215,
      "Ġsafe": 3216,
      "Ġsort": 3217,
      "Ġdy": 3218,
      "ĠUs": 3219,
      "Ġobstac": 3220,
      "Ġanalyze": 3221,
      "Ġloved": 3222,
      "Ġdiscovered": 3223,
      "Ġfinal": 3224,
      "Ġvisitors": 3225,
      "Ġwonder": 3226,
      "Ġspread": 3227,
      "Con": 3228,
      "ux": 3229,
      "ios": 3230,
      "Ġ12": 3231,
      "Ġsoil": 3232,
      "Ġrelig": 3233,
      "Ġblue": 3234,
      "Ġflavors": 3235,
      "iles": 3236,
      "artment": 3237,
      "ĠLet": 3238,
      "fully": 3239,
      "ĠAt": 3240,
      "ĠAcc": 3241,
      "Ġcommunicate": 3242,
      "Inst": 3243,
      "Ġadvertising": 3244,
      "Ġreality": 3245,
      "comes": 3246,
      "Ġwoman": 3247,
      "Ġallowed": 3248,
      "Ġmonths": 3249,
      "ilies": 3250,
      "ĠNational": 3251,
      "Ġprec": 3252,
      "Ġfa": 3253,
      "rag": 3254,
      "ready": 3255,
      "Ġexhib": 3256,
      "Ġtried": 3257,
      "Ġherbs": 3258,
      "Ġtrees": 3259,
      "ler": 3260,
      "Ġgot": 3261,
      "ĠOverall": 3262,
      "Ġshows": 3263,
      "Ġsky": 3264,
      "Ġpolitical": 3265,
      "initely": 3266,
      "Ġult": 3267,
      "Ġsea": 3268,
      "Ġresil": 3269,
      "Ġvegan": 3270,
      "ognitive": 3271,
      "Ġbeyond": 3272,
      "Ġheld": 3273,
      "sequ": 3274,
      "Ġvivid": 3275,
      "ĠFacebook": 3276,
      "ses": 3277,
      "Ġic": 3278,
      "Ġhelping": 3279,
      "Ġfamous": 3280,
      "Ġthreat": 3281,
      "Ġacad": 3282,
      "Ġsummary": 3283,
      "Ġtracking": 3284,
      "Ġveh": 3285,
      "Ġaffordable": 3286,
      "ha": 3287,
      "Ġexperienced": 3288,
      "itions": 3289,
      "key": 3290,
      "Ġvisually": 3291,
      "erns": 3292,
      "Ġband": 3293,
      "Ġ15": 3294,
      "ded": 3295,
      "uis": 3296,
      "Ġjuice": 3297,
      "Ġpassion": 3298,
      "Ġpurpose": 3299,
      "oon": 3300,
      "atory": 3301,
      "Ġrevenue": 3302,
      "Ġproduce": 3303,
      "Ġsite": 3304,
      "ĠJack": 3305,
      "Ġrunning": 3306,
      "Ġblood": 3307,
      "Ġcollaboration": 3308,
      "ung": 3309,
      "Ġcam": 3310,
      "Ġworkout": 3311,
      "Ġpassage": 3312,
      "Ġkn": 3313,
      "Ġrequires": 3314,
      "oll": 3315,
      "Ġclassic": 3316,
      "Ġparents": 3317,
      "ĠSocial": 3318,
      "Ġlatest": 3319,
      "Ġteaspoon": 3320,
      "\",": 3321,
      "Ġgas": 3322,
      "Ġenter": 3323,
      "Ġtail": 3324,
      "Ġfast": 3325,
      "Ġexecut": 3326,
      "Ġalready": 3327,
      "Ġestablish": 3328,
      "house": 3329,
      "Ġi": 3330,
      "ĠPe": 3331,
      "Ġ*": 3332,
      "Ġpropos": 3333,
      "Ġdesired": 3334,
      "Ġauthent": 3335,
      "ĊĠĠ": 3336,
      "Ġlibr": 3337,
      "ĠCom": 3338,
      "ĠAf": 3339,
      "Ġinfluence": 3340,
      "arc": 3341,
      "Ġphone": 3342,
      "Ġtruly": 3343,
      "Ġimpress": 3344,
      "chan": 3345,
      "Ġconsid": 3346,
      "Ġpolicy": 3347,
      "ĠPlease": 3348,
      "Ġfeet": 3349,
      "Ġscreen": 3350,
      "amed": 3351,
      "Ġissue": 3352,
      "Ġmachine": 3353,
      "Ġancient": 3354,
      "Ġatmosphere": 3355,
      "Ġleave": 3356,
      "Ġimplementing": 3357,
      "ON": 3358,
      "ĠTw": 3359,
      "Ġready": 3360,
      "Ġcomfortable": 3361,
      "etry": 3362,
      "Ġremove": 3363,
      "ww": 3364,
      "Ġshown": 3365,
      "ided": 3366,
      "ĠSim": 3367,
      "Ġrecipes": 3368,
      "You": 3369,
      "ror": 3370,
      "Ġincred": 3371,
      "Ġregularly": 3372,
      "Ġlimit": 3373,
      "Ġbatter": 3374,
      "rep": 3375,
      "ĠMy": 3376,
      "Ġabs": 3377,
      "ĠX": 3378,
      "ĠAI": 3379,
      "Ġans": 3380,
      "Ġdead": 3381,
      "Ġscen": 3382,
      "Ġserving": 3383,
      "Ġwanted": 3384,
      "With": 3385,
      "Ġforms": 3386,
      "irl": 3387,
      "ample": 3388,
      "ĠRec": 3389,
      "Ġprice": 3390,
      "Ġpict": 3391,
      "Ġfu": 3392,
      "Ġarchitecture": 3393,
      "ĠMany": 3394,
      "Ġdough": 3395,
      "ervation": 3396,
      "Ġdetermine": 3397,
      "Ġunc": 3398,
      "Ġsmaller": 3399,
      "Ġsoup": 3400,
      "Ġchannels": 3401,
      "ĠTake": 3402,
      "Ġchocolate": 3403,
      "ĠDon": 3404,
      "ĠChoose": 3405,
      "Ġcomplet": 3406,
      "hing": 3407,
      "Ġdevice": 3408,
      "Ġbott": 3409,
      "Ġonto": 3410,
      "Ġoutcomes": 3411,
      "lude": 3412,
      "Ġgrowing": 3413,
      "Ġeffort": 3414,
      "Ġinitiatives": 3415,
      "Ġconcept": 3416,
      "Ġdatab": 3417,
      "Ġsingle": 3418,
      "How": 3419,
      "Ġgrand": 3420,
      "Ġlandsc": 3421,
      "ison": 3422,
      "verage": 3423,
      "ricult": 3424,
      "words": 3425,
      "Ġsharing": 3426,
      "Ġstudent": 3427,
      "Ġinstance": 3428,
      "Ġreader": 3429,
      "Ġhor": 3430,
      "Ġdeeper": 3431,
      "Ġcombination": 3432,
      "aries": 3433,
      "ĠPr": 3434,
      "ĠUS": 3435,
      "Ġroad": 3436,
      "Ġvalid": 3437,
      "Ġsection": 3438,
      "itter": 3439,
      "abilities": 3440,
      "Ġreading": 3441,
      "Ġidentity": 3442,
      "Ġcooked": 3443,
      "Ġwomen": 3444,
      "iers": 3445,
      "Ġtone": 3446,
      "Ġbi": 3447,
      "Ġadvant": 3448,
      "Ġrequirements": 3449,
      "Ġmission": 3450,
      "nal": 3451,
      "Ġsepar": 3452,
      "ulate": 3453,
      "board": 3454,
      "Ġdifference": 3455,
      "Ġri": 3456,
      "unning": 3457,
      "rix": 3458,
      "Ġincluded": 3459,
      "Ġoutdoor": 3460,
      "Ġloyal": 3461,
      "onut": 3462,
      "Ġparticular": 3463,
      "Ġgratitude": 3464,
      "Ġscience": 3465,
      "Ġinside": 3466,
      "Ġalign": 3467,
      "Ġwine": 3468,
      "sych": 3469,
      "Des": 3470,
      "Ġassess": 3471,
      "Ġconcerns": 3472,
      "Ġwritten": 3473,
      "Ġtypically": 3474,
      "Ġdeal": 3475,
      "ume": 3476,
      "gra": 3477,
      "Ġwasn": 3478,
      "iber": 3479,
      "ĠStates": 3480,
      "Ġexploring": 3481,
      "Ġinternational": 3482,
      "Ġmyself": 3483,
      "Ġbenefit": 3484,
      "',": 3485,
      "room": 3486,
      "oost": 3487,
      "Ġpainting": 3488,
      "Ġimmers": 3489,
      "Ġtask": 3490,
      "Ġfruit": 3491,
      "Ġvac": 3492,
      "Ġlarger": 3493,
      "Ġfunctional": 3494,
      "su": 3495,
      "Ġbra": 3496,
      "ager": 3497,
      "Ġparts": 3498,
      "la": 3499,
      "ĠAss": 3500,
      "Ġpoll": 3501,
      "Ġregard": 3502,
      "Ġexpected": 3503,
      "Ġthinking": 3504,
      "Ġwid": 3505,
      "Ġdate": 3506,
      "Ġlab": 3507,
      "aced": 3508,
      "Ġensuring": 3509,
      "Ġshowcase": 3510,
      "Ġreaders": 3511,
      "Ġlines": 3512,
      "Ġscene": 3513,
      "Ġdistance": 3514,
      "Ġconsidered": 3515,
      "PI": 3516,
      "ply": 3517,
      "Ġeconomy": 3518,
      "Your": 3519,
      "encies": 3520,
      "coming": 3521,
      "AT": 3522,
      "ured": 3523,
      "Ġinnovative": 3524,
      "Ġmeals": 3525,
      "Ġtheme": 3526,
      "Ġmoments": 3527,
      "ĠGr": 3528,
      "Ġsustainability": 3529,
      "Ġdamage": 3530,
      "Ġsolution": 3531,
      "icy": 3532,
      "idents": 3533,
      "Ġalone": 3534,
      "Ġfeelings": 3535,
      "Ġfinding": 3536,
      "Ġaffected": 3537,
      "Ġappropriate": 3538,
      "comm": 3539,
      "ellow": 3540,
      "ifications": 3541,
      "ission": 3542,
      "Ġeye": 3543,
      "ĠWorld": 3544,
      "load": 3545,
      "oke": 3546,
      "Ġimpacts": 3547,
      "Ġcognitive": 3548,
      "Ġplaying": 3549,
      "Ġcatch": 3550,
      "Ġdou": 3551,
      "Ġhol": 3552,
      "Ġthird": 3553,
      "Ġoutput": 3554,
      "Ġfront": 3555,
      "Ġthick": 3556,
      "Ġprocesses": 3557,
      "Ġsignificance": 3558,
      "Ġmechan": 3559,
      "ĠKeep": 3560,
      "cean": 3561,
      "Ġearth": 3562,
      "erce": 3563,
      "Ġshel": 3564,
      "Ġtopics": 3565,
      "rs": 3566,
      "inc": 3567,
      "Ġsubs": 3568,
      "Ġretail": 3569,
      "lam": 3570,
      "Ġfamilies": 3571,
      "ĠAfric": 3572,
      "Ġrain": 3573,
      "Ġupon": 3574,
      "Ġalternative": 3575,
      "Ġspecies": 3576,
      "Ġstret": 3577,
      "Ġalmond": 3578,
      "Ġwon": 3579,
      "ĠSam": 3580,
      "Ġword": 3581,
      "rought": 3582,
      "faction": 3583,
      "fast": 3584,
      "Ġbeef": 3585,
      "Ġinstru": 3586,
      "ounter": 3587,
      "Ġtechnique": 3588,
      "Ġlooked": 3589,
      "En": 3590,
      "gredients": 3591,
      "Ġonion": 3592,
      "Ġprivate": 3593,
      "ulner": 3594,
      "ĠFr": 3595,
      "Ġpush": 3596,
      "ifically": 3597,
      "ĠProvide": 3598,
      "Ġbox": 3599,
      "not": 3600,
      "Ġheard": 3601,
      "ĠPart": 3602,
      "Ġspr": 3603,
      "Ġstarting": 3604,
      "Ġdepression": 3605,
      "Another": 3606,
      "ĠQu": 3607,
      "ĠPar": 3608,
      "rief": 3609,
      "Ġrad": 3610,
      "mar": 3611,
      "ĠIntern": 3612,
      "ĠEmily": 3613,
      "Ġlater": 3614,
      "umn": 3615,
      "Ġdecisions": 3616,
      "Ġrisks": 3617,
      "Ġtreatment": 3618,
      "Ġcuis": 3619,
      "illa": 3620,
      "ellig": 3621,
      "Ġboard": 3622,
      "Ġesc": 3623,
      "Ġactions": 3624,
      "Ġpresence": 3625,
      "ĠHealth": 3626,
      "Ġbeans": 3627,
      "Ġoffic": 3628,
      "ĠInstagram": 3629,
      "Ġsliced": 3630,
      "</": 3631,
      "Ġconvey": 3632,
      "Ġvict": 3633,
      "Ġerror": 3634,
      "Ġprefer": 3635,
      "Ġvulner": 3636,
      "ĠReg": 3637,
      "Ġmood": 3638,
      "Ġexpos": 3639,
      "Ġchanging": 3640,
      "Ġacademic": 3641,
      "Ġvine": 3642,
      "Ġspeed": 3643,
      "Ġevol": 3644,
      "Ġhimself": 3645,
      "Ġschedule": 3646,
      "ivery": 3647,
      "Ġgradu": 3648,
      "Ġhon": 3649,
      "ffect": 3650,
      "Ġindustries": 3651,
      "wh": 3652,
      "Ġbooks": 3653,
      "Ġharm": 3654,
      "igation": 3655,
      "Ġeffectiveness": 3656,
      "Ġtree": 3657,
      "Ġbrain": 3658,
      "ĠGu": 3659,
      "Ġspices": 3660,
      "Ġmuse": 3661,
      "rench": 3662,
      "Ġplanet": 3663,
      "Ġcorrect": 3664,
      "Ġprofessionals": 3665,
      "fit": 3666,
      "Ġhoney": 3667,
      "Ġsports": 3668,
      "Ġrespond": 3669,
      "urance": 3670,
      "sem": 3671,
      "Ġemissions": 3672,
      "Ġmonth": 3673,
      "Ġpressure": 3674,
      "Ġanyone": 3675,
      "Ġremember": 3676,
      "Ġremote": 3677,
      "Ġclasses": 3678,
      "Ġfully": 3679,
      "Ġyet": 3680,
      "Ġsituation": 3681,
      "Ġworth": 3682,
      "Ġneigh": 3683,
      "Ġsupply": 3684,
      "ĠCal": 3685,
      "ppers": 3686,
      "ĠRemember": 3687,
      "ken": 3688,
      "ĠPark": 3689,
      "ĠStart": 3690,
      "Ġfinally": 3691,
      "Ġinj": 3692,
      "ĠHis": 3693,
      "Ġevidence": 3694,
      "Ġconstruction": 3695,
      "Ġtourism": 3696,
      "Ġstri": 3697,
      "Ġcold": 3698,
      "ourage": 3699,
      "15": 3700,
      "Ġletter": 3701,
      "Ġeggs": 3702,
      "Ġadventure": 3703,
      "icing": 3704,
      "Ġmuseum": 3705,
      "Ġlack": 3706,
      "Ġhyd": 3707,
      "Ġtomatoes": 3708,
      "iam": 3709,
      "Ġjoy": 3710,
      "ĠVis": 3711,
      "Ġcultures": 3712,
      "ĠAfter": 3713,
      "Ġarticle": 3714,
      "Ġtalk": 3715,
      "Ġmonitor": 3716,
      "Ġwaves": 3717,
      "Ġfields": 3718,
      "roll": 3719,
      "izz": 3720,
      "Ġrather": 3721,
      "Ġspent": 3722,
      "Ġinvolve": 3723,
      "Ġinfluenced": 3724,
      "Ġslight": 3725,
      "Ġagricult": 3726,
      "Ġnumer": 3727,
      "Ġdeb": 3728,
      "He": 3729,
      "When": 3730,
      "ĠTheir": 3731,
      "ĠUniversity": 3732,
      "ĠAg": 3733,
      "Ġgeneral": 3734,
      "ĠTechn": 3735,
      "umber": 3736,
      "Ġrock": 3737,
      "Ġschools": 3738,
      "Ġbrands": 3739,
      "Ġpick": 3740,
      "Ġaccessible": 3741,
      "Ġsatisfaction": 3742,
      "Ġmetrics": 3743,
      "Ġweeks": 3744,
      "Ġturned": 3745,
      "Ġcin": 3746,
      "Ġcraft": 3747,
      "etimes": 3748,
      "ĠFe": 3749,
      "Ġdefinitely": 3750,
      "Ġoperations": 3751,
      "Ġstreet": 3752,
      "itage": 3753,
      "Ġhalf": 3754,
      "ĠGree": 3755,
      "Ġfunding": 3756,
      "che": 3757,
      "Ġintric": 3758,
      "Ġreve": 3759,
      "Ġpercent": 3760,
      "Ġmodels": 3761,
      "Â°": 3762,
      "Ġnarr": 3763,
      "ĠNo": 3764,
      "overs": 3765,
      "Ġpatients": 3766,
      "idden": 3767,
      "Ġappreciate": 3768,
      "://": 3769,
      "Ġpal": 3770,
      "edi": 3771,
      "Ġprompt": 3772,
      "Ġteams": 3773,
      "agonist": 3774,
      "like": 3775,
      "Ġdeath": 3776,
      "Ġvegetable": 3777,
      "force": 3778,
      "Ġcateg": 3779,
      "Ġdynam": 3780,
      "Ġapps": 3781,
      "Ġanalytics": 3782,
      "Ġconsequ": 3783,
      "Ġcells": 3784,
      "ĠMaybe": 3785,
      "itors": 3786,
      "Ġclient": 3787,
      "vest": 3788,
      "Ġkit": 3789,
      "Ġflowers": 3790,
      "Ġtot": 3791,
      "Ġboost": 3792,
      "Ġcompared": 3793,
      "Ġtea": 3794,
      "ended": 3795,
      "tenance": 3796,
      "porary": 3797,
      "inated": 3798,
      "inger": 3799,
      "Ġdiverse": 3800,
      "ateful": 3801,
      "Ġdelivery": 3802,
      "Ġyoga": 3803,
      "ĠStud": 3804,
      "Ġheavy": 3805,
      "Ġcuisine": 3806,
      "more": 3807,
      "Ġlemon": 3808,
      "Ġregions": 3809,
      "Ġcourses": 3810,
      "Ġshopping": 3811,
      "Ġmap": 3812,
      "sole": 3813,
      "Ġcast": 3814,
      "Ġstaff": 3815,
      "ĠCity": 3816,
      "ister": 3817,
      "Ġdeliver": 3818,
      "Ġappealing": 3819,
      "Ġobstacles": 3820,
      "ĠFinally": 3821,
      "Ġprotagonist": 3822,
      "Ġemployee": 3823,
      "ĠPlan": 3824,
      "ief": 3825,
      "Ġpotatoes": 3826,
      "ĠResearch": 3827,
      "ĠCook": 3828,
      "ĠAut": 3829,
      "Ġincent": 3830,
      "ĠMarketing": 3831,
      "Ġdocument": 3832,
      "Ex": 3833,
      "Ġban": 3834,
      "Ġads": 3835,
      "Ġwat": 3836,
      "Ġserved": 3837,
      "Ġblock": 3838,
      "Ġsuccessfully": 3839,
      "ental": 3840,
      "Ġbuy": 3841,
      "Ġretur": 3842,
      "used": 3843,
      "EO": 3844,
      "Ġpod": 3845,
      "Ġfive": 3846,
      "Ġsignificantly": 3847,
      "Ġlength": 3848,
      "Ġcirc": 3849,
      "Ġtrip": 3850,
      "Ġmas": 3851,
      "Ġstunning": 3852,
      "ĠEach": 3853,
      "Ġmaintaining": 3854,
      "Ġdatabase": 3855,
      "Ġinde": 3856,
      "Ġrise": 3857,
      "Ġquant": 3858,
      "Ġmaxim": 3859,
      "Ġhop": 3860,
      "Ġisland": 3861,
      "Ġsatisf": 3862,
      "ĠCommun": 3863,
      "ara": 3864,
      "ompl": 3865,
      "otes": 3866,
      "ĠSouth": 3867,
      "Ġmemories": 3868,
      "Ġanalyz": 3869,
      "ĠArt": 3870,
      "ĉĉ": 3871,
      "Ġframe": 3872,
      "ica": 3873,
      "iff": 3874,
      "Ġcoming": 3875,
      "zy": 3876,
      "Ġqual": 3877,
      "pected": 3878,
      "Ġadvice": 3879,
      "Ġcoconut": 3880,
      "ĠMon": 3881,
      "ĠDef": 3882,
      "Ġclick": 3883,
      "Ġpasta": 3884,
      "Ġspiritual": 3885,
      "ĠNe": 3886,
      "Ġbelow": 3887,
      "Ġstronger": 3888,
      "Ġproperties": 3889,
      "cl": 3890,
      "Ġcentury": 3891,
      "Ġmother": 3892,
      "Ġreduced": 3893,
      "ules": 3894,
      "Ġalmost": 3895,
      "Ġhun": 3896,
      "Ġseeds": 3897,
      "Ġprioritize": 3898,
      "uries": 3899,
      "Ġimplementation": 3900,
      "ĠAccording": 3901,
      "orial": 3902,
      "Ġmark": 3903,
      "Ġaccur": 3904,
      "Ġchanged": 3905,
      "ini": 3906,
      "Ġoverw": 3907,
      "Ġgrateful": 3908,
      "Ġbrought": 3909,
      "Ġspot": 3910,
      "Ġrecyc": 3911,
      "Ġrob": 3912,
      "enn": 3913,
      "Ġdial": 3914,
      "Ġvibr": 3915,
      "Ġdisease": 3916,
      "('": 3917,
      "ka": 3918,
      "icated": 3919,
      "lines": 3920,
      "Instructions": 3921,
      "het": 3922,
      "Ġtwist": 3923,
      "Ġsensory": 3924,
      "Ġbeach": 3925,
      "Ġcop": 3926,
      "Ġbed": 3927,
      "Ġwebsites": 3928,
      "rupt": 3929,
      "Ġbuildings": 3930,
      "Ġstruggles": 3931,
      "Ġcomputer": 3932,
      "Ġfab": 3933,
      "Ġnovel": 3934,
      "Ġconsistent": 3935,
      "Ġexpertise": 3936,
      "Ġdiv": 3937,
      "rug": 3938,
      "fered": 3939,
      "ublic": 3940,
      "Ġconsequences": 3941,
      "Ġcyc": 3942,
      "arp": 3943,
      "AN": 3944,
      "Ġoffered": 3945,
      "Ġconcise": 3946,
      "works": 3947,
      "Ġdoesn": 3948,
      "ipped": 3949,
      "Ġgiving": 3950,
      "Ġoffice": 3951,
      "Ġaccept": 3952,
      "ĠGreat": 3953,
      "ĠOff": 3954,
      "30": 3955,
      "Ġstruct": 3956,
      "Ġaccompl": 3957,
      "Ġgrew": 3958,
      "Ġgarden": 3959,
      "Ġmit": 3960,
      "Ġpet": 3961,
      "ĠHigh": 3962,
      "Ġcontrast": 3963,
      "Ġleads": 3964,
      "Despite": 3965,
      "Ġtow": 3966,
      "Ġrelease": 3967,
      "Ġtablespoon": 3968,
      "Ġprimary": 3969,
      "Ġfascinating": 3970,
      "ĠAre": 3971,
      "ĠGl": 3972,
      "Ġbelieved": 3973,
      "Ġresilience": 3974,
      "].": 3975,
      "Ġreligious": 3976,
      "ervice": 3977,
      "Ġglass": 3978,
      "EN": 3979,
      "col": 3980,
      "file": 3981,
      "Ġlate": 3982,
      "Ġvary": 3983,
      "Ġfiles": 3984,
      "Ġcontext": 3985,
      "Ġtechnical": 3986,
      "Ġlo": 3987,
      "Ġdiscount": 3988,
      "Ġcups": 3989,
      "Ġahead": 3990,
      "ĠAust": 3991,
      "ĠEns": 3992,
      "Ġdiscover": 3993,
      "Ġposts": 3994,
      "ĠIndia": 3995,
      "Ġinfluencers": 3996,
      "Ġbecoming": 3997,
      "Ġclothing": 3998,
      "Ġguidance": 3999,
      "ĠSoph": 4000,
      "Ġplaces": 4001,
      "Ġdecre": 4002,
      "name": 4003,
      "eless": 4004,
      "Ġcompos": 4005,
      "ought": 4006,
      "Ġfruits": 4007,
      "Ġfilling": 4008,
      "order": 4009,
      "Ġdescriptions": 4010,
      "list": 4011,
      "Ġcat": 4012,
      "ĠPer": 4013,
      "Ġrh": 4014,
      "Ġoverwhel": 4015,
      "))": 4016,
      "Ġsac": 4017,
      "Ġusually": 4018,
      "Ġpsych": 4019,
      "Ġintellig": 4020,
      "ĠDr": 4021,
      "Ġrecommended": 4022,
      "Ġcompetition": 4023,
      "ivil": 4024,
      "Ġmanaging": 4025,
      "chool": 4026,
      "Ġcrisp": 4027,
      "Ġimmedi": 4028,
      "Ġsets": 4029,
      "Ġresponsible": 4030,
      "Ġlayer": 4031,
      "Ġwalking": 4032,
      "Ġec": 4033,
      "Ġmoving": 4034,
      "ss": 4035,
      "ups": 4036,
      "Ġpricing": 4037,
      "AS": 4038,
      "iking": 4039,
      "Ġ/": 4040,
      "race": 4041,
      "ĠMix": 4042,
      "Ġreceived": 4043,
      "Ġbold": 4044,
      "Ġfoods": 4045,
      "ĊĠĠĠĠĠĠĠĠĠĠĠĠĠĠĠ": 4046,
      "Ġcreates": 4047,
      "Ġmagical": 4048,
      "Ġinitial": 4049,
      "Ġcaused": 4050,
      "Ġhistorical": 4051,
      "rew": 4052,
      "ither": 4053,
      "Ġgather": 4054,
      "Ġchance": 4055,
      "ĠWar": 4056,
      "ibilities": 4057,
      "Ġagree": 4058,
      "Ġcompletely": 4059,
      "Ġslightly": 4060,
      "Ġcross": 4061,
      "enses": 4062,
      "Ġsimply": 4063,
      "Ġintricate": 4064,
      "Ġstop": 4065,
      "ĠRep": 4066,
      "Ġdirectly": 4067,
      "Ġmenu": 4068,
      "Ġcreativity": 4069,
      "ttps": 4070,
      "Ġapart": 4071,
      "ocal": 4072,
      "Ġcases": 4073,
      "Ġadopt": 4074,
      "Ġadds": 4075,
      "Ġplayer": 4076,
      "Ġrelaxation": 4077,
      "ceed": 4078,
      "sec": 4079,
      "Ġvill": 4080,
      "Ġdeg": 4081,
      "There": 4082,
      "Ġfro": 4083,
      "iding": 4084,
      "ĠCheck": 4085,
      "Ġtotal": 4086,
      "ares": 4087,
      "yl": 4088,
      "Ġpap": 4089,
      "amb": 4090,
      "Ġworksh": 4091,
      "Em": 4092,
      "inate": 4093,
      "Ġgift": 4094,
      "eries": 4095,
      "urch": 4096,
      "ĠBar": 4097,
      "Ġocean": 4098,
      "Ġhosp": 4099,
      "ula": 4100,
      "clusion": 4101,
      "dom": 4102,
      "Ġta": 4103,
      "Ġbell": 4104,
      "Ġappl": 4105,
      "Ġillust": 4106,
      "anging": 4107,
      "ocado": 4108,
      "Ġmaintenance": 4109,
      "Ġvinegar": 4110,
      "where": 4111,
      "Ġheritage": 4112,
      "nown": 4113,
      "Ġdoor": 4114,
      "ception": 4115,
      "Ġupdates": 4116,
      "Ġdescription": 4117,
      "Ġjobs": 4118,
      "Ġbasic": 4119,
      ",âĢĿ": 4120,
      "iration": 4121,
      "Ġwear": 4122,
      "Ġcreation": 4123,
      "Ġspecifically": 4124,
      "azz": 4125,
      "Ġencount": 4126,
      "Ġsummer": 4127,
      "itam": 4128,
      "Ġdescriptive": 4129,
      "Ġreviews": 4130,
      "Ġgent": 4131,
      "Ġartist": 4132,
      "Ġoriginal": 4133,
      "Ġsold": 4134,
      "oman": 4135,
      "Ġvan": 4136,
      "Ġcarry": 4137,
      "Ġdepth": 4138,
      "uth": 4139,
      "Ġtrade": 4140,
      "ĠYork": 4141,
      "Ġpartner": 4142,
      "Ġmovements": 4143,
      "Ġaspects": 4144,
      "chen": 4145,
      "ously": 4146,
      "ĠVe": 4147,
      "sm": 4148,
      "Ġball": 4149,
      "Ġcontem": 4150,
      "ĠChina": 4151,
      "lusive": 4152,
      "Ġlandscape": 4153,
      "rem": 4154,
      "acity": 4155,
      "Ġplastic": 4156,
      "ĠRo": 4157,
      "Ġtraditions": 4158,
      "Ġpatient": 4159,
      "Ġproperly": 4160,
      "11": 4161,
      "Ġfr": 4162,
      "Ġfat": 4163,
      "Ġfair": 4164,
      "Ġbond": 4165,
      "Ġhidden": 4166,
      "uten": 4167,
      "ably": 4168,
      "itute": 4169,
      "Ġpollut": 4170,
      "fu": 4171,
      "uments": 4172,
      "Ġice": 4173,
      "inct": 4174,
      "Ġdom": 4175,
      "Ġeco": 4176,
      "Ġtender": 4177,
      "Ġprocessing": 4178,
      "Ġviews": 4179,
      "ĠIndian": 4180,
      "Ġcancer": 4181,
      "Ġleaving": 4182,
      "Ġbutton": 4183,
      "erts": 4184,
      "Ġbroad": 4185,
      "Ġmember": 4186,
      "Ġautomation": 4187,
      "ĠFrench": 4188,
      "Ġnuts": 4189,
      "Ġconsumers": 4190,
      "gers": 4191,
      "Ġdifferences": 4192,
      "Ġorganic": 4193,
      "Ġphotos": 4194,
      "Ġ100": 4195,
      "akers": 4196,
      "itary": 4197,
      "Ġuseful": 4198,
      "Ġideal": 4199,
      "Ġdriving": 4200,
      "raft": 4201,
      "Ġvi": 4202,
      "Ġpayment": 4203,
      "AC": 4204,
      "Ġhar": 4205,
      "imp": 4206,
      "ims": 4207,
      "log": 4208,
      "Ġhous": 4209,
      "Ġparticipate": 4210,
      "ada": 4211,
      "Ġsector": 4212,
      "Ġnutri": 4213,
      "Ġsuppl": 4214,
      "Ġconflict": 4215,
      "Ġx": 4216,
      "Ġlisten": 4217,
      "Ġmiddle": 4218,
      "ĠTry": 4219,
      "ulations": 4220,
      "Ġexch": 4221,
      "Ġworkers": 4222,
      "Ġimagery": 4223,
      "Ġprices": 4224,
      "ĠEnsure": 4225,
      "Ġchat": 4226,
      "ĠGo": 4227,
      "Ġengaged": 4228,
      "inations": 4229,
      "Ġbul": 4230,
      "Ġhit": 4231,
      "ĠCustom": 4232,
      "Ġnothing": 4233,
      "ĠDesign": 4234,
      "Ġurban": 4235,
      "Ġreliable": 4236,
      "Ġnarrative": 4237,
      "agers": 4238,
      "Ġrestaurants": 4239,
      "iance": 4240,
      "wood": 4241,
      "poons": 4242,
      "water": 4243,
      "Ġapply": 4244,
      "asure": 4245,
      "ĠPract": 4246,
      "Ġnamed": 4247,
      "Ġenab": 4248,
      "Ġdecided": 4249,
      "Ġprepare": 4250,
      "ĠTom": 4251,
      "ĠHey": 4252,
      "ifying": 4253,
      "Ġrequest": 4254,
      "Ġcontinu": 4255,
      "Ġtele": 4256,
      "Ġexisting": 4257,
      "Ġpand": 4258,
      "isk": 4259,
      "Ġincome": 4260,
      "Ġcontinues": 4261,
      "ĠBr": 4262,
      "Ġuniverse": 4263,
      "Ġroasted": 4264,
      "Ġentertain": 4265,
      "ashing": 4266,
      "Ġanimal": 4267,
      "Ġmagic": 4268,
      "Ġalgorithm": 4269,
      "Rem": 4270,
      "ek": 4271,
      "ĠFin": 4272,
      "Ġresearc": 4273,
      "Ġstruggle": 4274,
      "Ġsituations": 4275,
      "ĊĊĠĠĠ": 4276,
      "ĠBrit": 4277,
      "Ġeducational": 4278,
      "?\"": 4279,
      "inner": 4280,
      "Ġdetermined": 4281,
      "Ġelectricity": 4282,
      "ĠSw": 4283,
      "empt": 4284,
      "Ġmotivated": 4285,
      "Ġcomments": 4286,
      "Ġcomplement": 4287,
      "Ġ50": 4288,
      "duc": 4289,
      "Ġcurious": 4290,
      "Ġmist": 4291,
      "ĠSec": 4292,
      "umin": 4293,
      "Ġmessages": 4294,
      "ĠAmerica": 4295,
      "Ġscientific": 4296,
      "Ġpages": 4297,
      "Ġep": 4298,
      "Ġexcited": 4299,
      "Ġultimately": 4300,
      "add": 4301,
      "Ġimpacted": 4302,
      "ĠInclude": 4303,
      "ĠSystem": 4304,
      "ipping": 4305,
      "Ġterm": 4306,
      "Ġinterview": 4307,
      "ĠLa": 4308,
      "\")": 4309,
      "Ġcry": 4310,
      "Ġwire": 4311,
      "Ġrepl": 4312,
      "ĠMus": 4313,
      "aked": 4314,
      "enerate": 4315,
      "Ġsnack": 4316,
      "Ġcondition": 4317,
      "ĠDis": 4318,
      "Ġassign": 4319,
      "roduction": 4320,
      "rops": 4321,
      "Ġusage": 4322,
      "Ġvegetarian": 4323,
      "Ġmonitoring": 4324,
      "Ġlibrary": 4325,
      "Ġtension": 4326,
      "Ġshad": 4327,
      "ĠEl": 4328,
      "Ġinterface": 4329,
      "Ġachieving": 4330,
      "ales": 4331,
      "ĠBased": 4332,
      "ĠProg": 4333,
      "ĠAnaly": 4334,
      "Ġstores": 4335,
      "Ġexciting": 4336,
      "Ġpodcast": 4337,
      "Ġvibrant": 4338,
      "OR": 4339,
      "Ġcalm": 4340,
      "Ġstatement": 4341,
      "Ġsuitable": 4342,
      "Ġreturns": 4343,
      "Ġkeywords": 4344,
      "Ġloyalty": 4345,
      "emade": 4346,
      "ĠPol": 4347,
      "Ġoccur": 4348,
      "Ġhabit": 4349,
      "Ġstorm": 4350,
      "ĠGe": 4351,
      "commerce": 4352,
      "Ġindepend": 4353,
      "Ġweak": 4354,
      "Ġassistance": 4355,
      "\">": 4356,
      "ĠHar": 4357,
      "Ġmorning": 4358,
      "making": 4359,
      "ĠTest": 4360,
      "Ġuns": 4361,
      "ĠNorth": 4362,
      "Ġcoord": 4363,
      "Ġsympt": 4364,
      "ĠAct": 4365,
      "Ġkeeping": 4366,
      "Ġmeeting": 4367,
      "uration": 4368,
      "ibly": 4369,
      "Ġquite": 4370,
      "Ġimprovement": 4371,
      "Ġlaw": 4372,
      "Ġlaunch": 4373,
      "found": 4374,
      "mat": 4375,
      "Ġfrag": 4376,
      "Ġopp": 4377,
      "ĠAb": 4378,
      "ĠHave": 4379,
      "ĠGod": 4380,
      "Ġchem": 4381,
      "Ġparticipants": 4382,
      "ĠJapanese": 4383,
      "Ġnational": 4384,
      "ĠServe": 4385,
      "ĠEar": 4386,
      "ersonal": 4387,
      "________________________________________________________________________________________________________________________________": 4388,
      "ĠTwitter": 4389,
      "itor": 4390,
      "icks": 4391,
      "Ġplays": 4392,
      "Ġnotes": 4393,
      "Ġitself": 4394,
      "usion": 4395,
      "Ġpeppers": 4396,
      "ommod": 4397,
      "Ġsummar": 4398,
      "Ġpul": 4399,
      "Ġparty": 4400,
      "Ġstrange": 4401,
      "Ingredients": 4402,
      "ython": 4403,
      "IC": 4404,
      "Ġtrain": 4405,
      "Ġconfident": 4406,
      "Ġserver": 4407,
      "Ġinspired": 4408,
      "Ġbottom": 4409,
      "ball": 4410,
      "Ġcities": 4411,
      "Ġisol": 4412,
      "athy": 4413,
      "Ġbreathing": 4414,
      "Ġdiseases": 4415,
      "Ġgentle": 4416,
      "aming": 4417,
      "aph": 4418,
      "Ġstruggling": 4419,
      "Ġsoul": 4420,
      "ridge": 4421,
      "Ġfuel": 4422,
      "oe": 4423,
      "Ġcere": 4424,
      "Ġreason": 4425,
      "ands": 4426,
      "Ġ25": 4427,
      "Ġpassed": 4428,
      "Ġconfidence": 4429,
      "icine": 4430,
      "Ġchain": 4431,
      "apter": 4432,
      "ĠRead": 4433,
      "Ġstandard": 4434,
      "Ġmatrix": 4435,
      "Ġobjects": 4436,
      "Ġstretch": 4437,
      "ĠGreek": 4438,
      "60": 4439,
      "known": 4440,
      "Ġsnow": 4441,
      "Ġload": 4442,
      "Ġalive": 4443,
      "Ġproperty": 4444,
      "Ġnumerous": 4445,
      "Ġbird": 4446,
      "ube": 4447,
      "Ġoccas": 4448,
      "Ġbirds": 4449,
      "ĠAPI": 4450,
      "Ġrural": 4451,
      "Ġspend": 4452,
      "ĠUsing": 4453,
      "ensity": 4454,
      "Ġseek": 4455,
      "ĠLily": 4456,
      "working": 4457,
      "Ġinnovation": 4458,
      "Ġslowly": 4459,
      "Ġleadership": 4460,
      "Ġstick": 4461,
      "Ġspaces": 4462,
      "Ġtopic": 4463,
      "ĠEnjoy": 4464,
      "If": 4465,
      "Ġvast": 4466,
      "Ġwilling": 4467,
      "Ġlargest": 4468,
      "Ġextract": 4469,
      "Ġalgorithms": 4470,
      "Ġsusp": 4471,
      "Ġvision": 4472,
      "Ġmovie": 4473,
      "peat": 4474,
      "verty": 4475,
      "orders": 4476,
      "ht": 4477,
      "Ġwr": 4478,
      "Ġpoetry": 4479,
      "Ġdistribution": 4480,
      "Ġsymptoms": 4481,
      "icip": 4482,
      "Ġdried": 4483,
      "Ġresource": 4484,
      "ĠVal": 4485,
      "Ġtransl": 4486,
      "Ġdistract": 4487,
      "ĠAnother": 4488,
      "Ġcompetitive": 4489,
      "Ġanswer": 4490,
      "Ġloop": 4491,
      "Ġconven": 4492,
      "Ġinformative": 4493,
      "Ġmemor": 4494,
      "Ġcapture": 4495,
      "iors": 4496,
      "mp": 4497,
      "Ġforce": 4498,
      "Ġcla": 4499,
      "Ġsessions": 4500,
      "ĠAustral": 4501,
      "Ġath": 4502,
      "estern": 4503,
      "Ġdiced": 4504,
      "Ġrecovery": 4505,
      "Ġpoverty": 4506,
      "host": 4507,
      "Ġobjectives": 4508,
      "Ġ.": 4509,
      "What": 4510,
      "Ġicon": 4511,
      "iation": 4512,
      "Ġtsp": 4513,
      "Ġmicro": 4514,
      "Ġpattern": 4515,
      "Ġgeneration": 4516,
      "Ġstatus": 4517,
      "Ġyogurt": 4518,
      "ĠGerm": 4519,
      "Ġlaugh": 4520,
      "Ġdescribe": 4521,
      "Ġreact": 4522,
      "Ġsmell": 4523,
      "Ġearl": 4524,
      "Our": 4525,
      "uge": 4526,
      "rooms": 4527,
      "atively": 4528,
      "Ġmountain": 4529,
      "Ġver": 4530,
      "Ġsides": 4531,
      "Ġnorm": 4532,
      "Ġsurpr": 4533,
      "Ġreferr": 4534,
      "ĠTrans": 4535,
      "Ġcomponents": 4536,
      "Ġcher": 4537,
      "Ġaccommod": 4538,
      "Ġindic": 4539,
      "Ġcleaning": 4540,
      "uilding": 4541,
      "18": 4542,
      "itate": 4543,
      "uts": 4544,
      "acing": 4545,
      "Ġcloud": 4546,
      "Ġquiet": 4547,
      "Ġresearchers": 4548,
      "dr": 4549,
      "asons": 4550,
      "eline": 4551,
      "Ġran": 4552,
      "ounds": 4553,
      "ishing": 4554,
      "Ġresulting": 4555,
      "Ġbreakfast": 4556,
      "ystem": 4557,
      "Ġdim": 4558,
      "Ġdri": 4559,
      "Ġreput": 4560,
      "Ġresidents": 4561,
      "ĠNet": 4562,
      "Ġsched": 4563,
      "Ġsurrounding": 4564,
      "Ġnearby": 4565,
      "Ġbreaks": 4566,
      "related": 4567,
      "Ġneighbor": 4568,
      "Ġtut": 4569,
      "Ġda": 4570,
      "ushed": 4571,
      "Ġeither": 4572,
      "ĠAR": 4573,
      "Ġcalls": 4574,
      "Ġcivil": 4575,
      "Ġpredict": 4576,
      "odes": 4577,
      "Ġflo": 4578,
      "Ġsettings": 4579,
      "Ġfollowers": 4580,
      "Ġmetal": 4581,
      "Ġwalked": 4582,
      "Ġwatching": 4583,
      "She": 4584,
      "Ġple": 4585,
      "Ġonions": 4586,
      "orporate": 4587,
      "Ġcombined": 4588,
      "Ġcommitment": 4589,
      "Ġobserv": 4590,
      "year": 4591,
      "Ġcontains": 4592,
      "Ġremov": 4593,
      "ĠInternational": 4594,
      "Ġpandemic": 4595,
      "elines": 4596,
      "Ġowners": 4597,
      "Ġconsumer": 4598,
      "Ġwait": 4599,
      "isms": 4600,
      "berries": 4601,
      "Conclusion": 4602,
      "backs": 4603,
      "Ġcrow": 4604,
      "Ġgirl": 4605,
      "Ġstructures": 4606,
      "UT": 4607,
      "atures": 4608,
      "Ġgave": 4609,
      "chol": 4610,
      "ĠWill": 4611,
      "ava": 4612,
      "wide": 4613,
      "Ġbrow": 4614,
      "Ġreb": 4615,
      "eling": 4616,
      "ĠId": 4617,
      "lick": 4618,
      "Ġinstallation": 4619,
      "IS": 4620,
      "Ġcy": 4621,
      "Ġsuff": 4622,
      "Ġtargeted": 4623,
      "exic": 4624,
      "Ġcloser": 4625,
      "Ġshapes": 4626,
      "ĠAvoid": 4627,
      "Ġimpressive": 4628,
      "Ġescape": 4629,
      "So": 4630,
      "son": 4631,
      "Ġinstitut": 4632,
      "Ġpaint": 4633,
      "Ġprepared": 4634,
      "Ġmid": 4635,
      "though": 4636,
      "arter": 4637,
      "Ġdrug": 4638,
      "Ġlux": 4639,
      "Ġperspective": 4640,
      "Ġconnected": 4641,
      "Ġcollege": 4642,
      "Ġenable": 4643,
      "Ġteaching": 4644,
      "Ġmanufacturing": 4645,
      "reg": 4646,
      "oration": 4647,
      "usiness": 4648,
      "Ġintense": 4649,
      "Ġpotato": 4650,
      "ternal": 4651,
      "Ġswe": 4652,
      "Ġstake": 4653,
      "Ġseems": 4654,
      "Ġsites": 4655,
      "Ġunex": 4656,
      "Ġprin": 4657,
      "inkle": 4658,
      "Ġacqu": 4659,
      "Ġfacing": 4660,
      "Ġsizes": 4661,
      "ĠThrough": 4662,
      "Ġedge": 4663,
      "Ġtang": 4664,
      "rad": 4665,
      "ĠAc": 4666,
      "Ġcrust": 4667,
      "Ġmilitary": 4668,
      "Ġmoist": 4669,
      "Ġfunctions": 4670,
      "Ġgolden": 4671,
      "Ġheight": 4672,
      "oli": 4673,
      "ID": 4674,
      "Ġhighlights": 4675,
      "Ġterr": 4676,
      "Ġfost": 4677,
      "Ġclim": 4678,
      "Ġdespite": 4679,
      "Ġdrink": 4680,
      "Enter": 4681,
      "Ġir": 4682,
      "Ġfix": 4683,
      "Ġeat": 4684,
      "agn": 4685,
      "ĠOut": 4686,
      "Ġincreasingly": 4687,
      "Ġtrou": 4688,
      "Ġhes": 4689,
      "odies": 4690,
      "Ġinformed": 4691,
      "Ġdevelopers": 4692,
      "Ġ2018": 4693,
      "Ġconstantly": 4694,
      "eral": 4695,
      "Ġfo": 4696,
      "ĠEd": 4697,
      "Ġlocations": 4698,
      "Ġpracticing": 4699,
      "Ġcarro": 4700,
      "urthermore": 4701,
      "IT": 4702,
      "iences": 4703,
      "Ġtight": 4704,
      "Ġexcept": 4705,
      "Ġsend": 4706,
      "Ġtalent": 4707,
      "Ġteachers": 4708,
      "Finally": 4709,
      "down": 4710,
      "date": 4711,
      "Ġintelligence": 4712,
      "Ġwalls": 4713,
      "icking": 4714,
      "ĠMexic": 4715,
      "Ġshall": 4716,
      "Ġsuggests": 4717,
      "lt": 4718,
      "Ġcake": 4719,
      "ensions": 4720,
      "Ġamb": 4721,
      "Ġprotection": 4722,
      "Ġcontemporary": 4723,
      "Ġsix": 4724,
      "ĠCle": 4725,
      "oosing": 4726,
      "Ġchronic": 4727,
      "Ġaddiction": 4728,
      "Ġremains": 4729,
      "Ġpoems": 4730,
      "Ġmessaging": 4731,
      "Ġbeliefs": 4732,
      "Ġhabits": 4733,
      "denly": 4734,
      "25": 4735,
      "Ġast": 4736,
      "rene": 4737,
      "illet": 4738,
      "fficient": 4739,
      "Ġcit": 4740,
      "Ġthor": 4741,
      "ĠState": 4742,
      "Ġfeels": 4743,
      "Ġcorn": 4744,
      "Ġbecomes": 4745,
      "Ġdialog": 4746,
      "Ġencountered": 4747,
      "They": 4748,
      "Ġguests": 4749,
      "Ġincredible": 4750,
      "gy": 4751,
      "ĠLook": 4752,
      "Ġgluten": 4753,
      "Ġhumans": 4754,
      "Ġconversation": 4755,
      "going": 4756,
      "Ġdess": 4757,
      "ĠSchool": 4758,
      "Ġsecret": 4759,
      "Ġdressing": 4760,
      "Ġeating": 4761,
      "Ġreson": 4762,
      "Ġmush": 4763,
      "Ġpresentation": 4764,
      "ĠInstead": 4765,
      "namon": 4766,
      "Ġhomes": 4767,
      "At": 4768,
      "ED": 4769,
      "inking": 4770,
      "Ġshop": 4771,
      "Ġmarkets": 4772,
      "azon": 4773,
      "Ġcombine": 4774,
      "Ġseconds": 4775,
      "Ġaccomplish": 4776,
      "Ġbag": 4777,
      "Ġcannot": 4778,
      "asters": 4779,
      "nesses": 4780,
      "Ġforever": 4781,
      "Ġcamera": 4782,
      "ech": 4783,
      "ym": 4784,
      "ĠCS": 4785,
      "Ġroot": 4786,
      "Ġavocado": 4787,
      "cription": 4788,
      "Ġfigure": 4789,
      "enty": 4790,
      "Ġestablished": 4791,
      "Ġdedicated": 4792,
      "Ġkitchen": 4793,
      "Remember": 4794,
      "Ġforget": 4795,
      "Ġspeaking": 4796,
      "ĠJust": 4797,
      "Ġintervent": 4798,
      "Ġpaid": 4799,
      "Ġinspire": 4800,
      "onom": 4801,
      "Ġfiber": 4802,
      "etic": 4803,
      "Ġru": 4804,
      "lessly": 4805,
      "Ġmixed": 4806,
      "Ġstruggled": 4807,
      "Ġrepresents": 4808,
      "Ġlifest": 4809,
      "rating": 4810,
      "Ġtold": 4811,
      "Ġcreamy": 4812,
      "Ġhomemade": 4813,
      "Ġaims": 4814,
      "Ġexposure": 4815,
      "Ġagriculture": 4816,
      "Ġcapacity": 4817,
      "Ġsummarize": 4818,
      "Ġceremon": 4819,
      "Ġknowing": 4820,
      "Ġlighting": 4821,
      "ĠPlace": 4822,
      "Ġtomato": 4823,
      "Ġerrors": 4824,
      "Ġimmersive": 4825,
      "eria": 4826,
      "Ġreplace": 4827,
      "ola": 4828,
      "antha": 4829,
      "Ġdeploy": 4830,
      "ĠEduc": 4831,
      "asts": 4832,
      "Ġnoise": 4833,
      "Ġexcite": 4834,
      "ĠMc": 4835,
      "rie": 4836,
      "Ġlistening": 4837,
      "Ġextensive": 4838,
      "osing": 4839,
      "Ġleader": 4840,
      "Ġhandling": 4841,
      "Ġfacil": 4842,
      "Ġhotel": 4843,
      "Ġcredit": 4844,
      "Ġmis": 4845,
      "ute": 4846,
      "urg": 4847,
      "aby": 4848,
      "Ġadult": 4849,
      "kin": 4850,
      "pow": 4851,
      "Ġmusc": 4852,
      "ĠEnc": 4853,
      "Ġadvantage": 4854,
      "nel": 4855,
      "ser": 4856,
      "Ġsell": 4857,
      "que": 4858,
      "Ġtablespoons": 4859,
      "Ġsongs": 4860,
      "Ġpu": 4861,
      "Ġinvent": 4862,
      "Ġinstruction": 4863,
      "Ġphr": 4864,
      "lin": 4865,
      "Ġwall": 4866,
      "Ġforg": 4867,
      "ĠFrom": 4868,
      "Ġpublished": 4869,
      "Ġfilter": 4870,
      "Ġstanding": 4871,
      "iny": 4872,
      "Ġcoll": 4873,
      "Ġbrief": 4874,
      "Ġshift": 4875,
      "Ġsometimes": 4876,
      "Ġefficiently": 4877,
      "RE": 4878,
      "Ġgro": 4879,
      "Ġstage": 4880,
      "Ġinternet": 4881,
      "Ġflexibility": 4882,
      "Ġsight": 4883,
      "Ġbound": 4884,
      "ĠDuring": 4885,
      "arsh": 4886,
      "Ġ199": 4887,
      "Ġpollution": 4888,
      "();": 4889,
      "Ġeventually": 4890,
      "ĠBro": 4891,
      "ails": 4892,
      "rick": 4893,
      "Ġvehicles": 4894,
      "Ġtaught": 4895,
      "AD": 4896,
      "ĠOther": 4897,
      "Ġpopulation": 4898,
      "Ġsurvive": 4899,
      "Ġcontainer": 4900,
      "Ġfabric": 4901,
      "Ġworkshops": 4902,
      "Pro": 4903,
      "iate": 4904,
      "ander": 4905,
      "ĠDep": 4906,
      "Ġ==": 4907,
      "zzle": 4908,
      "Ġexcitement": 4909,
      "pack": 4910,
      "ĠOpt": 4911,
      "Ġspin": 4912,
      "Ġcarefully": 4913,
      "Ġbroth": 4914,
      "Ġconsumption": 4915,
      "Ġthorough": 4916,
      "Ġwit": 4917,
      "Ġord": 4918,
      "Ġmuscle": 4919,
      "Ġconnections": 4920,
      "inoa": 4921,
      "nes": 4922,
      "hest": 4923,
      "Ġrust": 4924,
      "ĠEvery": 4925,
      "Ġreduction": 4926,
      "Ġcurrently": 4927,
      "umbled": 4928,
      "reprene": 4929,
      "ĠProgram": 4930,
      "Ġwel": 4931,
      "ĠMag": 4932,
      "Ġscent": 4933,
      "Ġcalculate": 4934,
      "Ġdemonstrate": 4935,
      "Ġrhyth": 4936,
      "Ġaid": 4937,
      "Ġsupporting": 4938,
      "Ġcaught": 4939,
      "Ġdestination": 4940,
      "bed": 4941,
      "Ġcustomize": 4942,
      "Ġattempt": 4943,
      "Ġgenerated": 4944,
      "However": 4945,
      "Ġunexpected": 4946,
      "Ġcovered": 4947,
      "Ġkids": 4948,
      "Ġdisaster": 4949,
      "Ġspending": 4950,
      "oves": 4951,
      "amples": 4952,
      "Ġmulti": 4953,
      "Ġexchange": 4954,
      "omet": 4955,
      "Ġvitam": 4956,
      "Ġreports": 4957,
      "Ġtun": 4958,
      "Ġaw": 4959,
      "rets": 4960,
      "ĠWhe": 4961,
      "Ġneighborhood": 4962,
      "Ġfans": 4963,
      "Ġcolleag": 4964,
      "Ġdog": 4965,
      "Ġwealth": 4966,
      "Ġskillet": 4967,
      "Ġseeking": 4968,
      "Ġgoods": 4969,
      "ĠApple": 4970,
      ".âĢĿ": 4971,
      "idge": 4972,
      "oreover": 4973,
      "Ġmanaged": 4974,
      "ĠInter": 4975,
      "world": 4976,
      "Ġbeginning": 4977,
      "mal": 4978,
      "Ġadvancements": 4979,
      "AM": 4980,
      "AY": 4981,
      "Ġmaster": 4982,
      "Ġchili": 4983,
      "Ġorganized": 4984,
      "ercial": 4985,
      "ked": 4986,
      "vis": 4987,
      "assion": 4988,
      "ĠRuss": 4989,
      "ĠGreen": 4990,
      "Ġnote": 4991,
      "aze": 4992,
      "Comp": 4993,
      "alian": 4994,
      "ĠTur": 4995,
      "mental": 4996,
      "Ġ11": 4997,
      "Ġbattle": 4998,
      "Ġengineering": 4999,
      "Ġreached": 5000,
      "Ġmyst": 5001,
      "laborate": 5002,
      "ĠExpl": 5003,
      "Ġinspiration": 5004,
      "EM": 5005,
      "On": 5006,
      "Ġfaster": 5007,
      "Ġexact": 5008,
      "ĠDec": 5009,
      "Ġspicy": 5010,
      "bsp": 5011,
      "Ġrepair": 5012,
      "Ġexpectations": 5013,
      "ĠDespite": 5014,
      "Ġfarmers": 5015,
      "iant": 5016,
      "ĠCount": 5017,
      "ĠProm": 5018,
      "Ġsurvey": 5019,
      "Ġinsight": 5020,
      "Ġdetermination": 5021,
      "()`": 5022,
      "Ġpicture": 5023,
      "bles": 5024,
      "ctions": 5025,
      "Ġfocusing": 5026,
      "Ġcontributed": 5027,
      "Name": 5028,
      "iled": 5029,
      "ĠAir": 5030,
      "ĠRet": 5031,
      "Ġcompost": 5032,
      "Ġfollowed": 5033,
      "Ġmixing": 5034,
      "Ġstatistics": 5035,
      "ffective": 5036,
      "Ġearlier": 5037,
      "Ġdispl": 5038,
      "Ġroles": 5039,
      "Ġattack": 5040,
      "Ġtransition": 5041,
      "Ġenvironments": 5042,
      "Ġupdate": 5043,
      "Ġasked": 5044,
      "Ġviol": 5045,
      "\".": 5046,
      "OS": 5047,
      "ĠTO": 5048,
      "ppings": 5049,
      "ĠChar": 5050,
      "Ġanalyzing": 5051,
      "Ġimmediately": 5052,
      "Ġinteractions": 5053,
      "Ġoptimization": 5054,
      "Ġdynamic": 5055,
      "Ġstakehold": 5056,
      "erate": 5057,
      "aker": 5058,
      "Ġgoes": 5059,
      "efore": 5060,
      "Ġskill": 5061,
      "ĠRemove": 5062,
      "ĠAmazon": 5063,
      "Ġmemorable": 5064,
      "arn": 5065,
      "Ġ16": 5066,
      "Ġnotable": 5067,
      "Ġrap": 5068,
      "inese": 5069,
      "Ġdreams": 5070,
      "Ġconducted": 5071,
      "Ġtough": 5072,
      "Ġfont": 5073,
      "Ġadm": 5074,
      "ĠGet": 5075,
      "Ġcolorful": 5076,
      "Ġinteger": 5077,
      "urable": 5078,
      "Ġease": 5079,
      "ĠBo": 5080,
      "Ġempt": 5081,
      "Ġinterp": 5082,
      "Ġunderg": 5083,
      "roduct": 5084,
      "Ġsurrounded": 5085,
      "Ġseparate": 5086,
      "ocks": 5087,
      "igen": 5088,
      "Ġseam": 5089,
      "ĠMind": 5090,
      "ĠMuse": 5091,
      "ĠBre": 5092,
      "Ġfulf": 5093,
      "Ġrevolution": 5094,
      "iche": 5095,
      "Ġkept": 5096,
      "def": 5097,
      "acking": 5098,
      "Ġ24": 5099,
      "ĠIts": 5100,
      "Ġexpression": 5101,
      "Ġavailability": 5102,
      "ij": 5103,
      "Ġwed": 5104,
      "ĠMod": 5105,
      "ĠFirst": 5106,
      "Ġconsult": 5107,
      "Ġexplan": 5108,
      "Ġprofile": 5109,
      "Ġshelter": 5110,
      "Ġglow": 5111,
      "Ġstars": 5112,
      "olving": 5113,
      "ĠPo": 5114,
      "aren": 5115,
      "âĢľ": 5116,
      "Ġpersonality": 5117,
      "Ġcentral": 5118,
      "Ġcausing": 5119,
      "ĠCenter": 5120,
      "des": 5121,
      "Ġrom": 5122,
      "Ġconversion": 5123,
      "Ġteacher": 5124,
      "Ġauthentic": 5125,
      "ault": 5126,
      "num": 5127,
      "Ġexcess": 5128,
      "Ġconcent": 5129,
      "Ġpackage": 5130,
      "----------------": 5131,
      "Al": 5132,
      "Ġburn": 5133,
      "erse": 5134,
      "osystem": 5135,
      "Ġstarts": 5136,
      "Ġdistinct": 5137,
      "ĠEnergy": 5138,
      "Ġrecognition": 5139,
      "ĠEnglish": 5140,
      "Ġincentives": 5141,
      "hand": 5142,
      "rest": 5143,
      "ĠSpe": 5144,
      "Ġplot": 5145,
      "Ġcontroll": 5146,
      "Ġinternal": 5147,
      "Ġliterature": 5148,
      "ĠIdent": 5149,
      "udd": 5150,
      "ĠPat": 5151,
      "Ġmeant": 5152,
      "Ġconservation": 5153,
      "!\"": 5154,
      "au": 5155,
      "ira": 5156,
      "pen": 5157,
      "Ġfant": 5158,
      "outs": 5159,
      "Ġchart": 5160,
      "Ġbrush": 5161,
      "Ġmotivation": 5162,
      "Ġmeaningful": 5163,
      "Ar": 5164,
      "ius": 5165,
      "reme": 5166,
      "ĠTV": 5167,
      "Ġbeat": 5168,
      "ĠBal": 5169,
      "ĠDay": 5170,
      "Ġarms": 5171,
      "Ġproviders": 5172,
      "Ġwaiting": 5173,
      "off": 5174,
      "ĠHouse": 5175,
      "ĠMich": 5176,
      "Ġjew": 5177,
      "Ġresistance": 5178,
      "Ġworkplace": 5179,
      "Ġpartnerships": 5180,
      "Ġdangerous": 5181,
      "Ġking": 5182,
      "Ġfirm": 5183,
      "Ġserves": 5184,
      "Sc": 5185,
      "ny": 5186,
      "Ġtact": 5187,
      "emy": 5188,
      "Ġjud": 5189,
      "Ġswim": 5190,
      "Ġcandid": 5191,
      "Ġer": 5192,
      "Ġwider": 5193,
      "Ġod": 5194,
      "Ġinner": 5195,
      "Ġdram": 5196,
      "cel": 5197,
      "Ġrat": 5198,
      "ĠAng": 5199,
      "Ġidentifying": 5200,
      "iliar": 5201,
      "21": 5202,
      "Ġaverage": 5203,
      "Ġdesk": 5204,
      "Ġexperts": 5205,
      "ĠSte": 5206,
      "Ġjournal": 5207,
      "Ġecosystem": 5208,
      "Ġfloor": 5209,
      "Ġminced": 5210,
      "ĠâĢĶ": 5211,
      "Ġreported": 5212,
      "Ġcapabilities": 5213,
      "Ġbarri": 5214,
      "hetic": 5215,
      "hab": 5216,
      "raw": 5217,
      "Ġchest": 5218,
      "Ġcommonly": 5219,
      "Ġholding": 5220,
      "Ġfestival": 5221,
      "Ġholid": 5222,
      "Ġsacr": 5223,
      "ĠEarth": 5224,
      "AL": 5225,
      "wise": 5226,
      "input": 5227,
      "ĠWater": 5228,
      "ĠDav": 5229,
      "rup": 5230,
      "Ġexpenses": 5231,
      "Ġflavorful": 5232,
      "org": 5233,
      "Ġlights": 5234,
      "Ġdialogue": 5235,
      "Ġ>": 5236,
      "Ġpros": 5237,
      "Ġdisapp": 5238,
      "Ġnewfound": 5239,
      "Ġformer": 5240,
      "Ġinvesting": 5241,
      "ĠĠĠĠĠĠĠĠĠĠĠĠĠĠĠĠĠĠĠĠĠĠĠĠĠĠĠĠĠĠĠĠ": 5242,
      "Ġmitigate": 5243,
      "Ġfurn": 5244,
      "antic": 5245,
      "ĠRob": 5246,
      "ĠEmma": 5247,
      "Ġjoin": 5248,
      "Ġstock": 5249,
      "ores": 5250,
      "hern": 5251,
      "Ġflu": 5252,
      "Ġsnacks": 5253,
      "Ġcommitted": 5254,
      "Ġdouble": 5255,
      "bre": 5256,
      "Ġtall": 5257,
      "Ġaf": 5258,
      "Ġrent": 5259,
      "ilant": 5260,
      "Ġlived": 5261,
      "ĠMin": 5262,
      "ĠDet": 5263,
      "ĠItalian": 5264,
      "Ġvegg": 5265,
      "Ġsud": 5266,
      "Ġraise": 5267,
      "atural": 5268,
      "icial": 5269,
      "Ġrely": 5270,
      "urd": 5271,
      "ĠWest": 5272,
      "ĠImpro": 5273,
      "Ġcinnamon": 5274,
      "Ġlifestyle": 5275,
      "Ġarrange": 5276,
      "Ġvariations": 5277,
      "Ġevaluate": 5278,
      "bing": 5279,
      "Ġecho": 5280,
      "ĠIncre": 5281,
      "Ġsurvival": 5282,
      "PS": 5283,
      "ĠCut": 5284,
      "Ġnoticed": 5285,
      "Ġaccurate": 5286,
      "Ġdire": 5287,
      "ila": 5288,
      "otic": 5289,
      "abel": 5290,
      "iller": 5291,
      "ruit": 5292,
      "Ġmoved": 5293,
      "Ġinfluencer": 5294,
      "gen": 5295,
      "Ġweap": 5296,
      "Ġtrig": 5297,
      "Ġwellness": 5298,
      "Ġensures": 5299,
      "Ġrefresh": 5300,
      "Ġcomponent": 5301,
      "Ġcarrots": 5302,
      "After": 5303,
      "Ġongoing": 5304,
      "Ġplenty": 5305,
      "plement": 5306,
      "Ġ<<": 5307,
      "ĠMuseum": 5308,
      "anut": 5309,
      "style": 5310,
      "Ġ2019": 5311,
      "Ġemergency": 5312,
      "Ġpeaceful": 5313,
      "++": 5314,
      "Ġunivers": 5315,
      "Ġrights": 5316,
      "Ġelectronic": 5317,
      "Ġseasoning": 5318,
      "Ġemerged": 5319,
      "My": 5320,
      "Ġpure": 5321,
      "Ġgod": 5322,
      "Ġstates": 5323,
      "ĠSur": 5324,
      "ĠRoman": 5325,
      "ĠOver": 5326,
      "ĠJo": 5327,
      "Ġconfig": 5328,
      "ĠExper": 5329,
      "ographics": 5330,
      "ĠSophie": 5331,
      "Ġsharp": 5332,
      "Ġrealize": 5333,
      "Ġcoaching": 5334,
      "Ġactually": 5335,
      "Ġbusy": 5336,
      "Ġaudiences": 5337,
      "Ġstraight": 5338,
      "40": 5339,
      "Ġtbsp": 5340,
      "Ġluck": 5341,
      "ĠCreat": 5342,
      "ĠPlay": 5343,
      "plications": 5344,
      "Ġmuscles": 5345,
      "Ġtitle": 5346,
      "stand": 5347,
      "ria": 5348,
      "Ġchemical": 5349,
      "ran": 5350,
      "reet": 5351,
      "Ġheavily": 5352,
      "Ġdisplays": 5353,
      "13": 5354,
      "ctors": 5355,
      "iox": 5356,
      "ciples": 5357,
      "Ġpackaging": 5358,
      "ĠBlack": 5359,
      "OM": 5360,
      "Ġchoosing": 5361,
      "ĠJames": 5362,
      "Ġchoices": 5363,
      "Ġdarkness": 5364,
      "Ġappearance": 5365,
      "cious": 5366,
      "raid": 5367,
      "Ġfears": 5368,
      "Ġ17": 5369,
      "ints": 5370,
      "Ġminimal": 5371,
      "Ġentertainment": 5372,
      "bum": 5373,
      "Ġginger": 5374,
      "ĠSpr": 5375,
      "ĠThen": 5376,
      "Ġenables": 5377,
      "Ġround": 5378,
      "Ġprogramming": 5379,
      "Ġempathy": 5380,
      "ether": 5381,
      "amic": 5382,
      "ulpt": 5383,
      "ĠBusiness": 5384,
      "izer": 5385,
      "osis": 5386,
      "Ġexperiencing": 5387,
      "ĠBritish": 5388,
      "pan": 5389,
      "Ġhero": 5390,
      "Ġchips": 5391,
      "ĠNot": 5392,
      "Ġscale": 5393,
      "Ġopened": 5394,
      "Ġstrengths": 5395,
      "Ġfunctionality": 5396,
      "ĠAfrican": 5397,
      "Ġbike": 5398,
      "Ġghost": 5399,
      "Ġnames": 5400,
      "istration": 5401,
      "ĠPersonal": 5402,
      "Ġspons": 5403,
      "reeze": 5404,
      "Ġenjoyed": 5405,
      "netic": 5406,
      "Ġregarding": 5407,
      "Ġtransfer": 5408,
      "Ġinfect": 5409,
      "Ġevenly": 5410,
      "Ġcompleted": 5411,
      "Ġdeeply": 5412,
      "writ": 5413,
      "mented": 5414,
      "Ġtend": 5415,
      "Ġtraum": 5416,
      "Ġgrown": 5417,
      "Ġperformances": 5418,
      "Through": 5419,
      "ographic": 5420,
      "Ġappreciation": 5421,
      "Ġgraphics": 5422,
      "Ġreveal": 5423,
      "Ġrapid": 5424,
      "oles": 5425,
      "Ġselection": 5426,
      "ĠGood": 5427,
      "Ġmaybe": 5428,
      "Ġfriendly": 5429,
      "Ġlessons": 5430,
      "14": 5431,
      "div": 5432,
      "income": 5433,
      "ĠSEO": 5434,
      "ĠRiver": 5435,
      "Ġaudio": 5436,
      "Ġbattery": 5437,
      "Ġexternal": 5438,
      "Ġrespect": 5439,
      "Ġgenerations": 5440,
      "Ġguided": 5441,
      "Ġscheme": 5442,
      "Ġconflicts": 5443,
      "All": 5444,
      "flow": 5445,
      "Ġitem": 5446,
      "Ġmanip": 5447,
      "Ġindex": 5448,
      "Ġcars": 5449,
      "Ġachieved": 5450,
      "Ġlanguages": 5451,
      "Ġhappened": 5452,
      "top": 5453,
      "ĠWestern": 5454,
      "Ġregul": 5455,
      "Ġriver": 5456,
      "Ġprinciples": 5457,
      "ael": 5458,
      "Ġ:": 5459,
      "rees": 5460,
      "Ġspl": 5461,
      "Ġpars": 5462,
      "ighter": 5463,
      "Ġfeaturing": 5464,
      "Ġexpensive": 5465,
      "Ġcomplexity": 5466,
      "ĠSalt": 5467,
      "Ġmanufacture": 5468,
      "ĠEuropean": 5469,
      "ĠAssoci": 5470,
      "craft": 5471,
      "Ġcovers": 5472,
      "itual": 5473,
      "Ġpray": 5474,
      "Ġfather": 5475,
      "arily": 5476,
      "Ġcommercial": 5477,
      "Ġassist": 5478,
      "Ġgrilled": 5479,
      "Ġcapital": 5480,
      "Ġbasil": 5481,
      "rations": 5482,
      "Ġcas": 5483,
      "Ġsoy": 5484,
      "uracy": 5485,
      "Ġflexible": 5486,
      "Ġvanilla": 5487,
      "Ġwrong": 5488,
      "li": 5489,
      "Ġpump": 5490,
      "Ġtofu": 5491,
      "Ġtoppings": 5492,
      "osed": 5493,
      "Ġjump": 5494,
      "ĠLear": 5495,
      "Ġmusical": 5496,
      "Ġshowed": 5497,
      "Ġscientists": 5498,
      "ket": 5499,
      "ype": 5500,
      "Ġwave": 5501,
      "vere": 5502,
      "Ġrein": 5503,
      "asting": 5504,
      "Ġbelong": 5505,
      "Ġchildhood": 5506,
      "Ġfaith": 5507,
      "Ġlimitations": 5508,
      "Ġsupplies": 5509,
      "bl": 5510,
      "rror": 5511,
      "Ġfindings": 5512,
      "Ġadvoc": 5513,
      "Ġstandards": 5514,
      "Ġmassive": 5515,
      "ĠPractice": 5516,
      "Ġnode": 5517,
      "random": 5518,
      "That": 5519,
      "Ġwindow": 5520,
      "Ġhousehold": 5521,
      "Ġvulnerable": 5522,
      "Ġappoint": 5523,
      "Ġimprovements": 5524,
      "Ġsandw": 5525,
      "Ġreputation": 5526,
      "ama": 5527,
      "ĠWal": 5528,
      "Ġclar": 5529,
      "Ġsession": 5530,
      "inch": 5531,
      "Ġsays": 5532,
      "isco": 5533,
      "Ġstar": 5534,
      "ogether": 5535,
      "ĠChinese": 5536,
      "Ġcontributions": 5537,
      "Ġintegration": 5538,
      "Ġsurroundings": 5539,
      "ĠAtt": 5540,
      "Ġang": 5541,
      "ĠFocus": 5542,
      "Ġdisorders": 5543,
      "ĠJour": 5544,
      "Ġsyrup": 5545,
      "Ġcorner": 5546,
      "Ġcalories": 5547,
      "Ġwidely": 5548,
      "iture": 5549,
      "Ġhiking": 5550,
      "Ġreward": 5551,
      "Ġsecrets": 5552,
      "Ġfacilities": 5553,
      "Ġdrag": 5554,
      "Ġlogistics": 5555,
      "Ġempty": 5556,
      "Ġmut": 5557,
      "Ġber": 5558,
      "ĠSl": 5559,
      "ivals": 5560,
      "Ġhaun": 5561,
      "oding": 5562,
      "Ġ--": 5563,
      "Ġcommand": 5564,
      "Ġaccordingly": 5565,
      "Ġtailored": 5566,
      "Ġpossess": 5567,
      "Ġgreenhouse": 5568,
      "Im": 5569,
      "bled": 5570,
      "ora": 5571,
      "Ġfold": 5572,
      "Ġstood": 5573,
      "string": 5574,
      "ĠHol": 5575,
      "Ġsequ": 5576,
      "Ġship": 5577,
      "Ġteen": 5578,
      "Ġteach": 5579,
      "Ġarticles": 5580,
      "200": 5581,
      "NA": 5582,
      "bal": 5583,
      "mas": 5584,
      "spe": 5585,
      "Ġpolice": 5586,
      "Ġlaun": 5587,
      "band": 5588,
      "fol": 5589,
      "tra": 5590,
      "Ġsour": 5591,
      "Ġforced": 5592,
      "Ġproduced": 5593,
      "Ġtruth": 5594,
      "verse": 5595,
      "Ġolder": 5596,
      "Ġreminder": 5597,
      "Ġstakeholders": 5598,
      "Ġresolution": 5599,
      "Ġaccuracy": 5600,
      "Ġopening": 5601,
      "Ġcolleagues": 5602,
      "`,": 5603,
      "oom": 5604,
      "Ġride": 5605,
      "Ġflood": 5606,
      "Ġsitting": 5607,
      "ĠIslam": 5608,
      "Here": 5609,
      "haps": 5610,
      "rial": 5611,
      "elry": 5612,
      "aint": 5613,
      "Ġjazz": 5614,
      "Ġapple": 5615,
      "Ġrecently": 5616,
      "Ġrace": 5617,
      "Ġathlet": 5618,
      "Ġsample": 5619,
      "veys": 5620,
      "ĠAns": 5621,
      "Ġsculpt": 5622,
      "Ġprofound": 5623,
      "Ġapproaches": 5624,
      "Ġstaying": 5625,
      "Ġvehicle": 5626,
      "CT": 5627,
      "Ċĉĉ": 5628,
      "Ġneck": 5629,
      "action": 5630,
      "Ġdesire": 5631,
      "berry": 5632,
      "Ġthank": 5633,
      "Ġcookies": 5634,
      "Ġmaximum": 5635,
      "Ġstability": 5636,
      "Ġorange": 5637,
      "Ġconsole": 5638,
      "Ġven": 5639,
      "Ġcompare": 5640,
      "Ġfill": 5641,
      "Ġlinks": 5642,
      "Ġcha": 5643,
      "resp": 5644,
      "Ġarts": 5645,
      "Ġglad": 5646,
      "Ġkindness": 5647,
      "Ġlegs": 5648,
      "Ġintroduced": 5649,
      "ae": 5650,
      "gment": 5651,
      "yme": 5652,
      "Ġgives": 5653,
      "othes": 5654,
      "Ġvir": 5655,
      "Ġemails": 5656,
      "Ġpanels": 5657,
      "Ġsen": 5658,
      "Ġstudying": 5659,
      "Ġaffects": 5660,
      "Ġembrace": 5661,
      "Ġdirection": 5662,
      ".)": 5663,
      "`.": 5664,
      "hus": 5665,
      "Ġbank": 5666,
      "Ġalbum": 5667,
      "ĠHT": 5668,
      "active": 5669,
      "Ġattacks": 5670,
      "Ġetc": 5671,
      "ESS": 5672,
      "eem": 5673,
      "inked": 5674,
      "Ġforeign": 5675,
      "Ġhour": 5676,
      "ĠInf": 5677,
      "cont": 5678,
      "Ġdownload": 5679,
      "Ġencourages": 5680,
      "powered": 5681,
      "Ġafraid": 5682,
      "ĠData": 5683,
      "Ġcompelling": 5684,
      "Ġexclusive": 5685,
      "Ġreflects": 5686,
      "Ġselecting": 5687,
      "Ġadoption": 5688,
      "Ġboy": 5689,
      "Ġdinner": 5690,
      "lete": 5691,
      "Ġalle": 5692,
      "ĠMary": 5693,
      "ĠPal": 5694,
      "ĠGroup": 5695,
      "Ġsheet": 5696,
      "Ġhealthier": 5697,
      "Ġrelief": 5698,
      "Ġentreprene": 5699,
      "Ġbeneficial": 5700,
      "Ġfaces": 5701,
      "can": 5702,
      "igating": 5703,
      "Ġengines": 5704,
      "Ġreleased": 5705,
      "Ġpartnership": 5706,
      "Cl": 5707,
      "mark": 5708,
      "makers": 5709,
      "Ġbillion": 5710,
      "ĠTop": 5711,
      "ocation": 5712,
      "Ġagencies": 5713,
      "Ġvisibility": 5714,
      "Ġwinter": 5715,
      "Ġshaping": 5716,
      "Ġcert": 5717,
      "alse": 5718,
      "edom": 5719,
      "amm": 5720,
      "Ġsuc": 5721,
      "Ġtech": 5722,
      "ĠDAY": 5723,
      "ĠEst": 5724,
      "Ġtrail": 5725,
      "Ġnotice": 5726,
      "Ġ2017": 5727,
      "Ġexplores": 5728,
      "Ġconstruct": 5729,
      "Ġversat": 5730,
      "Ġfrequently": 5731,
      "Ġnood": 5732,
      "ĠSil": 5733,
      "Ġvent": 5734,
      "ĠUsers": 5735,
      "Ġvillage": 5736,
      "ET": 5737,
      "Ġlime": 5738,
      "ĠPre": 5739,
      "ĠPres": 5740,
      "Ġcompar": 5741,
      "ĠLena": 5742,
      "Ġtransp": 5743,
      "Ġfinish": 5744,
      "Ġserious": 5745,
      "Ġcapable": 5746,
      "Ġaimed": 5747,
      "Ġcrispy": 5748,
      "ĠÂ": 5749,
      "esan": 5750,
      "olic": 5751,
      "Ġworldwide": 5752,
      "Ġpriv": 5753,
      "Ġpopulations": 5754,
      "Ġfunds": 5755,
      "Ġvolunteer": 5756,
      "person": 5757,
      "tered": 5758,
      "Ġvital": 5759,
      "Ġshr": 5760,
      "oday": 5761,
      "Ġmedicine": 5762,
      "ĠProduct": 5763,
      "Ġdiagn": 5764,
      "Ġemphasizes": 5765,
      "Ġevolved": 5766,
      "16": 5767,
      "aper": 5768,
      "fall": 5769,
      "ĠAnt": 5770,
      "umes": 5771,
      "Ġ13": 5772,
      "Ġupcoming": 5773,
      "weight": 5774,
      "Ġresponsibility": 5775,
      "Ġswitch": 5776,
      "Ġpictures": 5777,
      "ugg": 5778,
      "Ġine": 5779,
      "unction": 5780,
      "plant": 5781,
      "âĢĶ": 5782,
      "Ġflower": 5783,
      "Ġinsurance": 5784,
      "Ġwriter": 5785,
      "izza": 5786,
      "ĠEducation": 5787,
      "Ġtick": 5788,
      "Ġschol": 5789,
      "Ġyellow": 5790,
      "Ġshif": 5791,
      "Ġfollows": 5792,
      "Ġgrav": 5793,
      "Ġcenturies": 5794,
      "Ġscenar": 5795,
      "Ġinstruments": 5796,
      "Ġdegree": 5797,
      "Ġnutrients": 5798,
      "ait": 5799,
      "Ġfier": 5800,
      "Ġcrew": 5801,
      "Ġstreets": 5802,
      "...": 5803,
      "ervices": 5804,
      "Ġcreature": 5805,
      "Ġvend": 5806,
      "ĠâĢĺ": 5807,
      "Ġdessert": 5808,
      "rab": 5809,
      "Ġmanner": 5810,
      "erving": 5811,
      "ĠStr": 5812,
      "text": 5813,
      "Ġstoryt": 5814,
      "Ġaccounts": 5815,
      "17": 5816,
      "Ġcab": 5817,
      "Ġbreeze": 5818,
      "ams": 5819,
      "ifact": 5820,
      "sect": 5821,
      "Ġincorporated": 5822,
      "box": 5823,
      "www": 5824,
      "do": 5825,
      "rical": 5826,
      "Ġmill": 5827,
      "Ġopin": 5828,
      "Ġcollaborate": 5829,
      "ĠImplement": 5830,
      "Ġcutting": 5831,
      "ĠOrgan": 5832,
      "Ġmushrooms": 5833,
      "Generate": 5834,
      "IM": 5835,
      "ounce": 5836,
      "Ġbeg": 5837,
      "ulated": 5838,
      "Ġcommunic": 5839,
      "Ġslices": 5840,
      "Ġhousing": 5841,
      "then": 5842,
      "Ġcards": 5843,
      "Ġencounter": 5844,
      "ĠIncorporate": 5845,
      "Ġbes": 5846,
      "asive": 5847,
      "char": 5848,
      "ĠClick": 5849,
      "ĠBen": 5850,
      "Ġ14": 5851,
      "ĠGiven": 5852,
      "Ġsimpl": 5853,
      "ĠAlice": 5854,
      "Ġdefine": 5855,
      "Ġelim": 5856,
      "Ġanti": 5857,
      "Ġcouple": 5858,
      "Ġdiscounts": 5859,
      "Ġrefreshing": 5860,
      "data": 5861,
      "Ġsem": 5862,
      "Ġthous": 5863,
      "import": 5864,
      "ĠFood": 5865,
      "Ġsucceed": 5866,
      "ien": 5867,
      "kay": 5868,
      "Ġtours": 5869,
      "Ġcater": 5870,
      "Ġhob": 5871,
      "ads": 5872,
      "Ġartifact": 5873,
      "Ġsurf": 5874,
      "Ġtechnological": 5875,
      "Ġreasons": 5876,
      "ĠIT": 5877,
      "unct": 5878,
      "Ġhasht": 5879,
      "Ġdisrupt": 5880,
      "Ġstrings": 5881,
      "Ġartwork": 5882,
      "Ġ40": 5883,
      "Ġcenters": 5884,
      "ĠTherefore": 5885,
      "Ġvisuals": 5886,
      "pace": 5887,
      "Ġcore": 5888,
      "Ġbad": 5889,
      "ĠSan": 5890,
      "ĠRoad": 5891,
      "ĠKing": 5892,
      "Ġfocuses": 5893,
      "ĠShare": 5894,
      "Ġproposal": 5895,
      "Ġcrops": 5896,
      "Ġritual": 5897,
      "ĠEast": 5898,
      "ĠUp": 5899,
      "Ġcustomized": 5900,
      "Ġgrace": 5901,
      "Ġtreatments": 5902,
      "Ġgained": 5903,
      "Ġremained": 5904,
      "js": 5905,
      "asp": 5906,
      "olf": 5907,
      "Ġaside": 5908,
      "ĠIntroduction": 5909,
      "page": 5910,
      "ille": 5911,
      "osm": 5912,
      "Ġpoor": 5913,
      "reheat": 5914,
      "Ġremaining": 5915,
      "Ġbaby": 5916,
      "Ġadmin": 5917,
      "Ġquinoa": 5918,
      "Ġsupports": 5919,
      "Ġclosely": 5920,
      "ĠAfrica": 5921,
      "Ġfragr": 5922,
      "Ġjewelry": 5923,
      "husi": 5924,
      "ipp": 5925,
      "zen": 5926,
      "Ġliqu": 5927,
      "ĠCO": 5928,
      "Ġcontract": 5929,
      "ĠNow": 5930,
      "Ġdrinks": 5931,
      "Ġfilms": 5932,
      "Ġtargeting": 5933,
      "Ġfactor": 5934,
      "Ġsolve": 5935,
      "Ġchannel": 5936,
      "Ġlinked": 5937,
      "right": 5938,
      "ender": 5939,
      "Ġevolution": 5940,
      "Ġrot": 5941,
      "Ġflat": 5942,
      "armesan": 5943,
      "Ġconsistency": 5944,
      "Re": 5945,
      "angers": 5946,
      "Ġcrack": 5947,
      "Ġattractions": 5948,
      "Ġinventory": 5949,
      "Ġson": 5950,
      "afood": 5951,
      "Ġwildlife": 5952,
      "Ġargument": 5953,
      "Ġfurniture": 5954,
      "Can": 5955,
      "kes": 5956,
      "yn": 5957,
      "ĠHome": 5958,
      "Ġkne": 5959,
      "ificial": 5960,
      "Ġskilled": 5961,
      "Ġsolid": 5962,
      "Ġfootprint": 5963,
      "Ġapplied": 5964,
      "Ġdistractions": 5965,
      "Ġastron": 5966,
      "Ġago": 5967,
      "Ġretention": 5968,
      "Ġguidelines": 5969,
      "Error": 5970,
      "Int": 5971,
      "wers": 5972,
      "ette": 5973,
      "imon": 5974,
      "Ġchair": 5975,
      "Ġhowever": 5976,
      "Ġarm": 5977,
      "anges": 5978,
      "ancy": 5979,
      "Ġwarmth": 5980,
      "Ġperiods": 5981,
      "Ġsavings": 5982,
      "Ġfrequency": 5983,
      "Ġrandom": 5984,
      "reach": 5985,
      "Ġgently": 5986,
      "ague": 5987,
      "ĠBel": 5988,
      "ĠDI": 5989,
      "Ġtradition": 5990,
      "Ġcolon": 5991,
      "ondon": 5992,
      "Ġbene": 5993,
      "Ġends": 5994,
      "ĠCompany": 5995,
      "Ġveggies": 5996,
      "')": 5997,
      "Ġdow": 5998,
      "esteem": 5999,
      "roud": 6000,
      "Ġscan": 6001,
      "ĠCanada": 6002,
      "ĠChild": 6003,
      "Ġthanks": 6004,
      "Ġenthusi": 6005,
      "Ġdelicate": 6006,
      "Ġcrunch": 6007,
      "Ġdietary": 6008,
      "anch": 6009,
      "Ġdrop": 6010,
      "Ġdoll": 6011,
      "lets": 6012,
      "uses": 6013,
      "ucch": 6014,
      "Ġsavory": 6015,
      "Ġstorytelling": 6016,
      "pes": 6017,
      "ĠMor": 6018,
      "ickpe": 6019,
      "Ġreduces": 6020,
      "Ġaddressing": 6021,
      "Ġcompetitors": 6022,
      "Ġnutritional": 6023,
      "ask": 6024,
      "ĠWork": 6025,
      "Ġprem": 6026,
      "Ġbirth": 6027,
      "Ġgradually": 6028,
      "Don": 6029,
      "ald": 6030,
      "Ġbot": 6031,
      "ĠRef": 6032,
      "ockt": 6033,
      "Ġtests": 6034,
      "ĠEmp": 6035,
      "Ġnetworks": 6036,
      "valid": 6037,
      "Ġhttps": 6038,
      "imed": 6039,
      "Ġsynt": 6040,
      "ĠAsia": 6041,
      "Ġgran": 6042,
      "Ġprofit": 6043,
      "Ġcareful": 6044,
      "Ġhighest": 6045,
      "ĠSamantha": 6046,
      "tr": 6047,
      "ĠMax": 6048,
      "Ġparties": 6049,
      "Ġrealistic": 6050,
      "Ġpurs": 6051,
      "Ġintegrated": 6052,
      "Ġnutrition": 6053,
      "Ġdining": 6054,
      "Ġhealing": 6055,
      "ĠPort": 6056,
      "Ġsupportive": 6057,
      "Ġapprox": 6058,
      "Ġpresented": 6059,
      "Ġhighlighting": 6060,
      "Ġspinach": 6061,
      "ĠIdentify": 6062,
      "mber": 6063,
      "night": 6064,
      "Ġiron": 6065,
      "ĠSom": 6066,
      "ĠSol": 6067,
      "Ġoutl": 6068,
      "Ġpursu": 6069,
      "Ġsensitive": 6070,
      "ounc": 6071,
      "ĠJohns": 6072,
      "Ġminimize": 6073,
      "Once": 6074,
      "Ġcourage": 6075,
      "Ġpour": 6076,
      "Ġadop": 6077,
      "Ġsoap": 6078,
      "Ġcolumn": 6079,
      "Ġconcern": 6080,
      "Ġcomputing": 6081,
      "Ġvariable": 6082,
      "Ġfestivals": 6083,
      "marks": 6084,
      "Ġiconic": 6085,
      "Ġinstitutions": 6086,
      "bit": 6087,
      "Ġnerv": 6088,
      "Ġrefrig": 6089,
      "ĠScience": 6090,
      "Ġincredibly": 6091,
      "Ġpsychological": 6092,
      "Ġexplanation": 6093,
      "ĠAnswer": 6094,
      "ero": 6095,
      "Ġfan": 6096,
      "Ġforces": 6097,
      "ĠLondon": 6098,
      "orship": 6099,
      "Ġlegal": 6100,
      "Company": 6101,
      "part": 6102,
      "ĠSa": 6103,
      "ĠGra": 6104,
      "ĠUlt": 6105,
      "Ġrow": 6106,
      "ĠStore": 6107,
      "Ġsunlight": 6108,
      "tes": 6109,
      "ĠDig": 6110,
      "Ġclin": 6111,
      "ĠOh": 6112,
      "erved": 6113,
      "Ġpassword": 6114,
      "Ġextreme": 6115,
      "Ġtempl": 6116,
      "Ġfighting": 6117,
      "Ġconcepts": 6118,
      "ĠWilliam": 6119,
      "Ġtag": 6120,
      "Ġarom": 6121,
      "Ġconv": 6122,
      "Ġunf": 6123,
      "ĠJu": 6124,
      "ĠProject": 6125,
      "Ġhappen": 6126,
      "Ġsquare": 6127,
      "Ġadvantages": 6128,
      "ĠTechnology": 6129,
      "];": 6130,
      "ĠMicro": 6131,
      "ĠOpen": 6132,
      "Ġspark": 6133,
      "Ġbreaking": 6134,
      "Ġluxury": 6135,
      "Ġcash": 6136,
      "Ġdisasters": 6137,
      "Chapter": 6138,
      "Ġauthentication": 6139,
      "Ġrecycling": 6140,
      "ĠEncourage": 6141,
      "Ġlaunched": 6142,
      "Ġbeneath": 6143,
      "80": 6144,
      "mission": 6145,
      "Ġera": 6146,
      "inst": 6147,
      "Ġcounter": 6148,
      "Ġspring": 6149,
      "Ġimmune": 6150,
      "ĠParis": 6151,
      "ionally": 6152,
      "Ġassistant": 6153,
      "Ġmusicians": 6154,
      "Ġstrategic": 6155,
      "Ġ60": 6156,
      "profit": 6157,
      "ĠMedia": 6158,
      "Ġmechanisms": 6159,
      "ĠDefine": 6160,
      "Ġoverwhelming": 6161,
      "cons": 6162,
      "rum": 6163,
      "Ġselling": 6164,
      "rika": 6165,
      "ĠGener": 6166,
      "Ġbranding": 6167,
      "Ġobtain": 6168,
      "Ġhappiness": 6169,
      "Ġreaching": 6170,
      "gypt": 6171,
      "rol": 6172,
      "izable": 6173,
      "ĠJess": 6174,
      "Ġsyn": 6175,
      "Ġessays": 6176,
      "Ġoptimal": 6177,
      "Ġdedication": 6178,
      "ĠChristmas": 6179,
      "ĠAustralia": 6180,
      "ĠGermany": 6181,
      "ucchini": 6182,
      "==": 6183,
      "Ph": 6184,
      "Ġtrib": 6185,
      "Ġwings": 6186,
      "Ġmer": 6187,
      "Ġly": 6188,
      "ĠPublic": 6189,
      "never": 6190,
      "Ġbrings": 6191,
      "Ġtextures": 6192,
      "Ġsubmit": 6193,
      "Ġgovernments": 6194,
      "ilarly": 6195,
      "Ġenabling": 6196,
      "Ġtactics": 6197,
      "Ġelaborate": 6198,
      "tering": 6199,
      "ĠFind": 6200,
      "âĢ¢": 6201,
      "ĠStreet": 6202,
      "Ġseeing": 6203,
      "overn": 6204,
      "Ġ2015": 6205,
      "Ġdepends": 6206,
      "Ġtalking": 6207,
      "Ġnormal": 6208,
      "Ġinterventions": 6209,
      "ĠAssociation": 6210,
      "iov": 6211,
      "Ġdust": 6212,
      "Ġstim": 6213,
      "ĠFollow": 6214,
      "Ġresponsibilities": 6215,
      "Ġbringing": 6216,
      "Ġscenes": 6217,
      "Ġaest": 6218,
      "Ġdro": 6219,
      "Ġrewards": 6220,
      "ĠPost": 6221,
      "ĠEgypt": 6222,
      "ĠInvest": 6223,
      "Ġshowing": 6224,
      "Ġgrill": 6225,
      "Ġ2016": 6226,
      "Ġcalming": 6227,
      "Ġturns": 6228,
      "Ġbiggest": 6229,
      "Ġberries": 6230,
      "bt": 6231,
      "chain": 6232,
      "Ġvia": 6233,
      "ĠMal": 6234,
      "Ġspecialized": 6235,
      "Ġbehaviors": 6236,
      "Ġgenres": 6237,
      "ĠCommunity": 6238,
      "da": 6239,
      "lege": 6240,
      "atever": 6241,
      "ĠPreheat": 6242,
      "Ġplaced": 6243,
      "Ġnotifications": 6244,
      "Ġjustice": 6245,
      "Ġvisiting": 6246,
      "Ġclosed": 6247,
      "Ġtemperatures": 6248,
      "Ġadults": 6249,
      "real": 6250,
      "Ġbath": 6251,
      "ĠMark": 6252,
      "ĠPython": 6253,
      "cknow": 6254,
      "Ġbuying": 6255,
      "Ġpromotion": 6256,
      "Ġmotion": 6257,
      "Ġannual": 6258,
      "cery": 6259,
      "ago": 6260,
      "tery": 6261,
      "ĠPour": 6262,
      "Ġsupported": 6263,
      "Ġphoto": 6264,
      "Ġpreviously": 6265,
      "Ġhospit": 6266,
      "Ġsuspense": 6267,
      "Ġfly": 6268,
      "Ġinsect": 6269,
      "Ġharsh": 6270,
      "ooper": 6271,
      "ĠHot": 6272,
      "ĠPot": 6273,
      "ĠList": 6274,
      "lectric": 6275,
      "Ġartistic": 6276,
      "ĠVR": 6277,
      "ports": 6278,
      "Ġraw": 6279,
      "String": 6280,
      "Ġequal": 6281,
      "Ġliterary": 6282,
      "ĠWhether": 6283,
      "inkedIn": 6284,
      "Ġstumbled": 6285,
      "ĠMount": 6286,
      "phone": 6287,
      "Ġagency": 6288,
      "Ġclassical": 6289,
      "Ġpairs": 6290,
      "ĠManagement": 6291,
      "Ġisolation": 6292,
      "solving": 6293,
      "athe": 6294,
      "olve": 6295,
      "Ġproced": 6296,
      "osen": 6297,
      "Ġeveryday": 6298,
      "ĠIsland": 6299,
      "Ġsoldiers": 6300,
      "Ġmystery": 6301,
      "Ġ500": 6302,
      "Ġnetworking": 6303,
      "Ġnavigation": 6304,
      "Ġwatched": 6305,
      "yd": 6306,
      "asy": 6307,
      "Ġgall": 6308,
      "Ġgone": 6309,
      "Ġrules": 6310,
      "ĠDel": 6311,
      "Ġcloves": 6312,
      "ending": 6313,
      "Ġintegrate": 6314,
      "Ġestim": 6315,
      "Ġmachines": 6316,
      "ona": 6317,
      "erie": 6318,
      "Ġgaming": 6319,
      "ĠSk": 6320,
      "Ġspect": 6321,
      "ĠStep": 6322,
      "Ġfinds": 6323,
      "Ġfailure": 6324,
      "coh": 6325,
      "Ġcul": 6326,
      "Ġwra": 6327,
      "Ġfine": 6328,
      "Ġbars": 6329,
      "istry": 6330,
      "ĠYog": 6331,
      "Ġmyster": 6332,
      "Ġcharity": 6333,
      "Ġdiscovery": 6334,
      "Ġfreedom": 6335,
      "Ġwooden": 6336,
      "Ġabsor": 6337,
      "Ġretailers": 6338,
      "Ġcycle": 6339,
      "Ġfoster": 6340,
      "Ġwrap": 6341,
      "ĠII": 6342,
      "ĠPower": 6343,
      "Ġrub": 6344,
      "Ġunable": 6345,
      "Ġscr": 6346,
      "Ġidentified": 6347,
      "Ġholiday": 6348,
      "ouncil": 6349,
      "vas": 6350,
      "iforn": 6351,
      "formation": 6352,
      "obe": 6353,
      "Ġdesigners": 6354,
      "Ġchees": 6355,
      "Ġgets": 6356,
      "Ġmindset": 6357,
      "Ġspirits": 6358,
      "Ġspeaker": 6359,
      "Ġcitiz": 6360,
      "igenous": 6361,
      "px": 6362,
      "Ġproud": 6363,
      "Ġstation": 6364,
      "ĠIN": 6365,
      "unk": 6366,
      "ĠEven": 6367,
      "rue": 6368,
      "Ġbackup": 6369,
      "Ġperforming": 6370,
      "Ġgenerally": 6371,
      "Ġdepartment": 6372,
      "Ġconversations": 6373,
      "Ġcauses": 6374,
      "Ġinitiative": 6375,
      "while": 6376,
      "Ġcorrectly": 6377,
      "Ġcategory": 6378,
      "ishes": 6379,
      "Ġmur": 6380,
      "ari": 6381,
      "Ġlabor": 6382,
      "ament": 6383,
      "Ġconvert": 6384,
      "achel": 6385,
      "ĠBer": 6386,
      "Ġrespective": 6387,
      "Ġexploration": 6388,
      "Ġmissing": 6389,
      "ifornia": 6390,
      "Me": 6391,
      "mes": 6392,
      "ĠSat": 6393,
      "Ġimplications": 6394,
      "ĠJava": 6395,
      "ords": 6396,
      "Ġpret": 6397,
      "Ġstands": 6398,
      "Ġrecognize": 6399,
      "ĠDavid": 6400,
      "Ġcuc": 6401,
      "Ġfoss": 6402,
      "aste": 6403,
      "ĠJake": 6404,
      "Ġperformed": 6405,
      "Ġinteraction": 6406,
      "Ġportfol": 6407,
      "Ġreferral": 6408,
      "Ġliquid": 6409,
      "Ins": 6410,
      "Ġ!": 6411,
      "omen": 6412,
      "Ġwhisk": 6413,
      "ĠMac": 6414,
      "ĠBest": 6415,
      "Ġmeets": 6416,
      "Ġrequests": 6417,
      "Ġwriters": 6418,
      "Ġrising": 6419,
      "Ġlesson": 6420,
      "Ġstreaming": 6421,
      "INT": 6422,
      "Ġsprinkle": 6423,
      "ĠJournal": 6424,
      "ox": 6425,
      "atically": 6426,
      "ĠTime": 6427,
      "Ġbeer": 6428,
      "ĠSS": 6429,
      "ĠMem": 6430,
      "Ġintensity": 6431,
      "Ġreflection": 6432,
      "ĠConf": 6433,
      "ohn": 6434,
      "Ġshoes": 6435,
      "Ġdecrease": 6436,
      "Ġschedul": 6437,
      "Ġapproximately": 6438,
      "Res": 6439,
      "Ġtort": 6440,
      "Ġsor": 6441,
      "Ġpound": 6442,
      "Ġdash": 6443,
      "Ġgear": 6444,
      "raction": 6445,
      "Ġstone": 6446,
      "ĠCat": 6447,
      "rian": 6448,
      "Ġcompassion": 6449,
      "Ġspice": 6450,
      "Ġprovider": 6451,
      "Ġencry": 6452,
      "Ġmatches": 6453,
      "Ġenjoying": 6454,
      "Ġ197": 6455,
      "Ġsearching": 6456,
      "Ġadapted": 6457,
      "Ġrecognized": 6458,
      "From": 6459,
      "Ġmic": 6460,
      "Ġbags": 6461,
      "abet": 6462,
      "Ġrough": 6463,
      "ĠLog": 6464,
      "Ġclothes": 6465,
      "Ġcoast": 6466,
      "ĠYouT": 6467,
      "Ġmodify": 6468,
      "Ġgrant": 6469,
      "Ġrestrict": 6470,
      "Ġroutes": 6471,
      "Ġnegot": 6472,
      "Ġturning": 6473,
      "Ġinjury": 6474,
      "Ġagreement": 6475,
      "Ġparsley": 6476,
      "bar": 6477,
      "Ġseafood": 6478,
      "Ġshot": 6479,
      "ĠRen": 6480,
      "Ġblank": 6481,
      "atching": 6482,
      "Ġhydro": 6483,
      "Ġcryst": 6484,
      "ĠJohnson": 6485,
      "rates": 6486,
      "Ġcockt": 6487,
      "Ġfet": 6488,
      "imal": 6489,
      "ĠDid": 6490,
      "Ġupl": 6491,
      "Ġunits": 6492,
      "Ġpeanut": 6493,
      "Ġresulted": 6494,
      "Ġmountains": 6495,
      "Ġworkouts": 6496,
      "Ġepis": 6497,
      "Ġshadows": 6498,
      "Ġconvenient": 6499,
      "uary": 6500,
      "anish": 6501,
      "idential": 6502,
      "Ġshred": 6503,
      "Ġaccident": 6504,
      "ĠConnect": 6505,
      "ikes": 6506,
      "Ġtrend": 6507,
      "Ġfriendship": 6508,
      "scale": 6509,
      "Ġfeatured": 6510,
      "Ġsentence": 6511,
      "Ġuncertain": 6512,
      "Ġsatisfying": 6513,
      "ilantro": 6514,
      "ml": 6515,
      "taking": 6516,
      "Ġign": 6517,
      "Ġawe": 6518,
      "Ġfell": 6519,
      "Ġden": 6520,
      "uman": 6521,
      "Ġunp": 6522,
      "Ġinvestors": 6523,
      "Ġtreasure": 6524,
      "Ġmelted": 6525,
      "Ġsaved": 6526,
      "Ġweapons": 6527,
      "LE": 6528,
      "oned": 6529,
      "unt": 6530,
      "ĠFound": 6531,
      "Ġunw": 6532,
      "ossible": 6533,
      "Ġencouraging": 6534,
      "ĠPeople": 6535,
      "Ġcopy": 6536,
      "Ġfrust": 6537,
      "gie": 6538,
      "gener": 6539,
      "ris": 6540,
      "Ġmac": 6541,
      "Ġcompl": 6542,
      "ĠHist": 6543,
      "ĠOl": 6544,
      "Ġfamiliar": 6545,
      "Ġcelebrate": 6546,
      "Ġofficial": 6547,
      "Ġpaprika": 6548,
      "Ġhospital": 6549,
      "Ġillustrate": 6550,
      "ometric": 6551,
      "ML": 6552,
      "Over": 6553,
      "Ġpull": 6554,
      "Ġscre": 6555,
      "Ġmyth": 6556,
      "Ġgrass": 6557,
      "Ġturb": 6558,
      "Ġrhythm": 6559,
      "Ġentrepreneurs": 6560,
      "Ġcart": 6561,
      "Ġpen": 6562,
      "alax": 6563,
      "Ġmal": 6564,
      "Ġbaked": 6565,
      "Ġstew": 6566,
      "lymp": 6567,
      "ĠCur": 6568,
      "Ġchosen": 6569,
      "ĠMain": 6570,
      "Ġoverview": 6571,
      "Ġprey": 6572,
      "Ġsimmer": 6573,
      "Ġfundra": 6574,
      "Ġshowcases": 6575,
      "Ġindependent": 6576,
      "press": 6577,
      "Ġwet": 6578,
      "iter": 6579,
      "Ġye": 6580,
      "Ġcomment": 6581,
      "Ġhumor": 6582,
      "ascular": 6583,
      "ĠUser": 6584,
      "Ġchatb": 6585,
      "Ġske": 6586,
      "Ġpizza": 6587,
      "ocking": 6588,
      "ĠWind": 6589,
      "ĠLou": 6590,
      "ĠGard": 6591,
      "ĠStir": 6592,
      "Ġpassing": 6593,
      "Ġearn": 6594,
      "Ġoperating": 6595,
      "Ġmarine": 6596,
      "Ġnoodles": 6597,
      "Cont": 6598,
      "eles": 6599,
      "iest": 6600,
      "ection": 6601,
      "soft": 6602,
      "Ġdecline": 6603,
      "Ġgenerating": 6604,
      "Ġperfectly": 6605,
      "Ġhistoric": 6606,
      "Ġvolunteering": 6607,
      "ita": 6608,
      "Ġworry": 6609,
      "Ġspeech": 6610,
      "ĠUK": 6611,
      "ĠVol": 6612,
      "ĠVirtual": 6613,
      "Ġaccessories": 6614,
      "Ġpromotions": 6615,
      "Ġencouraged": 6616,
      "Ġparam": 6617,
      "Ġmovies": 6618,
      "Ġbalanced": 6619,
      "Ġcritic": 6620,
      "ĠOffer": 6621,
      "Sh": 6622,
      "indu": 6623,
      "Ġalt": 6624,
      "ĠBefore": 6625,
      "ĠEth": 6626,
      "ĠLinkedIn": 6627,
      "Ġscore": 6628,
      "othermal": 6629,
      "Ġofferings": 6630,
      "Ġdirectory": 6631,
      "Ġachievements": 6632,
      "Ġlayers": 6633,
      "Ġillness": 6634,
      "Ġthreats": 6635,
      "Ġdebt": 6636,
      "Ġtiss": 6637,
      "arrow": 6638,
      "ĠRel": 6639,
      "ruption": 6640,
      "Ġarise": 6641,
      "pectives": 6642,
      "Ġmistakes": 6643,
      "Ġsevere": 6644,
      "Ġcompat": 6645,
      "Ġscal": 6646,
      "ĠStay": 6647,
      "Ġorganize": 6648,
      "Ġsensors": 6649,
      "Ġgreens": 6650,
      "class": 6651,
      "ĠIslamic": 6652,
      "Ġcub": 6653,
      "itting": 6654,
      "Ġnice": 6655,
      "Ġisn": 6656,
      "Ġshower": 6657,
      "ĠPM": 6658,
      "Ġrows": 6659,
      "Ġchecking": 6660,
      "Ġsteel": 6661,
      "Ġarrived": 6662,
      "Ġproposed": 6663,
      "Ġtangy": 6664,
      "Ġfantastic": 6665,
      "Ġ2020": 6666,
      "Ġformal": 6667,
      "Ġinspiring": 6668,
      "ĠCalifornia": 6669,
      "ĠDepartment": 6670,
      "vision": 6671,
      "Ġfing": 6672,
      "Ġfert": 6673,
      "Ġdates": 6674,
      "Ġlon": 6675,
      "Ġniche": 6676,
      "agraph": 6677,
      "ĠDisc": 6678,
      "Ġupgra": 6679,
      "Ġdesert": 6680,
      "Ġtrial": 6681,
      "ĠUnion": 6682,
      "Ġjoint": 6683,
      "Ġresponsive": 6684,
      "alysis": 6685,
      "Ġrepeat": 6686,
      "Ġneut": 6687,
      "Ġaccessibility": 6688,
      "Ġestate": 6689,
      "Ġphotography": 6690,
      "Ġpredators": 6691,
      "Ġbarriers": 6692,
      "Ġversatile": 6693,
      "ey": 6694,
      "Ġcumin": 6695,
      "ĠTem": 6696,
      "ĠAug": 6697,
      "uddenly": 6698,
      "ĠJan": 6699,
      "Ġcountless": 6700,
      "Ġeleg": 6701,
      "ĠSupport": 6702,
      "Ġutilized": 6703,
      "Ġscholars": 6704,
      "roid": 6705,
      "Ġperspectives": 6706,
      "Ġincreases": 6707,
      "Ġruns": 6708,
      "Ġcelebrated": 6709,
      "Ġsymbolism": 6710,
      "ĠContent": 6711,
      "Ġinjuries": 6712,
      "ĠDIY": 6713,
      "ĠYouTube": 6714,
      "body": 6715,
      "efficient": 6716,
      "Ġsoph": 6717,
      "idth": 6718,
      "ĠBra": 6719,
      "Ġlever": 6720,
      "Ġattach": 6721,
      "Ġgrab": 6722,
      "Ġexplored": 6723,
      "Ġanimation": 6724,
      "ĠCounty": 6725,
      "cur": 6726,
      "length": 6727,
      "uk": 6728,
      "Ġfle": 6729,
      "Ġthyme": 6730,
      "ĠMiddle": 6731,
      "ĠLim": 6732,
      "lla": 6733,
      "Ġgarn": 6734,
      "Ġlabel": 6735,
      "Ġearthqu": 6736,
      "ACK": 6737,
      "Ġfierce": 6738,
      "?:": 6739,
      "Ġcertainly": 6740,
      "Ġlunch": 6741,
      "ĠDist": 6742,
      "ĠFurthermore": 6743,
      "Ġjar": 6744,
      "Ġsmile": 6745,
      "ampions": 6746,
      "Ġraised": 6747,
      "Ġcharge": 6748,
      "Ġoils": 6749,
      "Ġterrain": 6750,
      "Ġhoping": 6751,
      "Ġboundaries": 6752,
      "ĠMichael": 6753,
      "iovascular": 6754,
      "oa": 6755,
      "Ġbub": 6756,
      "Ġlent": 6757,
      "ĠSum": 6758,
      "acon": 6759,
      "ĠOlymp": 6760,
      "Ġrare": 6761,
      "Ġretrie": 6762,
      "Ġrefer": 6763,
      "Ġclearly": 6764,
      "Ġlandmarks": 6765,
      "Ġmeetings": 6766,
      "Ġemphasis": 6767,
      "Ġvacc": 6768,
      "Ġwitness": 6769,
      "burg": 6770,
      "oos": 6771,
      "ĠIns": 6772,
      "Ġretain": 6773,
      "Ġstored": 6774,
      "Ġparks": 6775,
      "Ġroute": 6776,
      "Ġstrengthen": 6777,
      "Ġcoverage": 6778,
      "Ġselected": 6779,
      "Ġtransformed": 6780,
      "Ġpreferred": 6781,
      "PA": 6782,
      "Ġmir": 6783,
      "Ġstable": 6784,
      "Ġconver": 6785,
      "acher": 6786,
      "Ġspoke": 6787,
      "Ġacid": 6788,
      "Ġpotentially": 6789,
      "Ġclassroom": 6790,
      "Ġprotoc": 6791,
      "ĠCollege": 6792,
      "Ġarguments": 6793,
      "\");": 6794,
      "lim": 6795,
      "Ġbill": 6796,
      "aration": 6797,
      "Ġlose": 6798,
      "ida": 6799,
      "ĠCor": 6800,
      "quate": 6801,
      "ĠRich": 6802,
      "Ġfinished": 6803,
      "Ġdefe": 6804,
      "Ġpossibilities": 6805,
      "Ġ</": 6806,
      "ughter": 6807,
      "Ġrooms": 6808,
      "count": 6809,
      "Ġmig": 6810,
      "ilos": 6811,
      "olk": 6812,
      "otal": 6813,
      "alsa": 6814,
      "Ġpaste": 6815,
      "Ġsweetness": 6816,
      "Ġbeginners": 6817,
      "Ġdestro": 6818,
      "Ġsmoothie": 6819,
      "Ġvacation": 6820,
      "Ġthousands": 6821,
      "99": 6822,
      "Is": 6823,
      "made": 6824,
      "sv": 6825,
      "Ġ%": 6826,
      "Ġbake": 6827,
      "Ġhurt": 6828,
      "Ġgun": 6829,
      "through": 6830,
      "Ġtracks": 6831,
      "Ġindicate": 6832,
      "Ġcrime": 6833,
      "Ġboil": 6834,
      "Ġappeal": 6835,
      "Ġswimming": 6836,
      "Ġfossil": 6837,
      "ST": 6838,
      "ln": 6839,
      "oir": 6840,
      "rip": 6841,
      "Ġrush": 6842,
      "Ġherb": 6843,
      "ansion": 6844,
      "Ġproducing": 6845,
      "Ġinstruct": 6846,
      "ieties": 6847,
      "ĠClass": 6848,
      "Ġemerging": 6849,
      "Ġanticip": 6850,
      "ĠEngland": 6851,
      "++)": 6852,
      "Ġbegins": 6853,
      "Line": 6854,
      "Sarah": 6855,
      "Ġacknow": 6856,
      "Ġcilantro": 6857,
      "Ġvot": 6858,
      "Ġshipping": 6859,
      "Ġcozy": 6860,
      "Ġpride": 6861,
      "Ġformula": 6862,
      "Ġentry": 6863,
      "Ġdepict": 6864,
      "Ġenhancing": 6865,
      "Ġtourists": 6866,
      "Ġshaped": 6867,
      "Ġfigures": 6868,
      "Ġframework": 6869,
      "Ġromantic": 6870,
      "Ġasking": 6871,
      "ĠPay": 6872,
      "phones": 6873,
      "ĠRev": 6874,
      "Ġnutritious": 6875,
      "Ġsatisfied": 6876,
      "arant": 6877,
      "ĠTim": 6878,
      "rome": 6879,
      "Ġoptimizing": 6880,
      "ĠImp": 6881,
      "Ġshowcasing": 6882,
      "While": 6883,
      "Ġcouns": 6884,
      "tles": 6885,
      "ubs": 6886,
      "ĠTour": 6887,
      "Ġshake": 6888,
      "ĠKore": 6889,
      "enery": 6890,
      "Ġ=>": 6891,
      "ĠWhite": 6892,
      "Ġpromotes": 6893,
      "ĠReview": 6894,
      "Ġcontributing": 6895,
      "Ġmagnetic": 6896,
      "Ġentirely": 6897,
      "Additionally": 6898,
      "ĠChristian": 6899,
      "Ġcyber": 6900,
      "path": 6901,
      "Ġcow": 6902,
      "ala": 6903,
      "lear": 6904,
      "Ġdeals": 6905,
      "umns": 6906,
      "Ġsaut": 6907,
      "Ġsuggested": 6908,
      "Ġbroken": 6909,
      "ĠDevelopment": 6910,
      "Ġrecords": 6911,
      "ickpeas": 6912,
      "Ġportfolio": 6913,
      "Ġcooper": 6914,
      "Ġfem": 6915,
      "ĠRest": 6916,
      "rowing": 6917,
      "Ġlogo": 6918,
      "Ġfalling": 6919,
      "ĠOnline": 6920,
      "ĠMusic": 6921,
      "Ġgrocery": 6922,
      "Chor": 6923,
      "OT": 6924,
      "mus": 6925,
      "Ġsan": 6926,
      "Ġce": 6927,
      "otion": 6928,
      "urpose": 6929,
      "Ġintu": 6930,
      "Ġflight": 6931,
      "Ġcustoms": 6932,
      "Ġpromin": 6933,
      "Ġmarin": 6934,
      "Ġreturned": 6935,
      "Ġslice": 6936,
      "Ġintroduction": 6937,
      "Chorus": 6938,
      "ham": 6939,
      "Ġsod": 6940,
      "Ġcrop": 6941,
      "Ġfer": 6942,
      "Ġsto": 6943,
      "Ġevening": 6944,
      "Ġanimations": 6945,
      "Ġseasonal": 6946,
      "Ġsymbols": 6947,
      "Ġinstalled": 6948,
      "Ġdrawing": 6949,
      "Ġcategories": 6950,
      "ĠOptim": 6951,
      "Ġpursue": 6952,
      "Ġshredded": 6953,
      "ĠsautÃ©": 6954,
      "Ġtap": 6955,
      "Ġhuge": 6956,
      "Ġspecified": 6957,
      "ĊĠĠĠĠĊĠĠĠ": 6958,
      "Ġsigns": 6959,
      "Ġmindful": 6960,
      "Ġfishing": 6961,
      "Ġvolunteers": 6962,
      "Ġinterpret": 6963,
      "ipl": 6964,
      "Ġten": 6965,
      "Ġpock": 6966,
      "ĠST": 6967,
      "ocated": 6968,
      "ĠWashing": 6969,
      "ĠNative": 6970,
      "Ġrelatively": 6971,
      "Ġvisited": 6972,
      "Ġviewers": 6973,
      "color": 6974,
      "Ġthoroughly": 6975,
      "ioxid": 6976,
      "Ġscenarios": 6977,
      "Based": 6978,
      "lide": 6979,
      "eration": 6980,
      "Ġbodies": 6981,
      "amel": 6982,
      "Ġ($": 6983,
      "Ġquarter": 6984,
      "Ġpool": 6985,
      "Ġinflam": 6986,
      "Ġindustrial": 6987,
      "Ġgrated": 6988,
      "Ġwindows": 6989,
      "Ġcharacteristics": 6990,
      "Ġmissed": 6991,
      "Ġsurviv": 6992,
      "Ġwalks": 6993,
      "kyo": 6994,
      "optional": 6995,
      "ĠCentral": 6996,
      "Ġprompts": 6997,
      "driven": 6998,
      "Ġmoisture": 6999,
      "Ġinflamm": 7000,
      "Qu": 7001,
      "RL": 7002,
      "Ġcosm": 7003,
      "itar": 7004,
      "ulum": 7005,
      "ĠHall": 7006,
      "ĠHold": 7007,
      "ĠMet": 7008,
      "ĠEvent": 7009,
      "Ġinval": 7010,
      "Ġdesigning": 7011,
      "Ġages": 7012,
      "Ġcourt": 7013,
      "ooting": 7014,
      "Ġresponses": 7015,
      "ounced": 7016,
      "Ġwondering": 7017,
      "Ġdescribed": 7018,
      "Ġtrauma": 7019,
      "EX": 7020,
      "mother": 7021,
      "Ġexit": 7022,
      "Ġshops": 7023,
      "Ġoutreach": 7024,
      "Ġquotes": 7025,
      "Ġmakeup": 7026,
      "Ġchecks": 7027,
      "Ġbreast": 7028,
      "Ġapproached": 7029,
      "Ġdrawn": 7030,
      "Ġmiles": 7031,
      "Ġlayout": 7032,
      "Ġpurchasing": 7033,
      "75": 7034,
      "CUT": 7035,
      "effective": 7036,
      "field": 7037,
      "rich": 7038,
      "Ġox": 7039,
      "Ġmort": 7040,
      "Ġprob": 7041,
      "ĠThom": 7042,
      "Ġwants": 7043,
      "Ġpaintings": 7044,
      "ĠMaria": 7045,
      "Ġblender": 7046,
      "Ġcitizens": 7047,
      "John": 7048,
      "QL": 7049,
      "car": 7050,
      "ĊĊĠĠĠĠĠĠĠ": 7051,
      "ĠService": 7052,
      "ifies": 7053,
      "Ġassem": 7054,
      "ively": 7055,
      "Ġourselves": 7056,
      "Ġsignal": 7057,
      "Ġattribut": 7058,
      "Ġsett": 7059,
      "Ġbridge": 7060,
      "Ġbrew": 7061,
      "Ġcriteria": 7062,
      "poses": 7063,
      "aws": 7064,
      "Ġurg": 7065,
      "Ġmillions": 7066,
      "rase": 7067,
      "inse": 7068,
      "Ġther": 7069,
      "itations": 7070,
      "Ġstuff": 7071,
      "Ġproc": 7072,
      "Ġaband": 7073,
      "Ġcoat": 7074,
      "Ġfoundation": 7075,
      "brid": 7076,
      "Ġathletes": 7077,
      "Ġchaos": 7078,
      "][": 7079,
      "fe": 7080,
      "actions": 7081,
      "ccoli": 7082,
      "ĠGovern": 7083,
      "Ġdiss": 7084,
      "Ġedges": 7085,
      "Ġendless": 7086,
      "Ġdiscussing": 7087,
      "Ġsubstance": 7088,
      "Ġtimeline": 7089,
      "Ġinvolvement": 7090,
      "Ġoverwhelmed": 7091,
      "Act": 7092,
      "base": 7093,
      "fess": 7094,
      "fry": 7095,
      "front": 7096,
      "atin": 7097,
      "ouds": 7098,
      "ĠWell": 7099,
      "ĠFresh": 7100,
      "Ġmode": 7101,
      "Ġtargets": 7102,
      "Ġintegers": 7103,
      "Ġpanel": 7104,
      "Ġturkey": 7105,
      "Ġzucchini": 7106,
      "Ġsorted": 7107,
      "Ġhesit": 7108,
      "ĠWashington": 7109,
      "\";": 7110,
      "hi": 7111,
      "lo": 7112,
      "sion": 7113,
      "sized": 7114,
      "requ": 7115,
      "Ġtheat": 7116,
      "Ġwish": 7117,
      "Ġgram": 7118,
      "Ġnative": 7119,
      "Ġstead": 7120,
      "ĠSub": 7121,
      "Ġwhatever": 7122,
      "orted": 7123,
      "ĠMo": 7124,
      "ĠPa": 7125,
      "ĠBrand": 7126,
      "Ġkiller": 7127,
      "Ġclub": 7128,
      "ĠBeach": 7129,
      "Ġattending": 7130,
      "Ġactively": 7131,
      "100": 7132,
      "RO": 7133,
      "Ġdu": 7134,
      "iments": 7135,
      "Ġcontest": 7136,
      "Ġlocals": 7137,
      "enger": 7138,
      "Ġsurveys": 7139,
      "Ġdecl": 7140,
      "ecd": 7141,
      "Ġemployment": 7142,
      "Ġhappening": 7143,
      "Ġmustard": 7144,
      "Ġputting": 7145,
      "ĠSmith": 7146,
      "Ġsubscrib": 7147,
      "Ġenabled": 7148,
      "Ġsurprise": 7149,
      "Ġexactly": 7150,
      "Ġprivacy": 7151,
      "BC": 7152,
      "rays": 7153,
      "Ġconference": 7154,
      "Ġanecd": 7155,
      "Ġimpossible": 7156,
      "ĠFore": 7157,
      "redient": 7158,
      "Ġguard": 7159,
      "Ġaffecting": 7160,
      "Ġprinting": 7161,
      "Ġamounts": 7162,
      "Ġsubstitut": 7163,
      "Ġsubstitute": 7164,
      "Be": 7165,
      "IP": 7166,
      "Ġ@": 7167,
      "Ġmold": 7168,
      "ayer": 7169,
      "estic": 7170,
      "ĠHindu": 7171,
      "ĠFest": 7172,
      "Ġmanagers": 7173,
      "Ġpurposes": 7174,
      "Ġantioxid": 7175,
      "ĠContin": 7176,
      "Ġalmonds": 7177,
      "ĠFrance": 7178,
      "Ġphrases": 7179,
      "Ġyeast": 7180,
      "22": 7181,
      "Ġinsec": 7182,
      "iders": 7183,
      "Ġsending": 7184,
      "Ġabuse": 7185,
      "Ġartificial": 7186,
      "Ġregional": 7187,
      "Ġcris": 7188,
      "Ġenjoyable": 7189,
      "Ġhonest": 7190,
      "ĠMexican": 7191,
      "Ġartifacts": 7192,
      "ĠEmpire": 7193,
      "ĠDigital": 7194,
      "uing": 7195,
      "Ġtit": 7196,
      "ref": 7197,
      "erb": 7198,
      "Ġfats": 7199,
      "celer": 7200,
      "estion": 7201,
      "ĠĠĠĠĠĠĠ": 7202,
      "astly": 7203,
      "ĠGrand": 7204,
      "angle": 7205,
      "comp": 7206,
      "ĠTokyo": 7207,
      "Ġreporting": 7208,
      "Ġconsidering": 7209,
      "Ġvisualization": 7210,
      "ĠInteg": 7211,
      "________________________________________________________________________________________________________________________________________________________________________________________________________________________________________________________________": 7212,
      "ĠFit": 7213,
      "Ġwhose": 7214,
      "Ġroof": 7215,
      "ĠAdobe": 7216,
      "Ġentered": 7217,
      "airy": 7218,
      "Ġmoon": 7219,
      "ĠClean": 7220,
      "Pl": 7221,
      "bly": 7222,
      "ping": 7223,
      "Ġprop": 7224,
      "unately": 7225,
      "Ġvocal": 7226,
      "lder": 7227,
      "ĠOct": 7228,
      "Ġspell": 7229,
      "ĠUnd": 7230,
      "Ġoverl": 7231,
      "Ġguest": 7232,
      "Ġgrains": 7233,
      "insp": 7234,
      "Ġdrum": 7235,
      "Ġinvested": 7236,
      "Ġ2014": 7237,
      "Ġoptimized": 7238,
      "Ġparagraph": 7239,
      "Ġlegacy": 7240,
      "Ġvariables": 7241,
      "Ġbottle": 7242,
      "pass": 7243,
      "table": 7244,
      "rete": 7245,
      "Ġpork": 7246,
      "izers": 7247,
      "ventional": 7248,
      "point": 7249,
      "ĠEmploy": 7250,
      "Ġpreventing": 7251,
      "Ġweeke": 7252,
      "Ġburst": 7253,
      "oral": 7254,
      "Ġmouth": 7255,
      "Ġbust": 7256,
      "Ġduration": 7257,
      "using": 7258,
      "Ġlift": 7259,
      "Ġunit": 7260,
      "ĠLord": 7261,
      "everance": 7262,
      "ĠWeb": 7263,
      "Ġlearners": 7264,
      "Ġpreparation": 7265,
      "Ġbackgrounds": 7266,
      "Ġcardiovascular": 7267,
      "Add": 7268,
      "Ġfrozen": 7269,
      "Of": 7270,
      "va": 7271,
      "Ġlosing": 7272,
      "ĠApr": 7273,
      "Ġcanvas": 7274,
      "Ġplate": 7275,
      "ĠOb": 7276,
      "Ġconfront": 7277,
      "ĠSelect": 7278,
      "ĠBlue": 7279,
      "Ġinstrument": 7280,
      "Rec": 7281,
      "ĊĊĠ": 7282,
      "Ġtags": 7283,
      "Ġcel": 7284,
      "Ġdip": 7285,
      "ĠCamp": 7286,
      "ĠMoreover": 7287,
      "Ġkid": 7288,
      "Ġscar": 7289,
      "ĠJim": 7290,
      "Ġflakes": 7291,
      "Ġrefused": 7292,
      "ĠRepeat": 7293,
      "Ġmeasuring": 7294,
      "Ġlimits": 7295,
      "Ġdiam": 7296,
      "Ġtherapist": 7297,
      "Ġrevised": 7298,
      "Ġquantum": 7299,
      "VID": 7300,
      "eah": 7301,
      "Ġpose": 7302,
      "ĠMr": 7303,
      "reement": 7304,
      "Ġinvestments": 7305,
      "ĠCollabor": 7306,
      "ĠSeason": 7307,
      "value": 7308,
      "Ġimagine": 7309,
      "Ġfrequent": 7310,
      "https": 7311,
      "natural": 7312,
      "ooth": 7313,
      "ya": 7314,
      "ĠAccess": 7315,
      "Ġshares": 7316,
      "Ġexplo": 7317,
      "Ġcombat": 7318,
      "Ġdepart": 7319,
      "Ġsunset": 7320,
      "Ġstraw": 7321,
      "Ġvendors": 7322,
      "rote": 7323,
      "ĠIP": 7324,
      "ĠSch": 7325,
      "ĠRO": 7326,
      "Ġmanager": 7327,
      "Ġminute": 7328,
      "Ġmelody": 7329,
      "Ġutilizing": 7330,
      "Ġpapers": 7331,
      "Ġexceptional": 7332,
      "Ġcrisis": 7333,
      "itable": 7334,
      "Ġpri": 7335,
      "ederal": 7336,
      "ideo": 7337,
      "Ġuniversity": 7338,
      "Ġkick": 7339,
      "Ġpreference": 7340,
      "Ġveter": 7341,
      "Ġformed": 7342,
      "Ġoperation": 7343,
      "Ġradio": 7344,
      "ĠAnalytics": 7345,
      "but": 7346,
      "met": 7347,
      "Ġnod": 7348,
      "ĠBur": 7349,
      "ĠBank": 7350,
      "Ġintake": 7351,
      "Ġquote": 7352,
      "Ġindigenous": 7353,
      "ĠColor": 7354,
      "Ġrelaxing": 7355,
      "Ġinflammation": 7356,
      "BT": 7357,
      "Ġtoss": 7358,
      "Ġshades": 7359,
      "ĠBake": 7360,
      "Ġoutfit": 7361,
      "Ġspray": 7362,
      "Ġspoon": 7363,
      "ĠUN": 7364,
      "Ġenvironmentally": 7365,
      "ĠShow": 7366,
      "Ġroutines": 7367,
      "Ġtourist": 7368,
      "Ġspeakers": 7369,
      "Ġhonor": 7370,
      "Ġwaters": 7371,
      "Ġaccurately": 7372,
      "Ġcivilization": 7373,
      "Ġcabin": 7374,
      "Ġlyrics": 7375,
      "500": 7376,
      "Product": 7377,
      "reed": 7378,
      "Ġseat": 7379,
      "ĠBu": 7380,
      "Ġtrapped": 7381,
      "ewable": 7382,
      "Ġhearts": 7383,
      "Ġharder": 7384,
      "Ġcharacterized": 7385,
      "Ġexplaining": 7386,
      "Ġwoods": 7387,
      "Ġtransformation": 7388,
      "Ġpassionate": 7389,
      "Ġhoriz": 7390,
      "Ġregardless": 7391,
      "ĠRoasted": 7392,
      "Ġcherry": 7393,
      "Ġconcentration": 7394,
      "Ġkingdom": 7395,
      "Ġshrimp": 7396,
      "($": 7397,
      "Ġtheory": 7398,
      "Ġpink": 7399,
      "ching": 7400,
      "ĠCr": 7401,
      "ĠSince": 7402,
      "ĠMil": 7403,
      "Ġshock": 7404,
      "ĠBas": 7405,
      "Ġexpansion": 7406,
      "ĠFranc": 7407,
      "Ġsacrific": 7408,
      "Some": 7409,
      "pie": 7410,
      "Ġaward": 7411,
      "Ġsalsa": 7412,
      "level": 7413,
      "olves": 7414,
      "ache": 7415,
      "Ġunknown": 7416,
      "ĠJew": 7417,
      "Ġperhaps": 7418,
      "Ġshoulder": 7419,
      "beat": 7420,
      "Ġavoiding": 7421,
      "Ġadjustments": 7422,
      "Ġstepped": 7423,
      "Ġbatteries": 7424,
      "Ġmaple": 7425,
      "Ġtab": 7426,
      "ĠToday": 7427,
      "ĠSun": 7428,
      "ĠSee": 7429,
      "ivia": 7430,
      "Ġleather": 7431,
      "apes": 7432,
      "Ġletters": 7433,
      "pending": 7434,
      "Ġforecast": 7435,
      "ĠSpanish": 7436,
      "Ġautomatically": 7437,
      "ĠSmart": 7438,
      "Ġsaying": 7439,
      "Ġcircum": 7440,
      "ĠAnalyze": 7441,
      "Ġsandwich": 7442,
      "ĠMicrosoft": 7443,
      "ĠFoundation": 7444,
      "\":": 7445,
      "Now": 7446,
      "gl": 7447,
      "inter": 7448,
      "erals": 7449,
      "enities": 7450,
      "Ġwife": 7451,
      "Ġmild": 7452,
      "Ġdurable": 7453,
      "stract": 7454,
      "ĠSelf": 7455,
      "ĠFire": 7456,
      "Ġdeadlines": 7457,
      "Ġprocedures": 7458,
      "List": 7459,
      "lation": 7460,
      "long": 7461,
      "rish": 7462,
      "uit": 7463,
      "itative": 7464,
      "ĠTre": 7465,
      "ĠTurn": 7466,
      "Ġfort": 7467,
      "utrit": 7468,
      "ĠCap": 7469,
      "Ġwellbeing": 7470,
      "ĠChic": 7471,
      "Ġvisible": 7472,
      "Ġlists": 7473,
      "ĠReal": 7474,
      "Ġlaws": 7475,
      "Ġdevast": 7476,
      "Ġlasting": 7477,
      "ĠSpace": 7478,
      "Ġembra": 7479,
      "Ġsubjects": 7480,
      "Ġhashtags": 7481,
      "');": 7482,
      "CD": 7483,
      "Out": 7484,
      "WS": 7485,
      "ivating": 7486,
      "Ġchickpeas": 7487,
      "ĠLila": 7488,
      "Ġclouds": 7489,
      "Ġtrained": 7490,
      "Ġretreat": 7491,
      "Ġalongside": 7492,
      "ĠTeam": 7493,
      "Ġfailed": 7494,
      "Ġpushing": 7495,
      "Ġdocumentation": 7496,
      "aust": 7497,
      "Ġhus": 7498,
      "usable": 7499,
      "ĠSn": 7500,
      "Ġlege": 7501,
      "Ġintended": 7502,
      "aphor": 7503,
      "riculum": 7504,
      "ĠAlthough": 7505,
      "Ġcalling": 7506,
      "Ġdifficulty": 7507,
      "Ġpreparing": 7508,
      "Ġconversions": 7509,
      "Ġsteak": 7510,
      "Ġvolume": 7511,
      "riday": 7512,
      "Ġcinem": 7513,
      "Image": 7514,
      "Ġrestrictions": 7515,
      "Ġdestroy": 7516,
      "::": 7517,
      "App": 7518,
      "roph": 7519,
      "Ġgym": 7520,
      "str": 7521,
      "otton": 7522,
      "ĠCam": 7523,
      "Ġchurch": 7524,
      "ĠHand": 7525,
      "Ġoutcome": 7526,
      "Ġspots": 7527,
      "Ġsale": 7528,
      "Ġpreserve": 7529,
      "Ġpopularity": 7530,
      "Ġelev": 7531,
      "Ġbasket": 7532,
      "Ġbands": 7533,
      "Ġbanana": 7534,
      "lower": 7535,
      "ingu": 7536,
      "Ġoz": 7537,
      "Ġtoll": 7538,
      "Ġinqu": 7539,
      "ĠSand": 7540,
      "istical": 7541,
      "Ġaccomp": 7542,
      "Ġphilos": 7543,
      "ĠProt": 7544,
      "Ġingredient": 7545,
      "Ġfuels": 7546,
      "Ġdecreased": 7547,
      "ĠVegan": 7548,
      "ĠMexico": 7549,
      "Ġfacilit": 7550,
      "bling": 7551,
      "Ġbooking": 7552,
      "ĠHaw": 7553,
      "ĠDem": 7554,
      "Ġunderst": 7555,
      "Ġmini": 7556,
      "Ġdonations": 7557,
      "rapy": 7558,
      "Ġincorporates": 7559,
      "Ġmagaz": 7560,
      "Ġportion": 7561,
      "Ġattendees": 7562,
      "Ġtaxes": 7563,
      "ĠMonitor": 7564,
      "Ġvitamin": 7565,
      "bility": 7566,
      "building": 7567,
      "cop": 7568,
      "gr": 7569,
      "inant": 7570,
      "Ġborn": 7571,
      "arks": 7572,
      "Ġstrain": 7573,
      "ĠCoc": 7574,
      "ĠPeter": 7575,
      "ĠLeg": 7576,
      "ĠGold": 7577,
      "anged": 7578,
      "hesive": 7579,
      "Ġconsume": 7580,
      "Ġprimarily": 7581,
      "ĠComb": 7582,
      "Ġcomparison": 7583,
      "ford": 7584,
      "Ġid": 7585,
      "alg": 7586,
      "Ġma": 7587,
      "leep": 7588,
      "Ġhip": 7589,
      "redict": 7590,
      "Ġperseverance": 7591,
      "Ġfinance": 7592,
      "const": 7593,
      "ĠInstitute": 7594,
      "Ġcomposition": 7595,
      "Ġrule": 7596,
      "Ġrefriger": 7597,
      "Ind": 7598,
      "Ġinch": 7599,
      "Ġhearing": 7600,
      "Ġalert": 7601,
      "ocr": 7602,
      "ĠMarch": 7603,
      "ĠBook": 7604,
      "Ġleverage": 7605,
      "Ġrating": 7606,
      "Ġfees": 7607,
      "Ġroast": 7608,
      "anches": 7609,
      "Ġguitar": 7610,
      "issance": 7611,
      "Ġediting": 7612,
      "Ġ2011": 7613,
      "Ġautomated": 7614,
      "Ġthrive": 7615,
      "Ġtwisted": 7616,
      "Ġcrowd": 7617,
      "Ġorders": 7618,
      "Ġaer": 7619,
      "eters": 7620,
      "Ġwhisp": 7621,
      "Ġench": 7622,
      "umps": 7623,
      "ĠLike": 7624,
      "Their": 7625,
      "Ġcope": 7626,
      "Ġguarant": 7627,
      "Ġowner": 7628,
      "Ġachievement": 7629,
      "Ġhumanity": 7630,
      "Ġdestinations": 7631,
      "Ġutilize": 7632,
      "Ġagricultural": 7633,
      "Ġcrafts": 7634,
      "Ġdegrees": 7635,
      "smiling": 7636,
      "ĠApril": 7637,
      "hib": 7638,
      "ool": 7639,
      "Ġdivid": 7640,
      "Ġgalax": 7641,
      "Ġwhis": 7642,
      "ĠMach": 7643,
      "ĠLead": 7644,
      "Ġteamwork": 7645,
      "Ġextended": 7646,
      "Ġdirector": 7647,
      "Ġgenre": 7648,
      "Ġpercentage": 7649,
      "Ġnutrient": 7650,
      "Ġceremony": 7651,
      "Ġrapidly": 7652,
      "ĠYoga": 7653,
      "ĠFestival": 7654,
      "Col": 7655,
      "SON": 7656,
      "Ġsad": 7657,
      "omb": 7658,
      "Ġbear": 7659,
      "ĠAud": 7660,
      "ĠMat": 7661,
      "ĠBring": 7662,
      "osition": 7663,
      "ĠLife": 7664,
      "ĠStar": 7665,
      "Ġgreatest": 7666,
      "Ġtested": 7667,
      "Ġpositively": 7668,
      "ĠExerc": 7669,
      "Ġhardware": 7670,
      "ĠSimilarly": 7671,
      "Ġrevealed": 7672,
      "respond": 7673,
      "Ġsurvivors": 7674,
      "eal": 7675,
      "ls": 7676,
      "such": 7677,
      "Ġtopping": 7678,
      "Ġcomed": 7679,
      "Ġneuro": 7680,
      "Ġwash": 7681,
      "ĠBet": 7682,
      "ĠWood": 7683,
      "Ġdisorder": 7684,
      "Ġsport": 7685,
      "ĠAdv": 7686,
      "Ġinsert": 7687,
      "Ġsalmon": 7688,
      "ĠAsk": 7689,
      "Ġfacility": 7690,
      "Ġdrain": 7691,
      "Ġbrother": 7692,
      "Ġbasis": 7693,
      "Ġexhibit": 7694,
      "Ġceremonies": 7695,
      "])": 7696,
      "ĠCa": 7697,
      "Ġcomprom": 7698,
      "Ġjack": 7699,
      "ĠChall": 7700,
      "Ġpromotional": 7701,
      "Ġcelebration": 7702,
      "Ġassessment": 7703,
      "Ġtiny": 7704,
      "orials": 7705,
      "Ġrepe": 7706,
      "ĠCross": 7707,
      "Ġalcoh": 7708,
      "Ġlean": 7709,
      "osion": 7710,
      "inding": 7711,
      "phony": 7712,
      "ĠHeat": 7713,
      "Ġdriven": 7714,
      "Ġdiscussion": 7715,
      "Ġacquis": 7716,
      "Ġrituals": 7717,
      "abetes": 7718,
      "uation": 7719,
      "ĠLove": 7720,
      "Ġouts": 7721,
      "ĠChurch": 7722,
      "Ġcurry": 7723,
      "Ġinvestigation": 7724,
      "Thank": 7725,
      "Ġprotecting": 7726,
      "Ġgardens": 7727,
      "Ġfacilitate": 7728,
      "Ġvitamins": 7729,
      "Ġbesides": 7730,
      "Ġinsects": 7731,
      "CA": 7732,
      "nic": 7733,
      "Ġdancing": 7734,
      "Ġeight": 7735,
      "Ġnarrow": 7736,
      "ĠCover": 7737,
      "Ġdealing": 7738,
      "Ġshell": 7739,
      "ĠInit": 7740,
      "Ġdevelopments": 7741,
      "Ġ2021": 7742,
      "Ġparaph": 7743,
      "Ġsilence": 7744,
      "Ġstirring": 7745,
      "Ġexhibition": 7746,
      "Ġharmony": 7747,
      "inars": 7748,
      "Ġokay": 7749,
      "iches": 7750,
      "ĠTitle": 7751,
      "Ġintent": 7752,
      "Ġsau": 7753,
      "Ġcorrespond": 7754,
      "Ġtemple": 7755,
      "Ġtraveling": 7756,
      "Ġparticipating": 7757,
      "Ġpayments": 7758,
      "Ġpackages": 7759,
      "appy": 7760,
      "Ġtailor": 7761,
      "Ġtalked": 7762,
      "een": 7763,
      "oices": 7764,
      "Ġtheater": 7765,
      "ications": 7766,
      "Ġhur": 7767,
      "adow": 7768,
      "Ġconqu": 7769,
      "Ġade": 7770,
      "ĠBay": 7771,
      "ella": 7772,
      "Ġproductive": 7773,
      "pects": 7774,
      "Ġacceler": 7775,
      "Ġphysically": 7776,
      "Ġtestimon": 7777,
      "bris": 7778,
      "Ġsaucepan": 7779,
      "Ġobjective": 7780,
      "ĠCloud": 7781,
      "Ġhosting": 7782,
      "Ġranking": 7783,
      "Ġcandidate": 7784,
      "Ġreinforce": 7785,
      "Ġculinary": 7786,
      "LL": 7787,
      "high": 7788,
      "Ġaug": 7789,
      "Ġwrote": 7790,
      "Ġbon": 7791,
      "Ġbite": 7792,
      "amily": 7793,
      "Ġmedication": 7794,
      "Ġamenities": 7795,
      "Ġtransactions": 7796,
      "rency": 7797,
      "Ġfewer": 7798,
      "Ġterrit": 7799,
      "Ġcollected": 7800,
      "Ġdocuments": 7801,
      "Ġgraphic": 7802,
      "Ġknife": 7803,
      "Ġaligns": 7804,
      "Ġconvenience": 7805,
      "Ġwedding": 7806,
      "orient": 7807,
      "Ġpace": 7808,
      "Ġfought": 7809,
      "store": 7810,
      "ĠCouncil": 7811,
      "ĠArab": 7812,
      "Ġjun": 7813,
      "Ġune": 7814,
      "ĠLight": 7815,
      "next": 7816,
      "oven": 7817,
      "Ġcrim": 7818,
      "Ġphysics": 7819,
      "Ġpacked": 7820,
      "Ġreflecting": 7821,
      "Ġgeothermal": 7822,
      "ĠVisual": 7823,
      "ĠMaggie": 7824,
      "ĠAugust": 7825,
      "ĠChicago": 7826,
      "Script": 7827,
      "Ġpushed": 7828,
      "Ġfellow": 7829,
      "isher": 7830,
      "Ġdebris": 7831,
      "Ġsegment": 7832,
      "Ġconscious": 7833,
      "Ġinterviews": 7834,
      "Ġschedules": 7835,
      "Ġwelcome": 7836,
      "Ġturbines": 7837,
      "fire": 7838,
      "Ġmes": 7839,
      "ivered": 7840,
      "Ġsear": 7841,
      "Ġanywhere": 7842,
      "Ġshoulders": 7843,
      "Ġphase": 7844,
      "engers": 7845,
      "Ġbackpack": 7846,
      "Ġgrid": 7847,
      "Ġcurriculum": 7848,
      "ĠKey": 7849,
      "Ġalternatives": 7850,
      "Ġminimum": 7851,
      "Ġsentiment": 7852,
      "ĠAutom": 7853,
      "ĠSecurity": 7854,
      "Ġcircumst": 7855,
      "45": 7856,
      "lor": 7857,
      "nger": 7858,
      "ville": 7859,
      "orge": 7860,
      "Ġdut": 7861,
      "Ġhall": 7862,
      "Ġmanual": 7863,
      "Ġwheat": 7864,
      "efits": 7865,
      "Ġinstant": 7866,
      "Ġpatience": 7867,
      "Ġaddresses": 7868,
      "Ġequipped": 7869,
      "lishing": 7870,
      "Ġreceiving": 7871,
      "Ġrobust": 7872,
      "Ġfrost": 7873,
      "Ġcontrolled": 7874,
      "ĠPresident": 7875,
      "CS": 7876,
      "oors": 7877,
      "alle": 7878,
      "Ġdense": 7879,
      "Ġinches": 7880,
      "Ġplain": 7881,
      "ĠEv": 7882,
      "Ġspa": 7883,
      "Ġwhenever": 7884,
      "gged": 7885,
      "Ġmentor": 7886,
      "Ġcurse": 7887,
      "Ġmargin": 7888,
      "Ġmole": 7889,
      "ĠVisitors": 7890,
      "ĠAgreement": 7891,
      "Ġterror": 7892,
      "Ġodd": 7893,
      "Ġsequence": 7894,
      "ĠCOVID": 7895,
      "athered": 7896,
      "cers": 7897,
      "cific": 7898,
      "orter": 7899,
      "una": 7900,
      "Ġvoc": 7901,
      "Ġrecover": 7902,
      "ĠJane": 7903,
      "Ġworkforce": 7904,
      "alsamic": 7905,
      "Ġkeeps": 7906,
      "ĠAnn": 7907,
      "Ġlanding": 7908,
      "Ġparticipation": 7909,
      "Ġwonderful": 7910,
      "Ġweaknesses": 7911,
      "Ġtroubles": 7912,
      "Ġmysterious": 7913,
      "Ġintuitive": 7914,
      "label": 7915,
      "orrow": 7916,
      "Ġborder": 7917,
      "ĠSen": 7918,
      "ulating": 7919,
      "ĠMost": 7920,
      "ĠForm": 7921,
      "ĠOper": 7922,
      "Ġpersu": 7923,
      "ĠKh": 7924,
      "Ġprinc": 7925,
      "Ġdecide": 7926,
      "Ġadvers": 7927,
      "Ġbranches": 7928,
      "Ġconcert": 7929,
      "Ġcontainers": 7930,
      "Ġapartment": 7931,
      "Ġemphasize": 7932,
      "Ġresilient": 7933,
      "Ġuncover": 7934,
      "Ġwidth": 7935,
      "Ġcastle": 7936,
      "Ġtutorial": 7937,
      "Ġdaughter": 7938,
      "Fi": 7939,
      "MS": 7940,
      "case": 7941,
      "iner": 7942,
      "Ġstro": 7943,
      "Ġsuits": 7944,
      "ĠMiss": 7945,
      "Ġoutline": 7946,
      "ĠInformation": 7947,
      "Ġpersist": 7948,
      "Ġregulation": 7949,
      "Ġconcrete": 7950,
      "ermine": 7951,
      "Ġkeyword": 7952,
      "Ġlapt": 7953,
      "Ġtravelers": 7954,
      "Ġburden": 7955,
      "Ġofficials": 7956,
      "Ġwis": 7957,
      "Ġfridge": 7958,
      "Ġstations": 7959,
      "ĠRena": 7960,
      "ĠGar": 7961,
      "Ġ\"$": 7962,
      "ressive": 7963,
      "endar": 7964,
      "Ġdesper": 7965,
      "ĠJune": 7966,
      "Ġrelat": 7967,
      "Ġ2012": 7968,
      "Ġoperate": 7969,
      "Ġversions": 7970,
      "Ġhybrid": 7971,
      "Ġappears": 7972,
      "Ġgrandmother": 7973,
      "Ġdynamics": 7974,
      "Ġdelivering": 7975,
      "ĠSophia": 7976,
      "Ġprayer": 7977,
      "Ġhusband": 7978,
      "Furthermore": 7979,
      "cher": 7980,
      "power": 7981,
      "xic": 7982,
      "Ġmath": 7983,
      "ellect": 7984,
      "ading": 7985,
      "ĠCour": 7986,
      "outhern": 7987,
      "inder": 7988,
      "Ġoverc": 7989,
      "Ġtells": 7990,
      "Ġcombinations": 7991,
      "fortunately": 7992,
      "Ġnearly": 7993,
      "Ġdrawbacks": 7994,
      "Ġmaximize": 7995,
      "onomic": 7996,
      "Ġdashboard": 7997,
      "width": 7998,
      "Ġped": 7999,
      "Ġpad": 8000,
      "Ġfra": 8001,
      "Ġfalse": 8002,
      "rape": 8003,
      "eli": 8004,
      "Ġbeings": 8005,
      "utch": 8006,
      "ĠBuilding": 8007,
      "umbers": 8008,
      "ĠWi": 8009,
      "Ġ->": 8010,
      "Ġconfirm": 8011,
      "ĠAllow": 8012,
      "Ġmeasurements": 8013,
      "Ġvulnerability": 8014,
      "Ġcharts": 8015,
      "Ġuniversities": 8016,
      "ĠStrateg": 8017,
      "Car": 8018,
      "TP": 8019,
      "Time": 8020,
      "rec": 8021,
      "Ġpil": 8022,
      "Ġheal": 8023,
      "urious": 8024,
      "ĠSqu": 8025,
      "Ġleaf": 8026,
      "ĠLit": 8027,
      "ressed": 8028,
      "Ġpeel": 8029,
      "ĠStand": 8030,
      "Ġdiscipl": 8031,
      "ĠConduct": 8032,
      "proof": 8033,
      "Ġdiscussions": 8034,
      "Ġattractive": 8035,
      "Ġauthority": 8036,
      "Ġdemands": 8037,
      "plicated": 8038,
      "Ġqualities": 8039,
      "ĠCSS": 8040,
      "Ġmanipulate": 8041,
      "Ġpretty": 8042,
      "hav": 8043,
      "yr": 8044,
      "Ġaids": 8045,
      "Ġcer": 8046,
      "Ġcro": 8047,
      "Ġfib": 8048,
      "Ġfalls": 8049,
      "Ġyounger": 8050,
      "ĠSing": 8051,
      "ĠParmesan": 8052,
      "ĠBuild": 8053,
      "Ġrul": 8054,
      "Ġmansion": 8055,
      "Ġbench": 8056,
      "luenc": 8057,
      "Ġemotion": 8058,
      "Ġmetaphor": 8059,
      "ackson": 8060,
      "urability": 8061,
      "ĠSalad": 8062,
      "Ġrolling": 8063,
      "Ġnewslet": 8064,
      "Ġprecision": 8065,
      "Ġvictory": 8066,
      "Ġmuseums": 8067,
      "Ġdrugs": 8068,
      "Ġnervous": 8069,
      "Ġanecdotes": 8070,
      "ĠRenaissance": 8071,
      "Ġsaving": 8072,
      "Ġstoring": 8073,
      "ĠCare": 8074,
      "ĠCult": 8075,
      "ĠCup": 8076,
      "ifting": 8077,
      "ĠWall": 8078,
      "Ġintrig": 8079,
      "ĠEss": 8080,
      "ferent": 8081,
      "obile": 8082,
      "Ġcompleting": 8083,
      "Ġaffili": 8084,
      "Ġdistrict": 8085,
      "ĠAnna": 8086,
      "Ġboat": 8087,
      "Ġelectrical": 8088,
      "Ġsenses": 8089,
      "Ġtasty": 8090,
      "ĠResp": 8091,
      "Ġholds": 8092,
      "Ġeggplant": 8093,
      "Ġbeginner": 8094,
      "Ġauthorities": 8095,
      "ĠSales": 8096,
      "Ġevaluation": 8097,
      "Ġlibraries": 8098,
      "Ġevolve": 8099,
      "ĠVisit": 8100,
      "Ġloan": 8101,
      "Ġharvest": 8102,
      "ĠAcad": 8103,
      "Ġsuddenly": 8104,
      "ĠIncreased": 8105,
      "Ġepisode": 8106,
      "Ġfundraising": 8107,
      "Alex": 8108,
      "Part": 8109,
      "US": 8110,
      "orie": 8111,
      "Ġore": 8112,
      "oma": 8113,
      "ulf": 8114,
      "Ġranging": 8115,
      "Ġmentorship": 8116,
      "Ġformats": 8117,
      "Ġcollaborative": 8118,
      "Ġexhaust": 8119,
      "Ġdisplayed": 8120,
      "Ġlosses": 8121,
      "Ġvalidation": 8122,
      "ĠStudies": 8123,
      "Ġbroader": 8124,
      "Ġclarity": 8125,
      "Ġcucumber": 8126,
      "Ġparaphrase": 8127,
      "LA": 8128,
      "Te": 8129,
      "range": 8130,
      "ta": 8131,
      "zer": 8132,
      "Ġagg": 8133,
      "esus": 8134,
      "Ġpine": 8135,
      "Ġgender": 8136,
      "ĠAWS": 8137,
      "acific": 8138,
      "ello": 8139,
      "Ġresc": 8140,
      "Ġevil": 8141,
      "Ġrecon": 8142,
      "Ġminerals": 8143,
      "Ġvalued": 8144,
      "Ġfreshly": 8145,
      "Ġconsumed": 8146,
      "Ġvictim": 8147,
      "Ġresonates": 8148,
      "ĠUltimately": 8149,
      "Ġcircumstances": 8150,
      "Do": 8151,
      "Moreover": 8152,
      "most": 8153,
      "à°": 8154,
      "orous": 8155,
      "itivity": 8156,
      "Ġblow": 8157,
      "road": 8158,
      "Ġseven": 8159,
      "ĠWrit": 8160,
      "formance": 8161,
      "gano": 8162,
      "Ġ2013": 8163,
      "Ġcompete": 8164,
      "Ġbreathtaking": 8165,
      "Ġdecorative": 8166,
      "ĠGrilled": 8167,
      "Ġblockchain": 8168,
      "ĠCustomer": 8169,
      "Ġpumpkin": 8170,
      "ĠLouis": 8171,
      "Ġoats": 8172,
      "Ġreusable": 8173,
      "Ġhaz": 8174,
      "Ġpeers": 8175,
      "Ġcarb": 8176,
      "egin": 8177,
      "Ġorganizing": 8178,
      "Ġedit": 8179,
      "Ġextrem": 8180,
      "Ġdestruction": 8181,
      "Ġexperimenting": 8182,
      "aphors": 8183,
      "ĠChildren": 8184,
      "Ġabandoned": 8185,
      "First": 8186,
      "Ġelder": 8187,
      "Ġthus": 8188,
      "stone": 8189,
      "adian": 8190,
      "ĠBrown": 8191,
      "index": 8192,
      "Ġunl": 8193,
      "ulty": 8194,
      "ressing": 8195,
      "Ġsignals": 8196,
      "Ġblues": 8197,
      "Ġtwists": 8198,
      "Ġrefine": 8199,
      "connect": 8200,
      "Ġcookie": 8201,
      "Ġ198": 8202,
      "Ġcaptures": 8203,
      "ĠPhot": 8204,
      "Ġpaths": 8205,
      "Ġannounced": 8206,
      "Ġviolence": 8207,
      "Ġseamless": 8208,
      "ĠBreak": 8209,
      "ĠCreating": 8210,
      "Ġfingers": 8211,
      "Please": 8212,
      "bies": 8213,
      "Ġbills": 8214,
      "Ġgate": 8215,
      "elly": 8216,
      "othe": 8217,
      "orthern": 8218,
      "Ġsections": 8219,
      "Ġdispos": 8220,
      "ĠIngredients": 8221,
      "Ġauth": 8222,
      "ictor": 8223,
      "Ġstruck": 8224,
      "ĠInternet": 8225,
      "Ġshadow": 8226,
      "Ġclaims": 8227,
      "ĠExperiment": 8228,
      "ĠRenewable": 8229,
      "Ġcrystal": 8230,
      "ĠJanuary": 8231,
      "Ġsubscribers": 8232,
      "Ġantioxidants": 8233,
      "Ġalcohol": 8234,
      "33": 8235,
      "JESS": 8236,
      "berg": 8237,
      "Ġ```": 8238,
      "item": 8239,
      "Ġfits": 8240,
      "Ġthrow": 8241,
      "Ġlic": 8242,
      "Ġnuc": 8243,
      "ĠCast": 8244,
      "ĠSustain": 8245,
      "ĠSeries": 8246,
      "Ġseed": 8247,
      "ĠMic": 8248,
      "ĠBB": 8249,
      "ĠBack": 8250,
      "Ġteeth": 8251,
      "ĠDirect": 8252,
      "Ġrecurs": 8253,
      "Ġques": 8254,
      "ĠJe": 8255,
      "Ġplanned": 8256,
      "Ġextend": 8257,
      "ĠEnter": 8258,
      "Ġdemographics": 8259,
      "Ġphotograph": 8260,
      "ĠQue": 8261,
      "isticated": 8262,
      "ĠFlor": 8263,
      "Ġneighb": 8264,
      "Ġhouses": 8265,
      "Ġphrase": 8266,
      "Ġclinical": 8267,
      "Ġaroma": 8268,
      "';": 8269,
      "vable": 8270,
      "Ġrib": 8271,
      "Ġsere": 8272,
      "Ġsick": 8273,
      "oust": 8274,
      "Ġforum": 8275,
      "ĠCost": 8276,
      "ĠServices": 8277,
      "Ġalike": 8278,
      "Ġworn": 8279,
      "ĠFriday": 8280,
      "uality": 8281,
      "ĠJesus": 8282,
      "Ġbless": 8283,
      "Ġsubtle": 8284,
      "Ġcollaborations": 8285,
      "ĠSept": 8286,
      "Ġconducting": 8287,
      "Ġcircle": 8288,
      "Ġultimate": 8289,
      "Ġstretching": 8290,
      "Ġlaughter": 8291,
      "generated": 8292,
      "Ġunderstood": 8293,
      "File": 8294,
      "men": 8295,
      "Ġcotton": 8296,
      "Ġvib": 8297,
      "ĠMont": 8298,
      "ĠPu": 8299,
      "ĠLocal": 8300,
      "Ġroots": 8301,
      "Ġlock": 8302,
      "iances": 8303,
      "ĠIndust": 8304,
      "Ġhotels": 8305,
      "Ġappeared": 8306,
      "Ġcontinuous": 8307,
      "Ġphilosoph": 8308,
      "max": 8309,
      "Ġmos": 8310,
      "idal": 8311,
      "Ġstain": 8312,
      "ĠID": 8313,
      "irts": 8314,
      "Ġshade": 8315,
      "Ġcloth": 8316,
      "ĠOld": 8317,
      "Ġ21": 8318,
      "Ġcolumns": 8319,
      "ĠWhy": 8320,
      "Ġ2010": 8321,
      "Ġsensation": 8322,
      "Ġoccup": 8323,
      "Ġpriority": 8324,
      "Ġhorror": 8325,
      "Ġhunt": 8326,
      "Ġcoping": 8327,
      "ĠVeget": 8328,
      "ĠMindfulness": 8329,
      "MA": 8330,
      "dep": 8331,
      "asm": 8332,
      "Ġhorm": 8333,
      "Ġeager": 8334,
      "Ġlas": 8335,
      "ĠMart": 8336,
      "ĠMap": 8337,
      "Ġknows": 8338,
      "rence": 8339,
      "Ġdecades": 8340,
      "Ġrefers": 8341,
      "Ġlightweight": 8342,
      "Ġstylish": 8343,
      "ĠRegular": 8344,
      "Ġdeployment": 8345,
      "Ġfulfill": 8346,
      "no": 8347,
      "orious": 8348,
      "Ġbare": 8349,
      "Ġballs": 8350,
      "icians": 8351,
      "Ġheating": 8352,
      "ĠHel": 8353,
      "Ġincident": 8354,
      "aped": 8355,
      "Ġproduces": 8356,
      "ĠWho": 8357,
      "Ġconnecting": 8358,
      "Ġsleek": 8359,
      "Ġdiabetes": 8360,
      "Ġstructured": 8361,
      "Ġfarming": 8362,
      "Ġdetection": 8363,
      "Ġharmon": 8364,
      "Ġmashed": 8365,
      "Ġsudden": 8366,
      "Ġsophisticated": 8367,
      "Ġdurability": 8368,
      "Ġreaches": 8369,
      "ifts": 8370,
      "ĠMrs": 8371,
      "Ġshut": 8372,
      "Ġwearing": 8373,
      "Ġotherwise": 8374,
      "Ġdisabilities": 8375,
      "Ġdoors": 8376,
      "Ġcustomizable": 8377,
      "Ġboots": 8378,
      "Ġmotivate": 8379,
      "Ġcarrying": 8380,
      "Ġisolated": 8381,
      "Ġtutorials": 8382,
      "Ġremoving": 8383,
      "Ġtrouble": 8384,
      "Ġvenue": 8385,
      "Ġpremium": 8386,
      "ĠGeneral": 8387,
      "Ġhospitality": 8388,
      "Ġelegant": 8389,
      "Se": 8390,
      "Tips": 8391,
      "ao": 8392,
      "inates": 8393,
      "atter": 8394,
      "Ġpit": 8395,
      "Ġpra": 8396,
      "etime": 8397,
      "Ġproof": 8398,
      "otive": 8399,
      "Ġvow": 8400,
      "Ġresolve": 8401,
      "Ġtrails": 8402,
      "ĠYeah": 8403,
      "Ġwouldn": 8404,
      "Ġcoach": 8405,
      "Ġtransit": 8406,
      "Ġcave": 8407,
      "Ġmetaphors": 8408,
      "ĠButter": 8409,
      "Ġbroccoli": 8410,
      "arency": 8411,
      "Ġlentils": 8412,
      "Read": 8413,
      "purpose": 8414,
      "ship": 8415,
      "service": 8416,
      "yan": 8417,
      "Ġpian": 8418,
      "Ġpitch": 8419,
      "anes": 8420,
      "Ġnost": 8421,
      "Ġapples": 8422,
      "Ġbuzz": 8423,
      "ĠHead": 8424,
      "Ġended": 8425,
      "Ġlightly": 8426,
      "lands": 8427,
      "Ġfunctioning": 8428,
      "Ġmagn": 8429,
      "Ġvisualize": 8430,
      "Ġ+=": 8431,
      "Ġinitially": 8432,
      "ADE": 8433,
      "Ġcooperation": 8434,
      "**": 8435,
      "gs": 8436,
      "nuts": 8437,
      "Ġdied": 8438,
      "ushes": 8439,
      "ĠSweet": 8440,
      "ective": 8441,
      "ĠLine": 8442,
      "Ġapplying": 8443,
      "Ġpositions": 8444,
      "Ġpromise": 8445,
      "Ġdefined": 8446,
      "Ġ80": 8447,
      "Ġcubes": 8448,
      "Like": 8449,
      "Ġbone": 8450,
      "Ġdangers": 8451,
      "Ġhike": 8452,
      "immer": 8453,
      "ĠHom": 8454,
      "ĠBoth": 8455,
      "Ġunfor": 8456,
      "Ġovercoming": 8457,
      "Ġregulate": 8458,
      "Ġ45": 8459,
      "ĠAny": 8460,
      "Ġtelling": 8461,
      "ushi": 8462,
      "Ġtraveled": 8463,
      "Ġaccountability": 8464,
      "Ġpurchases": 8465,
      "Ġhyp": 8466,
      "Ġproteins": 8467,
      "Ġobstacle": 8468,
      "ĠCSV": 8469,
      "ĠRussian": 8470,
      "Ġdisappear": 8471,
      "ĠLearning": 8472,
      "Ġaesthetic": 8473,
      "Ġprominent": 8474,
      "gn": 8475,
      "ober": 8476,
      "Ġow": 8477,
      "Ġmint": 8478,
      "eding": 8479,
      "Ġgest": 8480,
      "ĠCong": 8481,
      "Ġasp": 8482,
      "Ġchances": 8483,
      "Ġhaven": 8484,
      "ĠPress": 8485,
      "Ġlocally": 8486,
      "Ġinfluences": 8487,
      "Ġpaying": 8488,
      "ĠReduc": 8489,
      "Scene": 8490,
      "ĠImproved": 8491,
      "Ġencryption": 8492,
      "Ġaugmented": 8493,
      "35": 8494,
      "bell": 8495,
      "Ġsought": 8496,
      "Ġpest": 8497,
      "Ġloud": 8498,
      "ami": 8499,
      "ĠBig": 8500,
      "osh": 8501,
      "Ġinterior": 8502,
      "Ġdelivered": 8503,
      "Ġpreserving": 8504,
      "Ġmilest": 8505,
      "Ġwinds": 8506,
      "Ġblending": 8507,
      "Ġadvertise": 8508,
      "ĠManager": 8509,
      "ĠComput": 8510,
      "Ġhabitats": 8511,
      "Ġindependence": 8512,
      "Ġoccasionally": 8513,
      "ĠValley": 8514,
      "ĠBali": 8515,
      "Ġsenior": 8516,
      "Ġastronaut": 8517,
      "Ġdownt": 8518,
      "Insert": 8519,
      "New": 8520,
      "noon": 8521,
      "uction": 8522,
      "win": 8523,
      "Ġsamples": 8524,
      "Ġthread": 8525,
      "ĠHost": 8526,
      "Ġsex": 8527,
      "Ġshore": 8528,
      "ĠEnd": 8529,
      "Ġresist": 8530,
      "ĠJackson": 8531,
      "Ġprints": 8532,
      "boards": 8533,
      "Ġimagination": 8534,
      "Ġhorse": 8535,
      "Ġaccommodate": 8536,
      "Date": 8537,
      "Let": 8538,
      "meg": 8539,
      "zing": 8540,
      "Ġfry": 8541,
      "cend": 8542,
      "output": 8543,
      "ograp": 8544,
      "ieval": 8545,
      "Ġrocks": 8546,
      "interest": 8547,
      "Ġrelie": 8548,
      "ĠVictor": 8549,
      "Ġpottery": 8550,
      "airs": 8551,
      "undred": 8552,
      "Ġinvestig": 8553,
      "Ġconsistently": 8554,
      "ĠSoft": 8555,
      "Ġcocoa": 8556,
      "Ġmonthly": 8557,
      "Ġregulatory": 8558,
      "Ġmanufacturer": 8559,
      "ĠSilk": 8560,
      "books": 8561,
      "dis": 8562,
      "fil": 8563,
      "Ġflying": 8564,
      "Ġovers": 8565,
      "Ġinhab": 8566,
      "Ġdivers": 8567,
      "eting": 8568,
      "Ġnest": 8569,
      "ĠLibr": 8570,
      "ĠURL": 8571,
      "Ġrose": 8572,
      "Ġagreed": 8573,
      "Ġcharging": 8574,
      "aterials": 8575,
      "Ġdrinking": 8576,
      "Ġdirections": 8577,
      "culate": 8578,
      "Ġadventures": 8579,
      "Ġstriking": 8580,
      "Ġcycling": 8581,
      "Ġcoordination": 8582,
      "Ġtemplates": 8583,
      "Ġchatbot": 8584,
      "Ġsoda": 8585,
      "EXT": 8586,
      "ĠUnderstand": 8587,
      "Ġoregano": 8588,
      "BM": 8589,
      "During": 8590,
      "gu": 8591,
      "mm": 8592,
      "mates": 8593,
      "Ġtire": 8594,
      "Ġtric": 8595,
      "eras": 8596,
      "itory": 8597,
      "ĠTer": 8598,
      "Ġgathered": 8599,
      "ĠCode": 8600,
      "ifice": 8601,
      "Ġtears": 8602,
      "ĠLong": 8603,
      "Ġspok": 8604,
      "Ġovernight": 8605,
      "Ġflash": 8606,
      "oved": 8607,
      "Ġremark": 8608,
      "Ġpersonalize": 8609,
      "Ġmotor": 8610,
      "Ġprevention": 8611,
      "Ġtrips": 8612,
      "Ġexpanded": 8613,
      "ĠFeb": 8614,
      "ĠRussia": 8615,
      "Ġminimalist": 8616,
      "Ġhouseholds": 8617,
      "ĠEstab": 8618,
      "Ġuncertainty": 8619,
      "Ġacquisition": 8620,
      "Ġsauces": 8621,
      "Su": 8622,
      "leg": 8623,
      "Ġgiant": 8624,
      "urday": 8625,
      "arding": 8626,
      "Ġresort": 8627,
      "ĠNav": 8628,
      "Ġpeak": 8629,
      "Ġrail": 8630,
      "Ġmentions": 8631,
      "ecurity": 8632,
      "Ġcontrols": 8633,
      "Ġtreating": 8634,
      "Ġsinging": 8635,
      "Ġrepresenting": 8636,
      "Ġownership": 8637,
      "Ġadminist": 8638,
      "ellectual": 8639,
      "No": 8640,
      "map": 8641,
      "with": 8642,
      "Ġphen": 8643,
      "Ġmale": 8644,
      "Ġbones": 8645,
      "imm": 8646,
      "Ġstack": 8647,
      "advant": 8648,
      "ifferent": 8649,
      "Ġalthough": 8650,
      "ĠMa": 8651,
      "ĠMental": 8652,
      "ĠPrep": 8653,
      "ĠBudd": 8654,
      "ĠRachel": 8655,
      "Ġproven": 8656,
      "ĠLuc": 8657,
      "ancers": 8658,
      "ĠProfess": 8659,
      "Ġcampus": 8660,
      "ĠAltern": 8661,
      "Ġdefault": 8662,
      "Ġ90": 8663,
      "ĠCommunication": 8664,
      "ĠExplain": 8665,
      "Ġdrama": 8666,
      "Ġestimated": 8667,
      "aware": 8668,
      "fits": 8669,
      "rus": 8670,
      "erge": 8671,
      "ename": 8672,
      "Ġfried": 8673,
      "Ġrum": 8674,
      "ĠEas": 8675,
      "Ġ22": 8676,
      "Ġprocessor": 8677,
      "prise": 8678,
      "Ġrepet": 8679,
      "Ġsymphony": 8680,
      "ĠInstall": 8681,
      "nament": 8682,
      "Ġsteam": 8683,
      "ĠSimon": 8684,
      "Ġtissue": 8685,
      "Ġdiamond": 8686,
      "uum": 8687,
      "Ġwand": 8688,
      "anel": 8689,
      "Ġtoward": 8690,
      "ĠDri": 8691,
      "Ġcarried": 8692,
      "ecause": 8693,
      "ĠEnviron": 8694,
      "Ġfilters": 8695,
      "Ġinfluential": 8696,
      "ĠClub": 8697,
      "Ġhomeless": 8698,
      "Ġabsolutely": 8699,
      "Ġlabels": 8700,
      "ĠStudents": 8701,
      "standing": 8702,
      "Ġsculpture": 8703,
      "Ġtestimonials": 8704,
      "Jess": 8705,
      "function": 8706,
      "erness": 8707,
      "ester": 8708,
      "esome": 8709,
      "itational": 8710,
      "lements": 8711,
      "lywood": 8712,
      "ĠCall": 8713,
      "ĠMel": 8714,
      "ĠBi": 8715,
      "ĠDi": 8716,
      "Ġguides": 8717,
      "Ġmodified": 8718,
      "Ġmathe": 8719,
      "Ġrelaxed": 8720,
      "Ġsilver": 8721,
      "Ġreligion": 8722,
      "Ġdriver": 8723,
      "Ġprotocols": 8724,
      "ĠRevolution": 8725,
      "Ġinvalid": 8726,
      "Sp": 8727,
      "email": 8728,
      "Ġactual": 8729,
      "ĠAdjust": 8730,
      "Ġsurg": 8731,
      "Ġcaramel": 8732,
      "Ġfacts": 8733,
      "Ġelectron": 8734,
      "Ġaccountable": 8735,
      "Ġencouragement": 8736,
      "Ġsalads": 8737,
      "ĠCompanies": 8738,
      "Ġdistributed": 8739,
      "semary": 8740,
      "Ġaccomplishment": 8741,
      "Ġdramatic": 8742,
      "ĠHTML": 8743,
      "Ġinequality": 8744,
      "Ġopinions": 8745,
      "Ġgranola": 8746,
      "ĠFlorida": 8747,
      "Acc": 8748,
      "KE": 8749,
      "Ø§": 8750,
      "Ġble": 8751,
      "olved": 8752,
      "lyn": 8753,
      "âĢ¦": 8754,
      "Ġdisp": 8755,
      "Ġscream": 8756,
      "obal": 8757,
      "Ġprime": 8758,
      "Ġprison": 8759,
      "ĠArch": 8760,
      "Ġunderlying": 8761,
      "ĠSpread": 8762,
      "ĠSmall": 8763,
      "Ġintroduce": 8764,
      "Ġexpanding": 8765,
      "Ġanswers": 8766,
      "Ġcasual": 8767,
      "PL": 8768,
      "Ġdistant": 8769,
      "Ġdairy": 8770,
      "Ġnation": 8771,
      "Ġalien": 8772,
      "ects": 8773,
      "ĠLar": 8774,
      "Ġsoothing": 8775,
      "Ġrosemary": 8776,
      "Ġperce": 8777,
      "Ġpromising": 8778,
      "Ġcontributes": 8779,
      "Ġjoining": 8780,
      "Ġadaptations": 8781,
      "Ġarchitectural": 8782,
      "Ġdamaged": 8783,
      "Ġsprouts": 8784,
      "Ġhabitat": 8785,
      "ĠAustralian": 8786,
      "Ġappointments": 8787,
      "Ġinsecurity": 8788,
      "Ġrefrigerator": 8789,
      "Ġelderly": 8790,
      "Ġfederal": 8791,
      "Ġsectors": 8792,
      "ĠPrior": 8793,
      "Ġfee": 8794,
      "Ġrecording": 8795,
      "Ġnewsp": 8796,
      "Ġperm": 8797,
      "Ġcultivate": 8798,
      "Ġbelief": 8799,
      "Ġconsideration": 8800,
      "Ġsmoked": 8801,
      "Ġreliability": 8802,
      "Ġdimensions": 8803,
      "Ġscreens": 8804,
      "Ġweekend": 8805,
      "ĠHawai": 8806,
      "tuce": 8807,
      "Ġreps": 8808,
      "Ġyouth": 8809,
      "ĠTy": 8810,
      "ĠCath": 8811,
      "Ġarmy": 8812,
      "Ġrecruit": 8813,
      "ĠStone": 8814,
      "Ġregistration": 8815,
      "Ġending": 8816,
      "Ġprofiles": 8817,
      "Ġtestament": 8818,
      "Ġwarning": 8819,
      "Ġfascinated": 8820,
      "Ġprecise": 8821,
      "Ġicons": 8822,
      "Ġlisteners": 8823,
      "Ġreplaced": 8824,
      "ĠNetwork": 8825,
      "Ġcandidates": 8826,
      "trans": 8827,
      "CH": 8828,
      "fly": 8829,
      "worth": 8830,
      "Ġcider": 8831,
      "Ġfir": 8832,
      "Ġmuff": 8833,
      "Ġdie": 8834,
      "eted": 8835,
      "ady": 8836,
      "ocial": 8837,
      "ĠPacific": 8838,
      "Ġgreatly": 8839,
      "Ġblocks": 8840,
      "Ġformation": 8841,
      "Ġpassengers": 8842,
      "Ġheads": 8843,
      "ĠMaya": 8844,
      "Ġexpressing": 8845,
      "uminum": 8846,
      "Ġobserved": 8847,
      "Ġaccomplishments": 8848,
      "Ġseamlessly": 8849,
      "Ġtransparency": 8850,
      "Ġremarkable": 8851,
      "Ġstuck": 8852,
      "ĠCR": 8853,
      "riel": 8854,
      "Ġplayful": 8855,
      "Ġjourn": 8856,
      "ĠClimate": 8857,
      "Ġdipl": 8858,
      "Ġdecorations": 8859,
      "ĠParty": 8860,
      "Ġrustling": 8861,
      "ĠTurk": 8862,
      "ĠSometimes": 8863,
      "ĠExercise": 8864,
      "Ġextremely": 8865,
      "Each": 8866,
      "['": 8867,
      "card": 8868,
      "talk": 8869,
      "Ġcoding": 8870,
      "anas": 8871,
      "ership": 8872,
      "stick": 8873,
      "ĠSou": 8874,
      "ĠFund": 8875,
      "ĠGive": 8876,
      "apos": 8877,
      "Ġsole": 8878,
      "Ġexperiments": 8879,
      "Ġemotionally": 8880,
      "Ġburning": 8881,
      "Ġattempts": 8882,
      "AME": 8883,
      "Ġhaunted": 8884,
      "piece": 8885,
      "SD": 8886,
      "Val": 8887,
      "market": 8888,
      "Ġmail": 8889,
      "Ġreference": 8890,
      "ocate": 8891,
      "ĠMore": 8892,
      "Ġindoor": 8893,
      "Ġdiscussed": 8894,
      "Ġreminders": 8895,
      "Ġexistence": 8896,
      "ĠDisplay": 8897,
      "ĠGerman": 8898,
      "Ġmerch": 8899,
      "Ġstopped": 8900,
      "Fe": 8901,
      "tight": 8902,
      "ano": 8903,
      "Ġbact": 8904,
      "Ġbanks": 8905,
      "Ġinn": 8906,
      "Ġhal": 8907,
      "Ġhole": 8908,
      "Ġyarn": 8909,
      "Ġabstract": 8910,
      "ĠEconom": 8911,
      "tein": 8912,
      "Ġpoly": 8913,
      "Ġafternoon": 8914,
      "ĠAdding": 8915,
      "Ġimmense": 8916,
      "Ġstatistical": 8917,
      "println": 8918,
      "ĠAttend": 8919,
      "Ġdragon": 8920,
      "Ġtransparent": 8921,
      "Ġpursuing": 8922,
      "AG": 8923,
      "oes": 8924,
      "yon": 8925,
      "Ġeerie": 8926,
      "idity": 8927,
      "cending": 8928,
      "anta": 8929,
      "Ġclay": 8930,
      "ĠHeart": 8931,
      "Ġ400": 8932,
      "Ġhandles": 8933,
      "Ġdelay": 8934,
      "Ġdelight": 8935,
      "ĠArts": 8936,
      "ĠAtl": 8937,
      "Ġexecutive": 8938,
      "Ġbottles": 8939,
      "ĠDetermine": 8940,
      "Ġarrangements": 8941,
      "Ġhobbies": 8942,
      "Ġadopting": 8943,
      "Ġleveraging": 8944,
      "Bl": 8945,
      "De": 8946,
      "EE": 8947,
      "Reg": 8948,
      "uate": 8949,
      "Ġsister": 8950,
      "Ġfram": 8951,
      "iffs": 8952,
      "unting": 8953,
      "mentation": 8954,
      "resent": 8955,
      "Ġspat": 8956,
      "Ġspeeds": 8957,
      "rices": 8958,
      "ĠKnow": 8959,
      "Ġracing": 8960,
      "argeting": 8961,
      "ycle": 8962,
      "ropical": 8963,
      "ĊĠĠĠĠĠĠĠĠĠĠĠĠĠĠĠĠĠĠĠ": 8964,
      "Ġsupernatural": 8965,
      "ĠFeed": 8966,
      "Ġrecycled": 8967,
      "Ġfixed": 8968,
      "Ġhesitate": 8969,
      "Ġenthusiasts": 8970,
      "ĠThomas": 8971,
      "ĠOctober": 8972,
      "Ġtroublesh": 8973,
      "SQL": 8974,
      "Ġtack": 8975,
      "Ġfolk": 8976,
      "Ġbalsamic": 8977,
      "Ġstages": 8978,
      "ĠBir": 8979,
      "ĠLos": 8980,
      "eping": 8981,
      "ĠNon": 8982,
      "Ġevoke": 8983,
      "Ġremem": 8984,
      "Ġassets": 8985,
      "ĠWhich": 8986,
      "Ġessence": 8987,
      "Ġtypography": 8988,
      "Ġinputs": 8989,
      "Ġprotected": 8990,
      "Ġjoined": 8991,
      "Ġtreats": 8992,
      "Ġbreaths": 8993,
      "afe": 8994,
      "Ġcollections": 8995,
      "Ġancest": 8996,
      "Ġharness": 8997,
      "Ġtightly": 8998,
      "ĠLearn": 8999,
      "Ġadversity": 9000,
      "%.": 9001,
      "Le": 9002,
      "ydr": 9003,
      "Ġton": 9004,
      "inar": 9005,
      "Ġstitch": 9006,
      "ipes": 9007,
      "Ġmemoir": 9008,
      "Ġmodes": 9009,
      "Ġmetab": 9010,
      "Ġemployers": 9011,
      "Ġsmoke": 9012,
      "Ġlegis": 9013,
      "apple": 9014,
      "Ġcameras": 9015,
      "Ġbanking": 9016,
      "Ġwealthy": 9017,
      "Ġratio": 9018,
      "Ġecosystems": 9019,
      "Ġconfiguration": 9020,
      "Ġteenagers": 9021,
      "Ġfrosting": 9022,
      "havior": 9023,
      "Ġauthors": 9024,
      "depth": 9025,
      "Ġmathemat": 9026,
      "LS": 9027,
      "bn": 9028,
      "anqu": 9029,
      "Ġtoken": 9030,
      "Ġreform": 9031,
      "oline": 9032,
      "Ġbean": 9033,
      "agus": 9034,
      "ĠWild": 9035,
      "Ġkale": 9036,
      "ĠGre": 9037,
      "ĠUtil": 9038,
      "Ġtries": 9039,
      "Ġimproves": 9040,
      "Ġacts": 9041,
      "archy": 9042,
      "Ġpracticed": 9043,
      "Ġentr": 9044,
      "Ġendurance": 9045,
      "Ġlistened": 9046,
      "bersecurity": 9047,
      "Ġhummus": 9048,
      "Ġreflected": 9049,
      "Ġpairing": 9050,
      "Ġsquash": 9051,
      "Ġcandles": 9052,
      "iosity": 9053,
      "Ġprecious": 9054,
      "Ġpulled": 9055,
      "Ġaccommodations": 9056,
      "ĠExplore": 9057,
      "Ġmythology": 9058,
      "ĠROI": 9059,
      "ĠFrancisco": 9060,
      "24": 9061,
      "Every": 9062,
      "HE": 9063,
      "ki": 9064,
      "mind": 9065,
      "uous": 9066,
      "Ġtent": 9067,
      "Ġtie": 9068,
      "Ġpic": 9069,
      "Ġtoast": 9070,
      "Ġbio": 9071,
      "Ġhundred": 9072,
      "ĠTex": 9073,
      "Ġstaring": 9074,
      "uns": 9075,
      "Ġrig": 9076,
      "ĠWord": 9077,
      "ĠThai": 9078,
      "ĠFre": 9079,
      "Ġclues": 9080,
      "Ġmedieval": 9081,
      "ĠString": 9082,
      "Ġretire": 9083,
      "Ġdonation": 9084,
      "Ġcombines": 9085,
      "Ġsafely": 9086,
      "Ġnavigating": 9087,
      "ĠPhys": 9088,
      "Ġsubscription": 9089,
      "Ġloans": 9090,
      "Ġclaim": 9091,
      "Ġsmells": 9092,
      "ĠAngeles": 9093,
      "Ġmutual": 9094,
      "Ġvirus": 9095,
      "Ġneutral": 9096,
[...]
