{
  "version": "1.0",
  "truncation": null,
  "padding": null,
  "added_tokens": [
    {
      "id": 0,
      "content": "<pad>",
      "single_word": false,
      "lstrip": false,
      "rstrip": false,
      "normalized": false,
      "special": true
    },
    {
      "id": 1,
      "content": "<unk>",
      "single_word": false,
      "lstrip": false,
      "rstrip": false,
      "normalized": false,
      "special": true
    },
    {
      "id": 2,
      "content": "<bos>",
      "single_word": false,
      "lstrip": false,
      "rstrip": false,
      "normalized": false,
      "special": true
    },
    {
      "id": 3,
      "content": "<eos>",
      "single_word": false,
      "lstrip": false,
      "rstrip": false,
      "normalized": false,
      "special": true
    }
  ],
  "normalizer": null,
  "pre_tokenizer": {
    "type": "ByteLevel",
    "add_prefix_space": false,
    "trim_offsets": true,
    "use_regex": true
  },
  "post_processor": null,
  "decoder": null,
  "model": {
    "type": "BPE",
    "dropout": null,
    "unk_token": "<unk>",
    "continuing_subword_prefix": null,
    "end_of_word_suffix": null,
    "fuse_unk": false,
    "byte_fallback": false,
    "ignore_merges": false,
    "vocab": {
      "<pad>": 0,
      "<unk>": 1,
      "<bos>": 2,
      "<eos>": 3,
      "!": 4,
      "\"": 5,
      "#": 6,
      "$": 7,
      "%": 8,
      "&": 9,
      "'": 10,
      "(": 11,
      ")": 12,
      "*": 13,
      "+": 14,
      ",": 15,
      "-": 16,
      ".": 17,
      "/": 18,
      "0": 19,
      "1": 20,
      "2": 21,
      "3": 22,
      "4": 23,
      "5": 24,
      "6": 25,
      "7": 26,
      "8": 27,
      "9": 28,
      ":": 29,
      ";": 30,
      "<": 31,
      "=": 32,
      ">": 33,
      "?": 34,
      "@": 35,
      "A": 36,
      "B": 37,
      "C": 38,
      "D": 39,
      "E": 40,
      "F": 41,
      "G": 42,
      "H": 43,
      "I": 44,
      "J": 45,
      "K": 46,
      "L": 47,
      "M": 48,
      "N": 49,
      "O": 50,
      "P": 51,
      "Q": 52,
      "R": 53,
      "S": 54,
      "T": 55,
      "U": 56,
      "V": 57,
      "W": 58,
      "X": 59,
      "Y": 60,
      "Z": 61,
      "[": 62,
      "\\": 63,
      "]": 64,
      "^": 65,
      "_": 66,
      "`": 67,
      "a": 68,
      "b": 69,
      "c": 70,
      "d": 71,
      "e": 72,
      "f": 73,
      "g": 74,
      "h": 75,
      "i": 76,
      "j": 77,
      "k": 78,
      "l": 79,
      "m": 80,
      "n": 81,
      "o": 82,
      "p": 83,
      "q": 84,
      "r": 85,
      "s": 86,
      "t": 87,
      "u": 88,
      "v": 89,
      "w": 90,
      "x": 91,
      "y": 92,
      "z": 93,
      "{": 94,
      "|": 95,
      "}": 96,
      "~": 97,
      "¡": 98,
      "¢": 99,
      "£": 100,
      "¤": 101,
      "¥": 102,
      "¦": 103,
      "§": 104,
      "¨": 105,
      "©": 106,
      "ª": 107,
      "«": 108,
      "¬": 109,
      "®": 110,
      "¯": 111,
      "°": 112,
      "±": 113,
      "²": 114,
      "³": 115,
      "´": 116,
      "µ": 117,
      "¶": 118,
      "·": 119,
      "¸": 120,
      "¹": 121,
      "º": 122,
      "»": 123,
      "¼": 124,
      "½": 125,
      "¾": 126,
      "¿": 127,
      "Â": 128,
      "Ã": 129,
      "Ä": 130,
      "Å": 131,
      "Æ": 132,
      "Ç": 133,
      "È": 134,
      "É": 135,
      "Ê": 136,
      "Ë": 137,
      "Ì": 138,
      "Í": 139,
      "Î": 140,
      "Ï": 141,
      "Ð": 142,
      "Ñ": 143,
      "Ò": 144,
      "Ó": 145,
      "Ô": 146,
      "Õ": 147,
      "Ö": 148,
      "×": 149,
      "Ø": 150,
      "Ù": 151,
      "Ú": 152,
      "Û": 153,
      "Ý": 154,
      "Þ": 155,
      "ß": 156,
      "à": 157,
      "á": 158,
      "â": 159,
      "ã": 160,
      "ä": 161,
      "å": 162,
      "æ": 163,
      "ç": 164,
      "è": 165,
      "é": 166,
      "ê": 167,
      "ë": 168,
      "ì": 169,
      "í": 170,
      "ï": 171,
      "ð": 172,
      "ă": 173,
      "ĉ": 174,
      "Ċ": 175,
      "Ġ": 176,
      "ġ": 177,
      "Ģ": 178,
      "ģ": 179,
      "Ĥ": 180,
      "ĥ": 181,
      "Ħ": 182,
      "ħ": 183,
      "Ĩ": 184,
      "ĩ": 185,
      "Ī": 186,
      "ī": 187,
      "Ĭ": 188,
      "ĭ": 189,
      "Į": 190,
      "į": 191,
      "İ": 192,
      "ı": 193,
      "Ĳ": 194,
      "ĳ": 195,
      "Ĵ": 196,
      "ĵ": 197,
      "Ķ": 198,
      "ķ": 199,
      "ĸ": 200,
      "Ĺ": 201,
      "ĺ": 202,
      "Ļ": 203,
      "ļ": 204,
      "Ľ": 205,
      "ľ": 206,
      "Ŀ": 207,
      "ŀ": 208,
      "Ł": 209,
      "ł": 210,
      "Ń": 211,
      "Ġt": 212,
      "Ġa": 213,
      "he": 214,
      "in": 215,
      "er": 216,
      "on": 217,
      "re": 218,
      "Ġthe": 219,
      "Ġs": 220,
      "nd": 221,
      "at": 222,
      "or": 223,
      "Ġc": 224,
      "es": 225,
      "en": 226,
      "Ġw": 227,
      "Ġo": 228,
      "an": 229,
      "it": 230,
      "is": 231,
      "al": 232,
      "ing": 233,
      "ed": 234,
      "Ġf": 235,
      "Ġp": 236,
      "Ġand": 237,
      "ou": 238,
      "Ġin": 239,
      "Ġb": 240,
      "ar": 241,
      "Ġof": 242,
      "Ġm": 243,
      "Ġto": 244,
      "ic": 245,
      "as": 246,
      "ion": 247,
      "le": 248,
      "Ġd": 249,
      "ro": 250,
      "Ġh": 251,
      "ent": 252,
      "us": 253,
      "il": 254,
      "Ġe": 255,
      "om": 256,
      "Ġre": 257,
      "ct": 258,
      "Ġth": 259,
      "ve": 260,
      "ĠT": 261,
      "Ġl": 262,
      "ĠS": 263,
      "et": 264,
      "am": 265,
      "ĠC": 266,
      "ol": 267,
      "el": 268,
      "Ġg": 269,
      "ch": 270,
      "ĠA": 271,
      "Ġn": 272,
      "id": 273,
      "im": 274,
      "ation": 275,
      "ers": 276,
      "ra": 277,
      "Ġfor": 278,
      "ce": 279,
      "ut": 280,
      "ow": 281,
      "ur": 282,
      "ig": 283,
      "ĠI": 284,
      "st": 285,
      "Ġy": 286,
      "ir": 287,
      "Ġon": 288,
      "Ġst": 289,
      "Ġhe": 290,
      "ot": 291,
      "ly": 292,
      "ad": 293,
      "ĠĠ": 294,
      "ith": 295,
      "Ġbe": 296,
      "Ġis": 297,
      "Ġyou": 298,
      "Ġthat": 299,
      "ay": 300,
      "ist": 301,
      "Ġwith": 302,
      "ĠM": 303,
      "Ġpro": 304,
      "Ġ1": 305,
      "ul": 306,
      "ver": 307,
      "un": 308,
      "Ġas": 309,
      "ĠB": 310,
      "ĠThe": 311,
      "if": 312,
      "ĠP": 313,
      "ĠH": 314,
      "ter": 315,
      "se": 316,
      "ag": 317,
      "Ġal": 318,
      "Ġwas": 319,
      "ant": 320,
      "Ġcon": 321,
      "em": 322,
      "ess": 323,
      "Ġan": 324,
      "Ġ(": 325,
      "iv": 326,
      "ate": 327,
      "Ġor": 328,
      "th": 329,
      "Ġit": 330,
      "Ġwh": 331,
      "ure": 332,
      "Ġex": 333,
      "'s": 334,
      "op": 335,
      "ore": 336,
      "ab": 337,
      "est": 338,
      "ak": 339,
      "Ġcom": 340,
      "her": 341,
      "ies": 342,
      "ĠR": 343,
      "um": 344,
      "ac": 345,
      "Ġv": 346,
      "Ġ2": 347,
      "ĠD": 348,
      "pp": 349,
      "ity": 350,
      "ive": 351,
      "Ġare": 352,
      "od": 353,
      "ĠW": 354,
      "oc": 355,
      "ld": 356,
      "ĠF": 357,
      "Ġcan": 358,
      "and": 359,
      "ĠL": 360,
      "ill": 361,
      "Ġsu": 362,
      "Ġde": 363,
      "ain": 364,
      "ri": 365,
      "ment": 366,
      "pe": 367,
      "qu": 368,
      "ud": 369,
      "ort": 370,
      "Ġch": 371,
      "Ġse": 372,
      "igh": 373,
      "Ġus": 374,
      "ĠG": 375,
      "ew": 376,
      "ĠE": 377,
      "Ġby": 378,
      "all": 379,
      "rom": 380,
      "Ġat": 381,
      "os": 382,
      "ass": 383,
      "ust": 384,
      "âĢ": 385,
      "art": 386,
      "ĠN": 387,
      "ial": 388,
      "rou": 389,
      "res": 390,
      "Ġfrom": 391,
      "Ġpl": 392,
      "Ġtheir": 393,
      "Ġle": 394,
      "Ġen": 395,
      "Ġsh": 396,
      "ions": 397,
      "ect": 398,
      "ĠJ": 399,
      "ome": 400,
      "Ġyour": 401,
      "our": 402,
      "pt": 403,
      "Ġad": 404,
      "ip": 405,
      "ide": 406,
      "Ġha": 407,
      "Ġ20": 408,
      "iz": 409,
      "ĠO": 410,
      "Ġr": 411,
      "Ġ19": 412,
      "Ġim": 413,
      "ge": 414,
      "ould": 415,
      "Ġk": 416,
      "ard": 417,
      "ight": 418,
      "Ġwor": 419,
      "og": 420,
      "du": 421,
      "ĠĠĠĠ": 422,
      "pl": 423,
      "fer": 424,
      "per": 425,
      "Ġinc": 426,
      "ine": 427,
      "Ġte": 428,
      "ast": 429,
      "out": 430,
      "gh": 431,
      "Ġ\"": 432,
      "nt": 433,
      "Ġab": 434,
      "ell": 435,
      "Ġu": 436,
      "ĠU": 437,
      "ia": 438,
      "are": 439,
      "ff": 440,
      "ated": 441,
      "ich": 442,
      "Ġher": 443,
      "ok": 444,
      "Ġmore": 445,
      "Ġcomp": 446,
      "ign": 447,
      "ere": 448,
      "act": 449,
      "ĠTh": 450,
      "ber": 451,
      "so": 452,
      "Ġhave": 453,
      "age": 454,
      "orm": 455,
      "ost": 456,
      "ian": 457,
      "cc": 458,
      "ther": 459,
      "ack": 460,
      "ces": 461,
      "ry": 462,
      "ical": 463,
      "ations": 464,
      "ru": 465,
      "ong": 466,
      "ear": 467,
      "ĠIn": 468,
      "Ġhis": 469,
      "av": 470,
      "te": 471,
      "Ġimp": 472,
      "able": 473,
      "ĠK": 474,
      "Ġun": 475,
      "istant": 476,
      "The": 477,
      "ence": 478,
      "Ġalso": 479,
      "Ġwe": 480,
      "ie": 481,
      "ake": 482,
      "ult": 483,
      "Ġcont": 484,
      "ance": 485,
      "ach": 486,
      "Ġme": 487,
      "user": 488,
      "Ġhas": 489,
      "ous": 490,
      "assistant": 491,
      "Ġcl": 492,
      "ary": 493,
      "Ġj": 494,
      "ice": 495,
      "reat": 496,
      "ire": 497,
      "form": 498,
      "Ġhad": 499,
      "Ġthey": 500,
      "ind": 501,
      "ik": 502,
      "ish": 503,
      "Ġne": 504,
      "ame": 505,
      "vel": 506,
      "ks": 507,
      "Ġres": 508,
      "ition": 509,
      "Ġint": 510,
      "Ġwhich": 511,
      "Ġsome": 512,
      "ents": 513,
      "ail": 514,
      "ue": 515,
      "ĠSt": 516,
      "ap": 517,
      "Ġar": 518,
      "Ġhel": 519,
      "Ġapp": 520,
      "Ġnot": 521,
      "ans": 522,
      "Ġhelp": 523,
      "Ġtra": 524,
      "low": 525,
      "ime": 526,
      "âĢĵ": 527,
      "Ġwhe": 528,
      "ord": 529,
      "ction": 530,
      "Ġprov": 531,
      "Ġwere": 532,
      "lud": 533,
      "Ġother": 534,
      "ace": 535,
      "Ġbut": 536,
      "ĠCh": 537,
      "ook": 538,
      "ub": 539,
      "rit": 540,
      "ep": 541,
      "ib": 542,
      "ase": 543,
      "ood": 544,
      "ĠIt": 545,
      "00": 546,
      "ĠY": 547,
      "Ġthis": 548,
      "Ġman": 549,
      "ress": 550,
      "Ġsp": 551,
      "ĠV": 552,
      "Ġabout": 553,
      "ory": 554,
      "ally": 555,
      "ark": 556,
      "Ġout": 557,
      "mer": 558,
      "ang": 559,
      "Ġthem": 560,
      "Ġfe": 561,
      "ater": 562,
      "Ġadd": 563,
      "ĠThis": 564,
      "ile": 565,
      "Ġinclud": 566,
      "Ġshe": 567,
      "ors": 568,
      "Ġrec": 569,
      "Ġdis": 570,
      "Ġwho": 571,
      "ric": 572,
      "Ġ-": 573,
      "Ġsc": 574,
      "Ġhow": 575,
      "ound": 576,
      "ount": 577,
      "Ġup": 578,
      "Ġspe": 579,
      "ific": 580,
      "les": 581,
      "Ġdes": 582,
      "Ġwork": 583,
      "erv": 584,
      "Ġev": 585,
      "als": 586,
      "amp": 587,
      "one": 588,
      "19": 589,
      "Ġpe": 590,
      "Ġwill": 591,
      "Ġover": 592,
      "tern": 593,
      "Ġro": 594,
      "ings": 595,
      "Ġcomm": 596,
      "Ġits": 597,
      "ov": 598,
      "Ġpart": 599,
      "own": 600,
      "Ġper": 601,
      "ild": 602,
      "Ġsuch": 603,
      "ite": 604,
      "rough": 605,
      "ĠHe": 606,
      "ike": 607,
      "ens": 608,
      "end": 609,
      "Ġem": 610,
      "ĠĊ": 611,
      "Ġkn": 612,
      "ck": 613,
      "Ġnew": 614,
      "oy": 615,
      "Ġpre": 616,
      "Ġplay": 617,
      "over": 618,
      "ond": 619,
      "Ġcre": 620,
      "Ġ3": 621,
      "lic": 622,
      "Ġcol": 623,
      "ph": 624,
      "Ġqu": 625,
      "ĠCan": 626,
      "Ġinto": 627,
      "Ġtime": 628,
      "Ġuse": 629,
      "ful": 630,
      "ram": 631,
      "ne": 632,
      "Ġind": 633,
      "ts": 634,
      "ove": 635,
      "ities": 636,
      "ree": 637,
      "Ġacc": 638,
      "Ġso": 639,
      "Ġprodu": 640,
      "Ġall": 641,
      "Ġone": 642,
      "Ġ201": 643,
      "get": 644,
      "round": 645,
      "wn": 646,
      "ose": 647,
      "hed": 648,
      "Ġany": 649,
      "Ġ|": 650,
      "In": 651,
      "ences": 652,
      "we": 653,
      "ates": 654,
      "Ġbeen": 655,
      "Ġdif": 656,
      "irst": 657,
      "ople": 658,
      "ased": 659,
      "ons": 660,
      "ob": 661,
      "ious": 662,
      "uring": 663,
      "ays": 664,
      "Ġspec": 665,
      "olog": 666,
      "Ġinter": 667,
      "ature": 668,
      "Ġeff": 669,
      "ng": 670,
      "Ġthrough": 671,
      "ick": 672,
      "gan": 673,
      "Ġmy": 674,
      "ĠĠĠ": 675,
      "ience": 676,
      "ll": 677,
      "Ġlike": 678,
      "hip": 679,
      "ely": 680,
      "Ġtr": 681,
      "ning": 682,
      "Ġexper": 683,
      "ced": 684,
      "ife": 685,
      "Ġag": 686,
      "xt": 687,
      "Ġwould": 688,
      "ade": 689,
      "lect": 690,
      "ĠUn": 691,
      "Ġsa": 692,
      "Ġmed": 693,
      "Ġsy": 694,
      "old": 695,
      "alth": 696,
      "Ġdo": 697,
      "Ġcould": 698,
      "Ġ||": 699,
      "pport": 700,
      "ft": 701,
      "velop": 702,
      "âĢĻ": 703,
      "ating": 704,
      "chn": 705,
      "ert": 706,
      "Ġrel": 707,
      "ments": 708,
      "Ġmake": 709,
      "),": 710,
      "ract": 711,
      "Ġoff": 712,
      "ool": 713,
      "ational": 714,
      "bs": 715,
      "Ġ200": 716,
      "Ġund": 717,
      "ics": 718,
      "Ġbec": 719,
      "Ġprovide": 720,
      "ular": 721,
      "Ġfirst": 722,
      "fter": 723,
      "aking": 724,
      "Ġact": 725,
      "Ġra": 726,
      "Ġfl": 727,
      "ough": 728,
      "very": 729,
      "Ġbet": 730,
      "int": 731,
      "Ġserv": 732,
      "ily": 733,
      "Ġthere": 734,
      "gg": 735,
      "oth": 736,
      "ath": 737,
      "ĠRe": 738,
      "Ġtw": 739,
      "Ġstud": 740,
      "Ġsm": 741,
      "Ġprog": 742,
      "Ġdiffer": 743,
      "Ġused": 744,
      "Ġyear": 745,
      "Ġpeople": 746,
      "Ġ4": 747,
      "erson": 748,
      "Ġthese": 749,
      "Ġloc": 750,
      "Ġcons": 751,
      "ative": 752,
      "ual": 753,
      "arch": 754,
      "iss": 755,
      "erm": 756,
      "Ġinv": 757,
      "ject": 758,
      "Ġbu": 759,
      "red": 760,
      "ward": 761,
      "port": 762,
      "up": 763,
      "ility": 764,
      "elf": 765,
      "ices": 766,
      "ef": 767,
      "Ġstr": 768,
      "iet": 769,
      "Ġdet": 770,
      "ower": 771,
      "20": 772,
      "Ġdevelop": 773,
      "ustom": 774,
      "Ġtechn": 775,
      "ited": 776,
      "Ġwhen": 777,
      "ness": 778,
      "Ġinform": 779,
      "Ġam": 780,
      "land": 781,
      "Ġgo": 782,
      "hes": 783,
      "urn": 784,
      "Ġart": 785,
      "its": 786,
      "rib": 787,
      "gy": 788,
      "cess": 789,
      "Ġmus": 790,
      "Ġneed": 791,
      "Ġcommun": 792,
      "ize": 793,
      "Ġsoc": 794,
      "Ġwell": 795,
      "ĠAs": 796,
      "ivers": 797,
      "omm": 798,
      "Ġreg": 799,
      "ys": 800,
      "ting": 801,
      "iqu": 802,
      "ĠAd": 803,
      "orn": 804,
      "Ġour": 805,
      "ener": 806,
      "Ġhealth": 807,
      "ĠâĢĵ": 808,
      "Ġif": 809,
      "Ġ18": 810,
      "Ġ5": 811,
      "Ġsign": 812,
      "Ġpr": 813,
      "Ġpos": 814,
      "row": 815,
      "Ġph": 816,
      "Ġmay": 817,
      "any": 818,
      "ise": 819,
      "meric": 820,
      "ient": 821,
      "Ġcustom": 822,
      "Ġrem": 823,
      "ĠShe": 824,
      "Ġhigh": 825,
      "ange": 826,
      "stem": 827,
      "ĠĠĠĠĠĠĠĠ": 828,
      "ural": 829,
      "ata": 830,
      "Ġdifferent": 831,
      "Ġeach": 832,
      "ized": 833,
      "Re": 834,
      "ident": 835,
      "Ġbl": 836,
      "Ġsk": 837,
      "Ġset": 838,
      "ied": 839,
      ").": 840,
      "Ġwhere": 841,
      "'t": 842,
      "Ġke": 843,
      "Ġprogram": 844,
      "Ġinst": 845,
      "Ġvar": 846,
      "Ġteam": 847,
      "Ġtwo": 848,
      "ĠThey": 849,
      "ren": 850,
      "Ġinformation": 851,
      "Ġtrans": 852,
      "Ġsec": 853,
      "iness": 854,
      "eng": 855,
      "Ġpol": 856,
      "hen": 857,
      "arket": 858,
      "Ġpo": 859,
      "ĠAr": 860,
      "Ġdesign": 861,
      "Ġincluding": 862,
      "ĠAl": 863,
      "Ġatt": 864,
      "ork": 865,
      "ont": 866,
      "Ġlife": 867,
      "Ġlead": 868,
      "Ġfil": 869,
      "Ġusing": 870,
      "Ġmem": 871,
      "ferences": 872,
      "Ġdec": 873,
      "dition": 874,
      "ĠSe": 875,
      "fore": 876,
      "ix": 877,
      "ollow": 878,
      "Ġfin": 879,
      "Ġperson": 880,
      "ement": 881,
      "ms": 882,
      "ink": 883,
      "Ġgreat": 884,
      "chool": 885,
      "eth": 886,
      "iew": 887,
      "Ġmade": 888,
      "uc": 889,
      "Ġproduct": 890,
      "Ġsur": 891,
      "Ġmost": 892,
      "ten": 893,
      "ines": 894,
      "io": 895,
      "Ġsupport": 896,
      "aw": 897,
      "Ġfam": 898,
      "Ġcreate": 899,
      "Ġshould": 900,
      "Ġret": 901,
      "enc": 902,
      "anc": 903,
      "Ġthan": 904,
      "Ġwhat": 905,
      "Ġworld": 906,
      "Ġno": 907,
      "Ġnum": 908,
      "ional": 909,
      "Ġhim": 910,
      "Ġback": 911,
      "Ġfound": 912,
      "roup": 913,
      "ict": 914,
      "Ġmin": 915,
      "ures": 916,
      "Ġeffect": 917,
      "oot": 918,
      "Ġass": 919,
      "Ġchar": 920,
      "Ġeng": 921,
      "Ġduring": 922,
      "Ġimpro": 923,
      "Ġco": 924,
      "Ġprovid": 925,
      "Ġbus": 926,
      "Ġway": 927,
      "Ġafter": 928,
      "aus": 929,
      "led": 930,
      "Ġwhile": 931,
      "arn": 932,
      "Ġmany": 933,
      "ever": 934,
      "ah": 935,
      "Ġac": 936,
      "pect": 937,
      "ists": 938,
      "ives": 939,
      "ues": 940,
      "ins": 941,
      "ality": 942,
      "ween": 943,
      "Ġsystem": 944,
      "ee": 945,
      "ology": 946,
      "ars": 947,
      "Ġsocial": 948,
      "Ġvis": 949,
      "Ġstart": 950,
      "Ġed": 951,
      "Ġredu": 952,
      "ential": 953,
      "ason": 954,
      "ples": 955,
      "ible": 956,
      "ier": 957,
      "az": 958,
      "Ġprom": 959,
      "ruct": 960,
      "Ġgu": 961,
      "merican": 962,
      "ĠHow": 963,
      "Ġfollow": 964,
      "Ġbetween": 965,
      "ock": 966,
      "Ġcreat": 967,
      "ug": 968,
      "Ġwrit": 969,
      "Ġ=": 970,
      "rand": 971,
      "Ġmarket": 972,
      "Ġopt": 973,
      "Ġins": 974,
      "Ġbr": 975,
      "Ġexam": 976,
      "Ġbefore": 977,
      "ĠDe": 978,
      "Ġent": 979,
      "ergy": 980,
      "Ġmod": 981,
      "let": 982,
      "ĠPro": 983,
      "ax": 984,
      "ĠHere": 985,
      "Ġfeel": 986,
      "Ġimpact": 987,
      "oh": 988,
      "ank": 989,
      "riend": 990,
      "Ġown": 991,
      "Ġshow": 992,
      "Ġpres": 993,
      "Ġinf": 994,
      "der": 995,
      "Ġdisc": 996,
      "Ġ199": 997,
      "Ġonly": 998,
      "Ġend": 999,
      "iel": 1000,
      "Ġexp": 1001,
      "Ġform": 1002,
      "raph": 1003,
      "iving": 1004,
      "ball": 1005,
      "Ġche": 1006,
      "other": 1007,
      "Ġfind": 1008,
      "ash": 1009,
      "Ġincre": 1010,
      "Ġwater": 1011,
      "ĠYou": 1012,
      "Ġjust": 1013,
      "au": 1014,
      "Ġexpl": 1015,
      "Ġpub": 1016,
      "ĠLe": 1017,
      "References": 1018,
      "Ġlong": 1019,
      "ivid": 1020,
      "ale": 1021,
      "Ġpop": 1022,
      "ĠNew": 1023,
      "Ġevery": 1024,
      "ccess": 1025,
      "Ġbusiness": 1026,
      "lement": 1027,
      "Ġve": 1028,
      "Ġfeature": 1029,
      "air": 1030,
      "Ġadv": 1031,
      "ĠSh": 1032,
      "ral": 1033,
      "til": 1034,
      "line": 1035,
      "Ġval": 1036,
      "Ġbuild": 1037,
      "Ġknow": 1038,
      "ense": 1039,
      "ages": 1040,
      "Ġthen": 1041,
      "Ġav": 1042,
      "ames": 1043,
      "ss": 1044,
      "Ġdata": 1045,
      "Ġgroup": 1046,
      "ants": 1047,
      "Ġmusic": 1048,
      "Ġsub": 1049,
      "arm": 1050,
      "ished": 1051,
      "put": 1052,
      "ĠWh": 1053,
      "Ġfun": 1054,
      "ĊĠĠĠ": 1055,
      "Ġdist": 1056,
      "Ġspecific": 1057,
      "ling": 1058,
      "ĠFor": 1059,
      "Ġ6": 1060,
      "Ġsmall": 1061,
      "ĠAn": 1062,
      "Ġpot": 1063,
      "Ġallow": 1064,
      "Ġyears": 1065,
      "Ġenergy": 1066,
      "Ġcar": 1067,
      "Ġpract": 1068,
      "Ġcult": 1069,
      "ner": 1070,
      "Ġprocess": 1071,
      "Ġorgan": 1072,
      "Ġagain": 1073,
      "Ġexamples": 1074,
      "Ġuntil": 1075,
      "ved": 1076,
      "Ġcent": 1077,
      "Ġty": 1078,
      "bers": 1079,
      "oun": 1080,
      "pr": 1081,
      "way": 1082,
      "ision": 1083,
      "Ġcur": 1084,
      "ider": 1085,
      "ven": 1086,
      "Ġeven": 1087,
      "Ġperform": 1088,
      ".\"": 1089,
      "Ġpower": 1090,
      "Ġget": 1091,
      "Ġsee": 1092,
      "ample": 1093,
      "ury": 1094,
      "Ġaut": 1095,
      "olut": 1096,
      "Ġser": 1097,
      "Ġinclude": 1098,
      "ather": 1099,
      "Ġcare": 1100,
      "und": 1101,
      "por": 1102,
      "Ġmain": 1103,
      "ips": 1104,
      "ty": 1105,
      "Ġsignific": 1106,
      "Ġsim": 1107,
      "ertain": 1108,
      "Ġfew": 1109,
      "Ġdetail": 1110,
      "Ġgener": 1111,
      "iety": 1112,
      "Ġlar": 1113,
      "con": 1114,
      "Ġcount": 1115,
      "Ġchall": 1116,
      "Ġhand": 1117,
      "Ġsuccess": 1118,
      "ouse": 1119,
      "Ġbeing": 1120,
      "Ġrequ": 1121,
      "ique": 1122,
      "els": 1123,
      "Ġment": 1124,
      "Ġaround": 1125,
      "ern": 1126,
      "Ġconc": 1127,
      "ources": 1128,
      "ble": 1129,
      "ield": 1130,
      "Ġhist": 1131,
      "atch": 1132,
      "man": 1133,
      "Ġcle": 1134,
      "Ġlook": 1135,
      "Ġexperience": 1136,
      "itive": 1137,
      "Ġreal": 1138,
      "Ġrele": 1139,
      "Ġmon": 1140,
      "Ġboth": 1141,
      "erst": 1142,
      "Ġpartic": 1143,
      "Ġmedia": 1144,
      "Ġlist": 1145,
      "Ġoffer": 1146,
      "iron": 1147,
      "ĠWe": 1148,
      "lish": 1149,
      "``": 1150,
      "Ġunder": 1151,
      "Ġdef": 1152,
      "ave": 1153,
      "Ġimport": 1154,
      "irect": 1155,
      "ĠâĢ": 1156,
      "Ġbre": 1157,
      "Ġsal": 1158,
      "ĠSc": 1159,
      "akes": 1160,
      "ĠAmerican": 1161,
      "Ġday": 1162,
      "Ġprof": 1163,
      "Ġsever": 1164,
      "Ġeas": 1165,
      "ĠInd": 1166,
      "apt": 1167,
      "ribut": 1168,
      "Ġplan": 1169,
      "lex": 1170,
      "Ġtake": 1171,
      "Ġest": 1172,
      "Ġstre": 1173,
      "ocus": 1174,
      "overn": 1175,
      "ients": 1176,
      "ined": 1177,
      "pen": 1178,
      "iversity": 1179,
      "ired": 1180,
      "outh": 1181,
      "ĠCol": 1182,
      "Ġread": 1183,
      "Ġpass": 1184,
      "Ġcontin": 1185,
      "tle": 1186,
      "cept": 1187,
      "vent": 1188,
      "ify": 1189,
      "Ġimprove": 1190,
      "Ġear": 1191,
      "Ġmanag": 1192,
      "Ġindust": 1193,
      "ving": 1194,
      "Ġfamily": 1195,
      "Ġbel": 1196,
      "Ġdown": 1197,
      "ex": 1198,
      "ism": 1199,
      "ining": 1200,
      "self": 1201,
      "Ġresult": 1202,
      "Ġcharact": 1203,
      "com": 1204,
      "uss": 1205,
      "ince": 1206,
      "ode": 1207,
      "Ġexample": 1208,
      "Ġcall": 1209,
      "ton": 1210,
      "alk": 1211,
      "aj": 1212,
      "Ġpromot": 1213,
      "Ġens": 1214,
      "Ġdel": 1215,
      "Ġproject": 1216,
      "Ġsignificant": 1217,
      "Ġaccess": 1218,
      "ted": 1219,
      "nect": 1220,
      "Ġbro": 1221,
      "Ġ198": 1222,
      "Ġwant": 1223,
      "Ġdr": 1224,
      "Ġappro": 1225,
      "Ġnumber": 1226,
      "reen": 1227,
      "Ġgl": 1228,
      "ization": 1229,
      "viron": 1230,
      "ĠZ": 1231,
      "ĊĠĠĠĠ": 1232,
      "Ġrese": 1233,
      "Ġgrow": 1234,
      "Ġconf": 1235,
      "ĊĠ": 1236,
      "Ġclass": 1237,
      "Ġ7": 1238,
      "Ġgr": 1239,
      "Ġmaking": 1240,
      "cent": 1241,
      "ina": 1242,
      "Ã©": 1243,
      "ploy": 1244,
      "ills": 1245,
      "Ġben": 1246,
      "ember": 1247,
      "Ġresp": 1248,
      "ĠThese": 1249,
      "Ġcr": 1250,
      "Ġrep": 1251,
      "ĠCl": 1252,
      "Ġfood": 1253,
      "ves": 1254,
      "view": 1255,
      "Ġpersonal": 1256,
      "ĠBe": 1257,
      "Ġindivid": 1258,
      "Ġref": 1259,
      "Ġinterest": 1260,
      "Ġfocus": 1261,
      "ital": 1262,
      "ĠHowever": 1263,
      "Ġstory": 1264,
      "Ġknown": 1265,
      "Ġpur": 1266,
      "Ġchild": 1267,
      "ĠUse": 1268,
      "ared": 1269,
      "Ġschool": 1270,
      "uch": 1271,
      "Ġplace": 1272,
      "Ġseveral": 1273,
      "to": 1274,
      "ross": 1275,
      "orth": 1276,
      "Ġactiv": 1277,
      "Ġtop": 1278,
      "Ġsound": 1279,
      "ggest": 1280,
      "be": 1281,
      "ries": 1282,
      "Ġ$": 1283,
      "ery": 1284,
      "ights": 1285,
      "Ġpat": 1286,
      "Ġseason": 1287,
      "Ġbo": 1288,
      "ause": 1289,
      "erstand": 1290,
      "ĠSp": 1291,
      "yle": 1292,
      "Ġtext": 1293,
      "Ġsuggest": 1294,
      "iven": 1295,
      "ohn": 1296,
      "angu": 1297,
      "aterial": 1298,
      "imes": 1299,
      "Ġob": 1300,
      "Ġwebs": 1301,
      "ograph": 1302,
      "Ġlocal": 1303,
      "Ġcompany": 1304,
      "Ġgra": 1305,
      "ived": 1306,
      "wards": 1307,
      "ript": 1308,
      "Ġ10": 1309,
      "Ġfoot": 1310,
      "Ġenviron": 1311,
      "aut": 1312,
      "lu": 1313,
      "Ġide": 1314,
      "Ġbest": 1315,
      "Ġchalleng": 1316,
      "ets": 1317,
      "Ġbook": 1318,
      "Ġaud": 1319,
      "Ġair": 1320,
      "ĠUnited": 1321,
      "Ġrest": 1322,
      "Ġ8": 1323,
      "18": 1324,
      "aly": 1325,
      "ron": 1326,
      "ull": 1327,
      "ways": 1328,
      "cial": 1329,
      "gether": 1330,
      "Ġtogether": 1331,
      "Ġuser": 1332,
      "Ex": 1333,
      "Ġcity": 1334,
      "Ġaddition": 1335,
      "Ġaff": 1336,
      "Ġprot": 1337,
      "Ġcamp": 1338,
      "ically": 1339,
      "ann": 1340,
      "mp": 1341,
      "ĠSure": 1342,
      "ware": 1343,
      "Ġmet": 1344,
      "Ġfriend": 1345,
      "ually": 1346,
      "ency": 1347,
      "ternal": 1348,
      "ĠEng": 1349,
      "Ġoften": 1350,
      "omp": 1351,
      "Ġfac": 1352,
      "Ġdid": 1353,
      "As": 1354,
      "ĠPl": 1355,
      "ĠOn": 1356,
      "Ġlevel": 1357,
      "Ġlearn": 1358,
      "by": 1359,
      "Ġess": 1360,
      "ths": 1361,
      "ĠFr": 1362,
      "ĠMar": 1363,
      "Ġext": 1364,
      "Ġident": 1365,
      "ody": 1366,
      "ording": 1367,
      "ĠUniversity": 1368,
      "inks": 1369,
      "Ġhere": 1370,
      "Ġhome": 1371,
      "Ġenc": 1372,
      "Ġcontent": 1373,
      "Ġplayers": 1374,
      "Ġdevelopment": 1375,
      "Ġcour": 1376,
      "itions": 1377,
      "Ġoper": 1378,
      "Ġmaterial": 1379,
      "Ġbenef": 1380,
      "rent": 1381,
      "Ġunderstand": 1382,
      "Ġdirect": 1383,
      "Ġgood": 1384,
      "ke": 1385,
      "Ġthose": 1386,
      "de": 1387,
      "Ġsom": 1388,
      "mber": 1389,
      "Ġconst": 1390,
      "pend": 1391,
      "ps": 1392,
      "000": 1393,
      "Ġbased": 1394,
      "orpor": 1395,
      "ese": 1396,
      "Ġtry": 1397,
      "Ġopen": 1398,
      "ium": 1399,
      "Ġ197": 1400,
      "--": 1401,
      "Ġ[": 1402,
      "Ġthree": 1403,
      "tend": 1404,
      "Ġsecond": 1405,
      "ories": 1406,
      "Ġdesc": 1407,
      "Ġsing": 1408,
      "Ġhum": 1409,
      "Ġelect": 1410,
      "Ġunique": 1411,
      "Ġbir": 1412,
      "Ġconnect": 1413,
      "Ġeduc": 1414,
      "ĠIs": 1415,
      "Ġtool": 1416,
      "ability": 1417,
      "ior": 1418,
      "ĠCon": 1419,
      "Ġrun": 1420,
      "lished": 1421,
      "Ġfilm": 1422,
      "ĠQ": 1423,
      "orld": 1424,
      "ger": 1425,
      "Ġ`": 1426,
      "ried": 1427,
      "Ġenvironment": 1428,
      "Ġtechnology": 1429,
      "Ġ9": 1430,
      "ope": 1431,
      "avor": 1432,
      "Ġdem": 1433,
      "read": 1434,
      "Ġlove": 1435,
      "Ġele": 1436,
      "rol": 1437,
      "Ġstrate": 1438,
      "back": 1439,
      "oss": 1440,
      "ĠEn": 1441,
      "Ġcook": 1442,
      "ables": 1443,
      "abor": 1444,
      "Ġinvol": 1445,
      "Ġkeep": 1446,
      "Ġcommunity": 1447,
      "Ġeffective": 1448,
      "Ġpublic": 1449,
      "Ġgame": 1450,
      "Ġdep": 1451,
      "Ġpotential": 1452,
      "Ġwebsite": 1453,
      "ats": 1454,
      "elt": 1455,
      "ley": 1456,
      "Ġlight": 1457,
      "day": 1458,
      "conom": 1459,
      "Ġresearch": 1460,
      "iam": 1461,
      "ommend": 1462,
      "Ġgovern": 1463,
      "ĠJohn": 1464,
      "10": 1465,
      "Ġagainst": 1466,
      "cl": 1467,
      "ĠAnd": 1468,
      "Ġthough": 1469,
      "anguage": 1470,
      "Ġchang": 1471,
      "Ġindustry": 1472,
      "ze": 1473,
      "Th": 1474,
      "br": 1475,
      "enn": 1476,
      "ray": 1477,
      "uals": 1478,
      "Ġpain": 1479,
      "Ġfeatures": 1480,
      "Ġlet": 1481,
      "Ġbecame": 1482,
      "Âł": 1483,
      "ney": 1484,
      "chie": 1485,
      "Ġland": 1486,
      "Ġengag": 1487,
      "Ġvarious": 1488,
      "Ġarea": 1489,
      "hips": 1490,
      "Ġreturn": 1491,
      "ush": 1492,
      "Ġmov": 1493,
      "cing": 1494,
      "Ġtips": 1495,
      "ately": 1496,
      "oci": 1497,
      "Ġstudents": 1498,
      "Ġcompet": 1499,
      "Ġbeh": 1500,
      "inal": 1501,
      "Ġestab": 1502,
      "Ġemploy": 1503,
      "ple": 1504,
      "Ġtyp": 1505,
      "Ġensure": 1506,
      "Ġrece": 1507,
      "hor": 1508,
      "ĠEx": 1509,
      "Ġiss": 1510,
      "Ġtradition": 1511,
      "ication": 1512,
      "ains": 1513,
      "Ġ196": 1514,
      "Ġcost": 1515,
      "Ġrelations": 1516,
      "ĠBy": 1517,
      "Ġreduce": 1518,
      "Ġstill": 1519,
      "Ġ&": 1520,
      "Ġmar": 1521,
      "Ġrecommend": 1522,
      "ene": 1523,
      "ober": 1524,
      "Ġbrand": 1525,
      "Ġinvest": 1526,
      "Ġlinks": 1527,
      "atural": 1528,
      "lease": 1529,
      "ĠTe": 1530,
      "Ġfact": 1531,
      "ĠIf": 1532,
      "Ġ'": 1533,
      "Ġname": 1534,
      "itut": 1535,
      "rodu": 1536,
      "oura": 1537,
      "Ġgive": 1538,
      "Ġstep": 1539,
      "Ġlit": 1540,
      "Ġservices": 1541,
      "mb": 1542,
      "Ġsense": 1543,
      "less": 1544,
      "Ġsure": 1545,
      "ane": 1546,
      "ĠMay": 1547,
      "Ġsame": 1548,
      "ases": 1549,
      "erc": 1550,
      "Ġcho": 1551,
      "Ġsum": 1552,
      "atform": 1553,
      "son": 1554,
      "Ġposs": 1555,
      "Ġalways": 1556,
      "Ġreport": 1557,
      "Ġcustomer": 1558,
      "Ġevent": 1559,
      "Ġwin": 1560,
      "Ġprofess": 1561,
      "Ġhead": 1562,
      "iver": 1563,
      "ĠBut": 1564,
      "Ġfollowing": 1565,
      "Ġnow": 1566,
      "vers": 1567,
      "ĠStates": 1568,
      "Ġfunction": 1569,
      "Ġcustomers": 1570,
      "uro": 1571,
      "Ġsit": 1572,
      "Ġconsider": 1573,
      "rict": 1574,
      "Ġemot": 1575,
      "Ġminut": 1576,
      "Ġimportant": 1577,
      "inc": 1578,
      "Ġvide": 1579,
      "gin": 1580,
      "rap": 1581,
      "Ġkey": 1582,
      "ination": 1583,
      "Ġmuch": 1584,
      "omen": 1585,
      "Ġbetter": 1586,
      "Ġproducts": 1587,
      "ĠComm": 1588,
      "200": 1589,
      "tain": 1590,
      "Ġhistory": 1591,
      "work": 1592,
      "oon": 1593,
      "Ġinflu": 1594,
      "\",": 1595,
      "Ġdetails": 1596,
      "21": 1597,
      "Ġexperi": 1598,
      "bum": 1599,
      "ĠCount": 1600,
      "Ġmarketing": 1601,
      "sc": 1602,
      "me": 1603,
      "Ġavail": 1604,
      "Ġachie": 1605,
      "Ġstand": 1606,
      "orts": 1607,
      "ĠPh": 1608,
      "isc": 1609,
      "ĠBl": 1610,
      "af": 1611,
      "Ġplatform": 1612,
      "ĠThere": 1613,
      "une": 1614,
      "Ġlater": 1615,
      "Ġsaid": 1616,
      "ĊĠĠĠĠĠĠĠĠ": 1617,
      "nam": 1618,
      "the": 1619,
      "ertainly": 1620,
      "Ġworks": 1621,
      "Ġmembers": 1622,
      "ask": 1623,
      "Ġsong": 1624,
      "ĠAt": 1625,
      "Ġpost": 1626,
      "ds": 1627,
      "ring": 1628,
      "ai": 1629,
      "Ġbegan": 1630,
      "Ġpopular": 1631,
      "ague": 1632,
      "ĠYes": 1633,
      "resent": 1634,
      "Ġtest": 1635,
      "ustain": 1636,
      "ator": 1637,
      "Ġ{": 1638,
      "arning": 1639,
      "Ġsoft": 1640,
      "Ġrole": 1641,
      "Ġvers": 1642,
      ");": 1643,
      "Ġmil": 1644,
      "Ġtre": 1645,
      "\".": 1646,
      "Ġchallenges": 1647,
      "External": 1648,
      "Ġsl": 1649,
      "Ġnever": 1650,
      "Ġdra": 1651,
      "oid": 1652,
      "Ġfore": 1653,
      "Ġothers": 1654,
      "Ġjour": 1655,
      "arget": 1656,
      "aign": 1657,
      "Ġtem": 1658,
      "Ġmind": 1659,
      "ape": 1660,
      "ott": 1661,
      "Ġmove": 1662,
      "ĊĠĠĠĠĠĠĠ": 1663,
      "Ġlarge": 1664,
      "ians": 1665,
      "Ġdon": 1666,
      "ipp": 1667,
      "Ġel": 1668,
      "augh": 1669,
      "ĠEm": 1670,
      "Ġimplement": 1671,
      "Ġexc": 1672,
      "Ġ15": 1673,
      "Ġpar": 1674,
      "Ġself": 1675,
      "rist": 1676,
      "Ġrecord": 1677,
      "ternational": 1678,
      "Ġfootball": 1679,
      "Ġstyle": 1680,
      "resh": 1681,
      "oad": 1682,
      "aster": 1683,
      "Ġ17": 1684,
      "ances": 1685,
      "ec": 1686,
      "Ġphys": 1687,
      "Ġmat": 1688,
      "ission": 1689,
      "Ġtrack": 1690,
      "Ġpolit": 1691,
      "bo": 1692,
      "Ġeconom": 1693,
      "ival": 1694,
      "Ġequ": 1695,
      "Ġfour": 1696,
      "ĠWorld": 1697,
      "illed": 1698,
      "Ġright": 1699,
      "ulation": 1700,
      "Ġstat": 1701,
      "Ġmental": 1702,
      "Ġpresent": 1703,
      "app": 1704,
      "ĠCar": 1705,
      "Ġalong": 1706,
      "Ġwithin": 1707,
      "ration": 1708,
      "Ġresources": 1709,
      "Ġcharacter": 1710,
      "Ġable": 1711,
      "Ġlanguage": 1712,
      "Ġwithout": 1713,
      "Ġ/": 1714,
      "Ġservice": 1715,
      "Ġevents": 1716,
      "err": 1717,
      "ĠOr": 1718,
      "ored": 1719,
      "Ġbecome": 1720,
      "Ġrange": 1721,
      "Ġusers": 1722,
      "ering": 1723,
      "pportun": 1724,
      "Ġpast": 1725,
      "Ġbelie": 1726,
      "ek": 1727,
      "joy": 1728,
      "Ġcap": 1729,
      "Ġcomb": 1730,
      "Ġcurrent": 1731,
      "ething": 1732,
      "Ġthink": 1733,
      "ĠAust": 1734,
      "Ġminutes": 1735,
      "ĠNational": 1736,
      "Ġseries": 1737,
      "Ġaudience": 1738,
      "ued": 1739,
      "lege": 1740,
      "'m": 1741,
      "ret": 1742,
      "Ġstudy": 1743,
      "oman": 1744,
      "ilities": 1745,
      "Ġtraditional": 1746,
      "Ġcup": 1747,
      "Ġskills": 1748,
      "Ġonline": 1749,
      "ours": 1750,
      "ĠCertainly": 1751,
      "olution": 1752,
      "Ġopportun": 1753,
      "Ch": 1754,
      "verall": 1755,
      "Ġalbum": 1756,
      "med": 1757,
      "urther": 1758,
      "osed": 1759,
      "ards": 1760,
      "Ġ0": 1761,
      "ethod": 1762,
      "ged": 1763,
      "ditionally": 1764,
      "Ġ.": 1765,
      "Ġclear": 1766,
      "Ġoil": 1767,
      "Ġmult": 1768,
      "Ġlast": 1769,
      "Ġproper": 1770,
      "ems": 1771,
      "ĠMus": 1772,
      "Ġorig": 1773,
      "Ġcoll": 1774,
      "Ġline": 1775,
      "Ġsustain": 1776,
      "idd": 1777,
      "Ġindividuals": 1778,
      "Ġareas": 1779,
      "Ġocc": 1780,
      "Ġhapp": 1781,
      "ogn": 1782,
      "ead": 1783,
      "Ġchange": 1784,
      "Ġnatural": 1785,
      "Ġanother": 1786,
      "Ġcampaign": 1787,
      "par": 1788,
      "Ġmot": 1789,
      "Ġcontrol": 1790,
      "ised": 1791,
      "'re": 1792,
      "ising": 1793,
      "Ġsol": 1794,
      "ones": 1795,
      "rop": 1796,
      "Ġoptions": 1797,
      "Ġfelt": 1798,
      "Ġways": 1799,
      "Ġsomething": 1800,
      "Ġcal": 1801,
      "Ġgovernment": 1802,
      "Ġspecial": 1803,
      "Ġ195": 1804,
      "Ġtell": 1805,
      "ĠBrit": 1806,
      "Ġleft": 1807,
      "Ġoffers": 1808,
      "ffic": 1809,
      "oring": 1810,
      "Ġincrease": 1811,
      "Ġveget": 1812,
      "Ġavailable": 1813,
      "ony": 1814,
      "Ġlearning": 1815,
      "Ġplayed": 1816,
      "Ġtarget": 1817,
      "Ġdeath": 1818,
      "ato": 1819,
      "aces": 1820,
      "Ġstate": 1821,
      "Ġpositive": 1822,
      "ĠSouth": 1823,
      "opp": 1824,
      "Ġnear": 1825,
      "Ġstrong": 1826,
      "Ġbenefits": 1827,
      "Ġturn": 1828,
      "ajor": 1829,
      "Ġ#": 1830,
      "Ġbeaut": 1831,
      "Ġdev": 1832,
      "pper": 1833,
      "ĠSchool": 1834,
      "Ġlim": 1835,
      "Ġfield": 1836,
      "ĠWar": 1837,
      "Ġold": 1838,
      "Ġtown": 1839,
      "Ġchildren": 1840,
      "Ġbuilding": 1841,
      "sh": 1842,
      "Ġbody": 1843,
      "St": 1844,
      "Ġcrit": 1845,
      "osp": 1846,
      "Ġfree": 1847,
      "Ġperformance": 1848,
      "Ġpie": 1849,
      "Ġ194": 1850,
      "ĠCent": 1851,
      "Ġfr": 1852,
      "thing": 1853,
      "redients": 1854,
      "Ġcontribut": 1855,
      "Ġmen": 1856,
      "iques": 1857,
      "uture": 1858,
      "ees": 1859,
      "asing": 1860,
      "Ġes": 1861,
      "ides": 1862,
      "Ġheart": 1863,
      "ister": 1864,
      "ument": 1865,
      "side": 1866,
      "my": 1867,
      "Ġearly": 1868,
      "Ġreally": 1869,
      "âĢĿ": 1870,
      "ified": 1871,
      "Ġgoals": 1872,
      "anies": 1873,
      "ĠInst": 1874,
      "cer": 1875,
      "Ġann": 1876,
      "ĠGerm": 1877,
      "Ġview": 1878,
      "rain": 1879,
      "ructure": 1880,
      "Ġsuccessful": 1881,
      "Ġquest": 1882,
      "oint": 1883,
      "Ġcome": 1884,
      "ote": 1885,
      "Ġmanagement": 1886,
      "ĠPr": 1887,
      "Ġapplic": 1888,
      "Ġprovides": 1889,
      "ipe": 1890,
      "ruction": 1891,
      "ners": 1892,
      "imate": 1893,
      "atic": 1894,
      "iting": 1895,
      "ilt": 1896,
      "Ġdoes": 1897,
      "Ġmix": 1898,
      "ĠCounty": 1899,
      "ently": 1900,
      "amed": 1901,
      "usion": 1902,
      "ĠPol": 1903,
      "Ġneeds": 1904,
      "Ġknew": 1905,
      "17": 1906,
      "Ġren": 1907,
      "Ġfriends": 1908,
      "ots": 1909,
      "Ġcalled": 1910,
      "fect": 1911,
      "Ġinit": 1912,
      "```": 1913,
      "ey": 1914,
      "gar": 1915,
      "Ġ16": 1916,
      "Ġmess": 1917,
      "ges": 1918,
      "Ġstru": 1919,
      "rew": 1920,
      "Ġlow": 1921,
      "Ġ12": 1922,
      "ĠAdditionally": 1923,
      "Ġside": 1924,
      "lection": 1925,
      "ĠAdd": 1926,
      "Ġmethod": 1927,
      "Ġbreak": 1928,
      "Ġeasy": 1929,
      "Ġwon": 1930,
      "Ġmeas": 1931,
      "ĠRes": 1932,
      "Ġnon": 1933,
      "ster": 1934,
      "anu": 1935,
      "Ġgrowth": 1936,
      "ĠPar": 1937,
      "eb": 1938,
      "iment": 1939,
      "min": 1940,
      "Ġjob": 1941,
      "Ġstarted": 1942,
      "Ġshort": 1943,
      "Ġanim": 1944,
      "oph": 1945,
      "Ġcreating": 1946,
      "Ġsw": 1947,
      "Ġactivities": 1948,
      "ird": 1949,
      "ampions": 1950,
      "Ġless": 1951,
      "Ġoffic": 1952,
      "ches": 1953,
      "Ġstrateg": 1954,
      "Ġcareer": 1955,
      "Ġstay": 1956,
      "Ġworking": 1957,
      "Ġtraining": 1958,
      "Ġtoo": 1959,
      "ĠDo": 1960,
      "ĠEuro": 1961,
      "Ġmust": 1962,
      "Ġcommon": 1963,
      "15": 1964,
      "Ġmom": 1965,
      "ivity": 1966,
      "izing": 1967,
      "Ġterm": 1968,
      "Ġbecause": 1969,
      "Ġinte": 1970,
      "Ġorder": 1971,
      "ĠBr": 1972,
      "=\"": 1973,
      "ĠYork": 1974,
      "Ġparticular": 1975,
      "Ġhouse": 1976,
      "ĠTo": 1977,
      "Ġfre": 1978,
      "Ġfeed": 1979,
      "Ġmag": 1980,
      "Ġsince": 1981,
      "Ġquality": 1982,
      "Ġtook": 1983,
      "Ġtechniques": 1984,
      "aves": 1985,
      "ming": 1986,
      "ĠComp": 1987,
      "Ġfuture": 1988,
      "ilar": 1989,
      "ĠGe": 1990,
      "ĠAf": 1991,
      "199": 1992,
      "ography": 1993,
      "duct": 1994,
      "Ġla": 1995,
      "Ġeducation": 1996,
      "yl": 1997,
      "ĠCal": 1998,
      "Ġsearch": 1999,
      "Ġparticip": 2000,
      "Ġincorpor": 2001,
      "Ġtour": 2002,
      "fact": 2003,
      "Ġprotect": 2004,
      "Ġris": 2005,
      "Ġinput": 2006,
      "play": 2007,
      "Ġwind": 2008,
      "yc": 2009,
      "illion": 2010,
      "Ġdue": 2011,
      "Ġmeet": 2012,
      "Ġcolor": 2013,
      "Ġtravel": 2014,
      "Ġtimes": 2015,
      "adem": 2016,
      "Ġbusinesses": 2017,
      "ĠSoc": 2018,
      "rench": 2019,
      "att": 2020,
      "hern": 2021,
      "lev": 2022,
      "ints": 2023,
      "ĠTr": 2024,
      "Ġcourse": 2025,
      "Ġcor": 2026,
      "urch": 2027,
      "Ġsupp": 2028,
      "aur": 2029,
      "ĠOne": 2030,
      "Ġnext": 2031,
      "ream": 2032,
      "Ġinteract": 2033,
      "ĠHer": 2034,
      "Ġnut": 2035,
      "ource": 2036,
      "Ġcover": 2037,
      "aper": 2038,
      "ression": 2039,
      "Ġtri": 2040,
      "ĠJu": 2041,
      "apan": 2042,
      "sp": 2043,
      "Ġplease": 2044,
      "Ġsystems": 2045,
      "uce": 2046,
      "ana": 2047,
      "Ġtru": 2048,
      "Ġdiff": 2049,
      "Ġadditional": 2050,
      "iod": 2051,
      "Ġencoura": 2052,
      "oney": 2053,
      "Ġacross": 2054,
      "ĠGu": 2055,
      "Ġstore": 2056,
      "ĠAll": 2057,
      "Ġessential": 2058,
      "Ġsn": 2059,
      "Ġled": 2060,
      "Ġtools": 2061,
      "Ġcompanies": 2062,
      "val": 2063,
      "ĠAustral": 2064,
      "ention": 2065,
      "umb": 2066,
      "here": 2067,
      "__": 2068,
      "Ġvery": 2069,
      "Ġstrugg": 2070,
      "Ġhelps": 2071,
      "Ġrepresent": 2072,
      "Ġincludes": 2073,
      "ĠAm": 2074,
      "weet": 2075,
      "On": 2076,
      "Ġnet": 2077,
      "ibility": 2078,
      "ugust": 2079,
      "Ġenjoy": 2080,
      "Ġdeep": 2081,
      "Ġanaly": 2082,
      "Ġquick": 2083,
      "co": 2084,
      "Ġhard": 2085,
      "ground": 2086,
      "ained": 2087,
      "ched": 2088,
      "Ġprograms": 2089,
      "ĠâĢĶ": 2090,
      "Ġing": 2091,
      "gr": 2092,
      "Ġpri": 2093,
      "Ġeffic": 2094,
      "ops": 2095,
      "Ġleg": 2096,
      "ĠNorth": 2097,
      "Ġpow": 2098,
      "Ġyoung": 2099,
      "arr": 2100,
      "ĠWhen": 2101,
      "Ġsaf": 2102,
      "Ġneg": 2103,
      "ĠSu": 2104,
      "ĠMed": 2105,
      "ĠWith": 2106,
      "Ġexerc": 2107,
      "Ġwriting": 2108,
      "Ġvideo": 2109,
      "ĠCity": 2110,
      "Ġaffect": 2111,
      "Ġshare": 2112,
      "Ġhuman": 2113,
      "icult": 2114,
      "urity": 2115,
      "Ġamong": 2116,
      "Ġaddress": 2117,
      "Ġregular": 2118,
      "It": 2119,
      "Ġmajor": 2120,
      "ublic": 2121,
      "ĠEl": 2122,
      "Ġrou": 2123,
      "ibr": 2124,
      "Ġauthor": 2125,
      "hel": 2126,
      "Ġey": 2127,
      "Ġphot": 2128,
      "Ġidentify": 2129,
      "ae": 2130,
      "oor": 2131,
      "Ġfresh": 2132,
      "Ġcase": 2133,
      "Ġculture": 2134,
      "12": 2135,
      "Ġdeterm": 2136,
      "Ġappear": 2137,
      "Ġcomplex": 2138,
      "Ġhelped": 2139,
      "ĠReg": 2140,
      "ĠâĢľ": 2141,
      "ĠThat": 2142,
      "Ġtowards": 2143,
      "Ġcultural": 2144,
      "Ġdig": 2145,
      "Ġsat": 2146,
      "Ġhope": 2147,
      "Ġvol": 2148,
      "ĠCo": 2149,
      "based": 2150,
      "born": 2151,
      "ĠChrist": 2152,
      "Ġvalue": 2153,
      "ĠBritish": 2154,
      "Ġflavor": 2155,
      "Ġface": 2156,
      "irt": 2157,
      "ĠEurope": 2158,
      ",\"": 2159,
      "col": 2160,
      "ĠMan": 2161,
      "Ġthroughout": 2162,
      "itation": 2163,
      "ĠSy": 2164,
      "Ġmaterials": 2165,
      "Ġlocated": 2166,
      "Ġcountry": 2167,
      "of": 2168,
      "Ġtreat": 2169,
      "Ġport": 2170,
      "Ġdiscover": 2171,
      "ĠWrit": 2172,
      "Ġdescrib": 2173,
      "Ġproviding": 2174,
      "ma": 2175,
      "Ġprevent": 2176,
      "ptember": 2177,
      "Ġspace": 2178,
      "Ġrespons": 2179,
      "Ġoverall": 2180,
      "aring": 2181,
      "Ġsens": 2182,
      "Ġtransport": 2183,
      "..": 2184,
      "Ġpractices": 2185,
      "Ġproble": 2186,
      "hers": 2187,
      "Ġhold": 2188,
      "Ġemail": 2189,
      "ĠWhat": 2190,
      "ung": 2191,
      "ditions": 2192,
      "Ġassoci": 2193,
      "fort": 2194,
      "Ġheld": 2195,
      "ĠAugust": 2196,
      "Ġphysical": 2197,
      "Ġproduction": 2198,
      "Ġmaintain": 2199,
      "light": 2200,
      "Ġperiod": 2201,
      "Ġdifficult": 2202,
      "22": 2203,
      "vert": 2204,
      "ĠSte": 2205,
      "sel": 2206,
      "ctober": 2207,
      "Ġformer": 2208,
      "urg": 2209,
      "anuary": 2210,
      "Ġhig": 2211,
      "Ġstress": 2212,
      "Ġleading": 2213,
      "oms": 2214,
      "ĠBro": 2215,
      "ĠPart": 2216,
      "Ġcollabor": 2217,
      "Ġtypes": 2218,
      "Ġreleased": 2219,
      "Ġrenew": 2220,
      "Ġgames": 2221,
      "Ġmight": 2222,
      "Ġclean": 2223,
      "ĠMarch": 2224,
      "alys": 2225,
      "Ġvariety": 2226,
      "ĠHis": 2227,
      "ĠTra": 2228,
      "eum": 2229,
      "ales": 2230,
      "Ġreview": 2231,
      "Ġarr": 2232,
      "Ġfund": 2233,
      "Ġ193": 2234,
      "ĠJapan": 2235,
      "irc": 2236,
      "Ġalign": 2237,
      "eal": 2238,
      "Ġdesigned": 2239,
      "|-": 2240,
      "enced": 2241,
      "ift": 2242,
      "Ġ13": 2243,
      "Ġaway": 2244,
      "Ġobject": 2245,
      "ĠEd": 2246,
      "16": 2247,
      "ered": 2248,
      "Ġrecipe": 2249,
      "ological": 2250,
      "Ġreach": 2251,
      "Ġissues": 2252,
      "pril": 2253,
      "ison": 2254,
      "ĠSome": 2255,
      "Ġarch": 2256,
      "Ġpolic": 2257,
      "ĠWill": 2258,
      "Ġperfect": 2259,
      "uck": 2260,
      "ĠAfter": 2261,
      "ĠUS": 2262,
      "Ġrequire": 2263,
      "Ġoptim": 2264,
      "Ġchanges": 2265,
      "Ġachieve": 2266,
      "Ġpromote": 2267,
      "Ġflow": 2268,
      "ĊĊ": 2269,
      "Ġstrategies": 2270,
      "ole": 2271,
      "Ġgiven": 2272,
      "Ġpossible": 2273,
      "Overall": 2274,
      "anced": 2275,
      "Ġexplore": 2276,
      "ele": 2277,
      "istic": 2278,
      "Ġrefer": 2279,
      "ĠSer": 2280,
      "Ġwomen": 2281,
      "ĠAfric": 2282,
      "Ġinsp": 2283,
      "Ġjo": 2284,
      "Ġcreated": 2285,
      "ĠSeptember": 2286,
      "ĠRep": 2287,
      "Ġversion": 2288,
      "ises": 2289,
      "Ġsoftware": 2290,
      "ĠSw": 2291,
      "Ġbas": 2292,
      "Ġpoint": 2293,
      "Ġcapt": 2294,
      "ows": 2295,
      "Ġtype": 2296,
      "ino": 2297,
      "Ġgen": 2298,
      "Ġlaw": 2299,
      "ĠBar": 2300,
      "Ġfinal": 2301,
      "Ġfurther": 2302,
      "Ġcommunication": 2303,
      "ĠInc": 2304,
      "ham": 2305,
      "tt": 2306,
      "Ġhot": 2307,
      "care": 2308,
      "itor": 2309,
      "ĠDes": 2310,
      "ovember": 2311,
      "ĠHigh": 2312,
      "arent": 2313,
      "Ġtit": 2314,
      "vious": 2315,
      "alysis": 2316,
      "Ġlik": 2317,
      "raft": 2318,
      "ĠJanuary": 2319,
      "Ġlevels": 2320,
      "oyal": 2321,
      "ĠCanad": 2322,
      "Ġpers": 2323,
      "ĠJune": 2324,
      "Ġ30": 2325,
      "Ġprofessional": 2326,
      "ĠPe": 2327,
      "Ġhealthy": 2328,
      "Ġsauce": 2329,
      "ump": 2330,
      "Ġexperiences": 2331,
      "ators": 2332,
      "Ġfilms": 2333,
      "Ġnamed": 2334,
      "ĠOctober": 2335,
      "Ġconsum": 2336,
      "Ġinn": 2337,
      "Ġthings": 2338,
      "ĠMin": 2339,
      "Ġupd": 2340,
      "rast": 2341,
      "Ġmember": 2342,
      "time": 2343,
      "Ġnight": 2344,
      "Ġbal": 2345,
      "ĠFrench": 2346,
      "face": 2347,
      "Ġmodern": 2348,
      "Ġcomplet": 2349,
      "iple": 2350,
      "Ġcaus": 2351,
      "aff": 2352,
      "idence": 2353,
      "Ġelements": 2354,
      "ters": 2355,
      "idge": 2356,
      "Ġcheck": 2357,
      "Ġideas": 2358,
      "Ġlay": 2359,
      "):": 2360,
      "Ġz": 2361,
      "Ġimm": 2362,
      "mon": 2363,
      "Ġ14": 2364,
      "Ġingredients": 2365,
      "Ġplayer": 2366,
      "inally": 2367,
      "umn": 2368,
      "Ġaccording": 2369,
      "Ġfull": 2370,
      "Ġage": 2371,
      "Ġred": 2372,
      "An": 2373,
      "Ġdays": 2374,
      "Ġtaking": 2375,
      "Ġlive": 2376,
      "Ġallows": 2377,
      "cast": 2378,
      "Ġground": 2379,
      "Ġstreng": 2380,
      "lete": 2381,
      "Ġmean": 2382,
      "nder": 2383,
      "ĠAir": 2384,
      "ĠEnglish": 2385,
      "ĠAss": 2386,
      "iate": 2387,
      "ĠState": 2388,
      "Ġapproach": 2389,
      "Ġbring": 2390,
      "for": 2391,
      "Ġband": 2392,
      "ĠMe": 2393,
      "ancial": 2394,
      "alf": 2395,
      "Ġclub": 2396,
      "Ġfeedback": 2397,
      "Ġdest": 2398,
      "Ġcame": 2399,
      "ĠFl": 2400,
      "ging": 2401,
      "Ġ}": 2402,
      "ened": 2403,
      ".,": 2404,
      "ura": 2405,
      "ĠApril": 2406,
      "Ġpractice": 2407,
      "Ġpay": 2408,
      "Ġsingle": 2409,
      "pecial": 2410,
      "eter": 2411,
      "ĠJuly": 2412,
      "Ġbat": 2413,
      "pite": 2414,
      "Ġant": 2415,
      "ĠLeague": 2416,
      "Ġsun": 2417,
      "go": 2418,
      "Ġhy": 2419,
      "ids": 2420,
      "nal": 2421,
      "Ġspecies": 2422,
      "Ġengine": 2423,
      "14": 2424,
      "Ġwalk": 2425,
      "Ġbuilt": 2426,
      "Ġexpect": 2427,
      "Ġvisit": 2428,
      "Ġenh": 2429,
      "ords": 2430,
      "Ġnature": 2431,
      "Ġheat": 2432,
      "mar": 2433,
      "century": 2434,
      "ĠJack": 2435,
      "ĠKing": 2436,
      "'ll": 2437,
      "itary": 2438,
      "Ġgoing": 2439,
      "Ġrepl": 2440,
      "cember": 2441,
      "Ġsources": 2442,
      "urs": 2443,
      "50": 2444,
      "ledge": 2445,
      "na": 2446,
      "Ġaccount": 2447,
      "ĠArt": 2448,
      "just": 2449,
      "izations": 2450,
      "Ġability": 2451,
      "Ġhistor": 2452,
      "Ġserved": 2453,
      "rec": 2454,
      "Ġrecogn": 2455,
      "elling": 2456,
      "Ġreceived": 2457,
      "Ġbirths": 2458,
      "Ġcharacters": 2459,
      "ĠNovember": 2460,
      "Ġprogress": 2461,
      "friend": 2462,
      "Ġvill": 2463,
      "Ġbegin": 2464,
      "ĠWest": 2465,
      "Ġsustainable": 2466,
      "ĠX": 2467,
      "ĠII": 2468,
      "atives": 2469,
      "aced": 2470,
      "Ġopportunities": 2471,
      "ĠCons": 2472,
      "Ġsurv": 2473,
      "Ġseen": 2474,
      "Ġhom": 2475,
      "Ġdark": 2476,
      "ude": 2477,
      "Ġprop": 2478,
      "Ġsimilar": 2479,
      "Ġput": 2480,
      "Ġjourney": 2481,
      "Ġeffects": 2482,
      "aim": 2483,
      "He": 2484,
      "Ġpack": 2485,
      "Ġestablished": 2486,
      "Ġill": 2487,
      "rad": 2488,
      "13": 2489,
      "che": 2490,
      "oice": 2491,
      "anks": 2492,
      "ĠWrite": 2493,
      "levision": 2494,
      "urb": 2495,
      "Ġdepend": 2496,
      "Ġlost": 2497,
      "ires": 2498,
      "Ġtast": 2499,
      "198": 2500,
      "Ġweek": 2501,
      "Ġblack": 2502,
      "ille": 2503,
      "ruary": 2504,
      "Ġcut": 2505,
      "Ġgreen": 2506,
      "ebruary": 2507,
      "Ġpattern": 2508,
      "Ġincluded": 2509,
      "ĠNe": 2510,
      "Ġcentury": 2511,
      "ĠSm": 2512,
      "Ġcheese": 2513,
      "str": 2514,
      "Ġattend": 2515,
      "Ġfit": 2516,
      "alls": 2517,
      "Ġpurch": 2518,
      "ided": 2519,
      "Ġrenewable": 2520,
      "ha": 2521,
      "ĠCould": 2522,
      "vey": 2523,
      "Ġsitu": 2524,
      "aving": 2525,
      "ĠCre": 2526,
      "Ġcode": 2527,
      "Ġbar": 2528,
      "Ġregion": 2529,
      "ructions": 2530,
      "aging": 2531,
      "ivate": 2532,
      "ĠSar": 2533,
      "Ġavoid": 2534,
      "Ġdiscuss": 2535,
      "Ġroom": 2536,
      "Ġhaving": 2537,
      "icle": 2538,
      "owl": 2539,
      "asc": 2540,
      "Ġwar": 2541,
      "Ġplant": 2542,
      "Ġprint": 2543,
      "Ġdeb": 2544,
      "ĠRec": 2545,
      "ening": 2546,
      "hens": 2547,
      "ĠChe": 2548,
      "11": 2549,
      "Ġbreat": 2550,
      "Ġneeded": 2551,
      "Ġattack": 2552,
      "estern": 2553,
      "Ġep": 2554,
      "ĠDecember": 2555,
      "Ġask": 2556,
      "Ġthird": 2557,
      "ĠGo": 2558,
      "ĠCollege": 2559,
      "icate": 2560,
      "Ġste": 2561,
      "Ġbehav": 2562,
      "cy": 2563,
      "era": 2564,
      "illing": 2565,
      "We": 2566,
      "avy": 2567,
      "Ġsent": 2568,
      "artment": 2569,
      "Ġworked": 2570,
      "ĠAb": 2571,
      "head": 2572,
      "Ġresults": 2573,
      "ured": 2574,
      "ification": 2575,
      "Ġwent": 2576,
      "Ġprevious": 2577,
      "istory": 2578,
      "iation": 2579,
      "lin": 2580,
      "Ġamount": 2581,
      "vant": 2582,
      "Ġnecess": 2583,
      "Ġliving": 2584,
      "Ġuses": 2585,
      "Ġsize": 2586,
      "Ġpepper": 2587,
      "ĠChampions": 2588,
      "This": 2589,
      "ĠGeor": 2590,
      "----": 2591,
      "Ġestablish": 2592,
      "Ġsweet": 2593,
      "Ġhours": 2594,
      "iction": 2595,
      "ĠBo": 2596,
      "eds": 2597,
      "Ġdescript": 2598,
      "itect": 2599,
      "ounc": 2600,
      "mit": 2601,
      "Ġkind": 2602,
      "imately": 2603,
      "Ġanalysis": 2604,
      "Ġreducing": 2605,
      "acy": 2606,
      "Ġmultiple": 2607,
      "Ġpress": 2608,
      "Ġfive": 2609,
      "roll": 2610,
      "Ġnational": 2611,
      "Ġsle": 2612,
      "Ġlo": 2613,
      "Ġgar": 2614,
      "Ġselect": 2615,
      "Ġfinancial": 2616,
      "Ġgroups": 2617,
      "Ġcream": 2618,
      "selves": 2619,
      "ica": 2620,
      "Ġposition": 2621,
      "23": 2622,
      "ites": 2623,
      "ara": 2624,
      "oll": 2625,
      "See": 2626,
      "Ġpublished": 2627,
      "Ġchick": 2628,
      "Ġpan": 2629,
      "ky": 2630,
      "ĠMc": 2631,
      "ĠRuss": 2632,
      "ĠĠĠĠĠĠĠĠĠĠĠĠĠĠĠĠ": 2633,
      "ĠPark": 2634,
      "ĠPre": 2635,
      "Ġvisual": 2636,
      "Ġdam": 2637,
      "aily": 2638,
      "aken": 2639,
      "ĠFebruary": 2640,
      "gest": 2641,
      "Ġmoment": 2642,
      "ĠProv": 2643,
      "Ġsaw": 2644,
      "ĠGr": 2645,
      "Ġ<": 2646,
      "Ġprovided": 2647,
      "ctor": 2648,
      "come": 2649,
      "Ġsqu": 2650,
      "Ġclos": 2651,
      "Ġrev": 2652,
      "Ġeconomic": 2653,
      "Ġprior": 2654,
      "ief": 2655,
      "Ġpopulation": 2656,
      "lymp": 2657,
      "Ġthought": 2658,
      "iber": 2659,
      "ondon": 2660,
      "Ġ2018": 2661,
      "Ġsalt": 2662,
      "unch": 2663,
      "ensive": 2664,
      "Ġrad": 2665,
      "uk": 2666,
      "Ġnetwork": 2667,
      "American": 2668,
      "Ġpoints": 2669,
      "Ġemployees": 2670,
      "Ġunderstanding": 2671,
      "ĠChar": 2672,
      "Ġabove": 2673,
      "Ġadapt": 2674,
      "Ġemer": 2675,
      "Ġalm": 2676,
      "Ġinnov": 2677,
      "aul": 2678,
      "aches": 2679,
      "Ġconsist": 2680,
      "Ġlives": 2681,
      "ached": 2682,
      "ĠNo": 2683,
      "izes": 2684,
      "Ġfile": 2685,
      "onse": 2686,
      "Ġcontinue": 2687,
      "irl": 2688,
      "Ġaction": 2689,
      "Ġindividual": 2690,
      "Ã¡": 2691,
      "Ġcountries": 2692,
      "Ġbehind": 2693,
      "Ġonce": 2694,
      "rick": 2695,
      "hib": 2696,
      "Ġmillion": 2697,
      "Ġrelationships": 2698,
      "ĠSec": 2699,
      "Ġsurround": 2700,
      "Ġfeeling": 2701,
      "ivision": 2702,
      "elebr": 2703,
      "cul": 2704,
      "Ġdish": 2705,
      "ĠAmeric": 2706,
      "Ġ11": 2707,
      "Ġmakes": 2708,
      "icip": 2709,
      "Ġsix": 2710,
      "Ġreflect": 2711,
      "ecut": 2712,
      "Ġintrodu": 2713,
      "ĠGl": 2714,
      "zz": 2715,
      "ford": 2716,
      "Ġlooking": 2717,
      "right": 2718,
      "book": 2719,
      "ĠRed": 2720,
      "gor": 2721,
      "Ġofficial": 2722,
      "Ġmiss": 2723,
      "Ġknowledge": 2724,
      "ĠHar": 2725,
      "Ġbecom": 2726,
      "Ġsimple": 2727,
      "Ġidea": 2728,
      "Ġexist": 2729,
      "Ġcontain": 2730,
      "Ġsecurity": 2731,
      "ald": 2732,
      "Ġbig": 2733,
      "iced": 2734,
      "Ġnovel": 2735,
      "hold": 2736,
      "ests": 2737,
      "Ġlittle": 2738,
      "cks": 2739,
      "Ġdi": 2740,
      "eder": 2741,
      "ĠWilliam": 2742,
      "Ġquickly": 2743,
      "Ġtakes": 2744,
      "ouncil": 2745,
      "hood": 2746,
      "30": 2747,
      "enge": 2748,
      "Ġbreath": 2749,
      "Ġ2016": 2750,
      "Ġhost": 2751,
      "yn": 2752,
      "Ġattention": 2753,
      "Al": 2754,
      "Ġincreased": 2755,
      "Ġsteps": 2756,
      "ivil": 2757,
      "Ġprojects": 2758,
      "Ġcomfort": 2759,
      "Ġnav": 2760,
      "ption": 2761,
      "iddle": 2762,
      "Ġcontinued": 2763,
      "though": 2764,
      "ixt": 2765,
      "Ġap": 2766,
      "ena": 2767,
      "ĊĠĠĠĠĠĠĠĠĠĠĠ": 2768,
      "'ve": 2769,
      "ĠIndian": 2770,
      "Ġcommunities": 2771,
      "ength": 2772,
      "sw": 2773,
      "Ġ2010": 2774,
      "Ġengaging": 2775,
      "Ġtou": 2776,
      "Ġprim": 2777,
      "Ġpaper": 2778,
      "Ġnegative": 2779,
      "Ġpolitical": 2780,
      "Ġartists": 2781,
      "Ġdigital": 2782,
      "urt": 2783,
      "Ġcommit": 2784,
      "Ġlower": 2785,
      "iful": 2786,
      "Ġsite": 2787,
      "Ġever": 2788,
      "ĠDist": 2789,
      "ĠCont": 2790,
      "ĠSal": 2791,
      "Ġwarm": 2792,
      "Ġadded": 2793,
      "ooth": 2794,
      "Ġcomput": 2795,
      "aries": 2796,
      "Ġinvolved": 2797,
      "Ġrestaur": 2798,
      "Ġcell": 2799,
      "Ġcirc": 2800,
      "ĠMon": 2801,
      "udd": 2802,
      "Ġsounds": 2803,
      "ĠApp": 2804,
      "Ġmodel": 2805,
      "obal": 2806,
      "amb": 2807,
      "ĠQu": 2808,
      "Ġadjust": 2809,
      "Ġ25": 2810,
      "ĠCom": 2811,
      "Ġwritten": 2812,
      "Ġrout": 2813,
      "ari": 2814,
      "Ġautom": 2815,
      "Ġnecessary": 2816,
      "Ġtot": 2817,
      "Ġvegetables": 2818,
      "Ġlog": 2819,
      "Ġlocation": 2820,
      "Ġ2011": 2821,
      "Ġimportance": 2822,
      "Ġrelationship": 2823,
      "Ġeverything": 2824,
      "Ġplatforms": 2825,
      "Ġtemper": 2826,
      "Ġincreasing": 2827,
      "Ġprote": 2828,
      "ox": 2829,
      "ĠAcc": 2830,
      "ĠLondon": 2831,
      "Ġorganization": 2832,
      "Ġborn": 2833,
      "Ġoriginal": 2834,
      "friendly": 2835,
      "Ġspir": 2836,
      "ĠGerman": 2837,
      "ĠOf": 2838,
      "icious": 2839,
      "ĠMy": 2840,
      "Ġsales": 2841,
      "Ġcollect": 2842,
      "Ġsou": 2843,
      "erous": 2844,
      "color": 2845,
      "oe": 2846,
      "Ġfar": 2847,
      "Ġdeveloped": 2848,
      "Ġbutter": 2849,
      "sequ": 2850,
      "Ġtherap": 2851,
      "Ġclimate": 2852,
      "Ġdoc": 2853,
      "ili": 2854,
      "Ġmatch": 2855,
      "oved": 2856,
      "Ġconduct": 2857,
      "Ġleast": 2858,
      "Ġcolors": 2859,
      "ler": 2860,
      "aps": 2861,
      "ĠRem": 2862,
      "Ġliter": 2863,
      "ĠDav": 2864,
      "Ġstation": 2865,
      "ĠLa": 2866,
      "Ġgeneral": 2867,
      "sy": 2868,
      "ĠTw": 2869,
      "Ġhigher": 2870,
      "mbol": 2871,
      "Ġorganizations": 2872,
      "Wh": 2873,
      "Ġpred": 2874,
      "Ġattract": 2875,
      "igate": 2876,
      "ĠYour": 2877,
      "Ġfear": 2878,
      "Ġ2015": 2879,
      "ĠStud": 2880,
      "ounter": 2881,
      "Ġemotional": 2882,
      "197": 2883,
      "aching": 2884,
      "Ġble": 2885,
      "Ġseem": 2886,
      "uel": 2887,
      "Ġconditions": 2888,
      "AR": 2889,
      "Ġfire": 2890,
      "Ġinstead": 2891,
      "Ġcreative": 2892,
      "opped": 2893,
      "Ġarchitect": 2894,
      "bon": 2895,
      "ĠUs": 2896,
      "itute": 2897,
      "Ġparticularly": 2898,
      "Ġ2017": 2899,
      "Ã³": 2900,
      "Ġenough": 2901,
      "Ġmessage": 2902,
      "itch": 2903,
      "icles": 2904,
      "ĠAng": 2905,
      "Ġdise": 2906,
      "Ġ24": 2907,
      "bor": 2908,
      "astic": 2909,
      "Ġpowerful": 2910,
      "Ġrisk": 2911,
      "Ġdaily": 2912,
      "Ġsay": 2913,
      "Ġ2020": 2914,
      "Ġsold": 2915,
      "Ġlate": 2916,
      "otes": 2917,
      "Ġemotions": 2918,
      "Ġgradu": 2919,
      "ĠPer": 2920,
      "Ġsatis": 2921,
      "obile": 2922,
      "itude": 2923,
      "Ġmach": 2924,
      "uild": 2925,
      "pro": 2926,
      "Ġ2019": 2927,
      "ĠCreate": 2928,
      "ades": 2929,
      "Ġemb": 2930,
      "Ġaim": 2931,
      "nds": 2932,
      "Ġ2008": 2933,
      "orks": 2934,
      "ologies": 2935,
      "verage": 2936,
      "Ġconvers": 2937,
      "nding": 2938,
      "Ġfight": 2939,
      "asks": 2940,
      "One": 2941,
      "Ġquestions": 2942,
      "Ġsource": 2943,
      "istics": 2944,
      "ĠSch": 2945,
      "iforn": 2946,
      "Ġbase": 2947,
      "Ġwhite": 2948,
      "Ġwords": 2949,
      "Ġthemselves": 2950,
      "rehens": 2951,
      "But": 2952,
      "Ġannoun": 2953,
      "ĠInt": 2954,
      "Ġeffectively": 2955,
      "Ġtemperature": 2956,
      "Ġrecommendations": 2957,
      "ĠWhile": 2958,
      "irtual": 2959,
      "Ġmeans": 2960,
      "Ġround": 2961,
      "Ġvari": 2962,
      "li": 2963,
      "Ġremain": 2964,
      "Ġinternational": 2965,
      "Ġfavor": 2966,
      "Ġefforts": 2967,
      "Ġdetailed": 2968,
      "Ġcelebr": 2969,
      "istance": 2970,
      "cript": 2971,
      "Ġresponse": 2972,
      "atoes": 2973,
      "Ġegg": 2974,
      "Ġapplication": 2975,
      "Ġteams": 2976,
      "ĠAct": 2977,
      "Ġimages": 2978,
      "Ġ2013": 2979,
      "Ġtoday": 2980,
      "Ġloss": 2981,
      "Ġfactors": 2982,
      "Ġ23": 2983,
      "ifornia": 2984,
      "ĠKe": 2985,
      "Ġfig": 2986,
      "Ġlikely": 2987,
      "For": 2988,
      "aker": 2989,
      "Ġsil": 2990,
      "Ġsuper": 2991,
      "Ġbur": 2992,
      "Ġ//": 2993,
      "()": 2994,
      "ett": 2995,
      "Ġhalf": 2996,
      "Ġanx": 2997,
      "epend": 2998,
      "Ġtelevision": 2999,
      "Ġslow": 3000,
      "Ġcru": 3001,
      "Ġfail": 3002,
      "pecially": 3003,
      "ĠSan": 3004,
      "earch": 3005,
      "Ġchoose": 3006,
      "Ġgold": 3007,
      "ĠDr": 3008,
      "Ġsymbol": 3009,
      "Ste": 3010,
      "Ġson": 3011,
      "reg": 3012,
      "Ġstructure": 3013,
      "Ġrelevant": 3014,
      "Ġwide": 3015,
      "ĠHouse": 3016,
      "Ġfru": 3017,
      "Ġcool": 3018,
      "ĠAc": 3019,
      "ĠMich": 3020,
      "omin": 3021,
      "Ġengagement": 3022,
      "Ġgoal": 3023,
      "Ġstudies": 3024,
      "iverse": 3025,
      "Ġdraw": 3026,
      "IN": 3027,
      "ĠAg": 3028,
      "Ġsett": 3029,
      "Ġtransportation": 3030,
      "Ġbowl": 3031,
      "Ġbeautiful": 3032,
      "Ġherself": 3033,
      "ĠInternational": 3034,
      "estival": 3035,
      "Ġeyes": 3036,
      "olutions": 3037,
      "Ġwood": 3038,
      "Ġtaken": 3039,
      "ĠPhil": 3040,
      "Ġcomes": 3041,
      "uff": 3042,
      "25": 3043,
      "ĠIndia": 3044,
      "ĠMor": 3045,
      "osing": 3046,
      "Ġfrequ": 3047,
      "Ġ2014": 3048,
      "pective": 3049,
      "ama": 3050,
      "Ġcooking": 3051,
      "Ġfather": 3052,
      "ĠCup": 3053,
      "empt": 3054,
      "Ġ2006": 3055,
      "ĠVal": 3056,
      "Ġleaders": 3057,
      "Ġrealized": 3058,
      "Ġdisplay": 3059,
      "pose": 3060,
      "rest": 3061,
      "reek": 3062,
      "ference": 3063,
      "Ġadding": 3064,
      "lusion": 3065,
      "Ġhelpful": 3066,
      "Ġrelated": 3067,
      "Ġmention": 3068,
      "Ġbeauty": 3069,
      "Ġmanage": 3070,
      "Ġminim": 3071,
      "Ġlearned": 3072,
      "Ġexpress": 3073,
      "rack": 3074,
      "Ġsepar": 3075,
      "ĠIr": 3076,
      "Ġpage": 3077,
      "fulness": 3078,
      "Ġespecially": 3079,
      "ado": 3080,
      "uments": 3081,
      "ĠAv": 3082,
      "ĠJames": 3083,
      "cient": 3084,
      "Ġtotal": 3085,
      "ĠOlymp": 3086,
      "Ġguide": 3087,
      "ĠRiver": 3088,
      "Ar": 3089,
      "Ġpric": 3090,
      "ension": 3091,
      "Ġgarlic": 3092,
      "ym": 3093,
      "Ġprep": 3094,
      "error": 3095,
      "ĠSarah": 3096,
      "ĠCalifornia": 3097,
      "ixture": 3098,
      "Ġinstall": 3099,
      "Ġmonths": 3100,
      "And": 3101,
      "Ġessay": 3102,
      "Ġwa": 3103,
      "udget": 3104,
      "anch": 3105,
      "ius": 3106,
      "Ġ100": 3107,
      "Ġcomprehens": 3108,
      "These": 3109,
      "To": 3110,
      "Ġclose": 3111,
      "Ġut": 3112,
      "Ġcenter": 3113,
      "Ġenvironmental": 3114,
      "ĠGener": 3115,
      "ĠEast": 3116,
      "Ġ2009": 3117,
      "Ġ2007": 3118,
      "Ġdied": 3119,
      "ĠPres": 3120,
      "Ġwaste": 3121,
      "Ġ2012": 3122,
      "Ġdeal": 3123,
      "Ġful": 3124,
      "Ġvalues": 3125,
      "Ġiniti": 3126,
      "Ġefficient": 3127,
      "quality": 3128,
      "Ġoutside": 3129,
      "Ġ+": 3130,
      "(\"": 3131,
      "//": 3132,
      "ka": 3133,
      "ety": 3134,
      "Ġtaste": 3135,
      "ĠGreat": 3136,
      "Ġrock": 3137,
      "rown": 3138,
      "Ġroad": 3139,
      "Ġchicken": 3140,
      "iol": 3141,
      "Ġshows": 3142,
      "Ġparent": 3143,
      "Ġconsidered": 3144,
      "oke": 3145,
      "Ġmotiv": 3146,
      "Ġelectric": 3147,
      "ĠDon": 3148,
      "dom": 3149,
      "Ġhimself": 3150,
      "ico": 3151,
      "riate": 3152,
      "Ġtrying": 3153,
      "Ġbooks": 3154,
      "Ġ189": 3155,
      "iff": 3156,
      "asp": 3157,
      "Ġcause": 3158,
      "Ġimag": 3159,
      "Ġfall": 3160,
      "Ġarg": 3161,
      "rel": 3162,
      "Ġstring": 3163,
      "Ġaltern": 3164,
      "Ġskin": 3165,
      "Ġbehavior": 3166,
      "Ġconcern": 3167,
      "Ġentire": 3168,
      "Ġpath": 3169,
      "Ġvillage": 3170,
      "Ġstrategy": 3171,
      "Ġplaying": 3172,
      "Ġassociated": 3173,
      "reet": 3174,
      "Ġshowc": 3175,
      "ĠIsland": 3176,
      "Ġmoved": 3177,
      "Ġdescribed": 3178,
      "ander": 3179,
      "Ġmixture": 3180,
      "ils": 3181,
      "Ġdishes": 3182,
      "Ġstories": 3183,
      "Ġterms": 3184,
      "Ġsomeone": 3185,
      "Ġsubst": 3186,
      "Ġschools": 3187,
      "Ġextra": 3188,
      "ĠBer": 3189,
      "river": 3190,
      "Ġsche": 3191,
      "iveness": 3192,
      "ael": 3193,
      "off": 3194,
      "Ġaware": 3195,
      "Ġdistribut": 3196,
      "Ġmoney": 3197,
      "Ġenhance": 3198,
      "oud": 3199,
      "board": 3200,
      "ĠAlex": 3201,
      "rig": 3202,
      "anish": 3203,
      "Ġpiece": 3204,
      "Ġsleep": 3205,
      "Ġclaim": 3206,
      "use": 3207,
      "âĢĶ": 3208,
      "Ġdemon": 3209,
      "lying": 3210,
      "minist": 3211,
      "ĠSim": 3212,
      "Ġscient": 3213,
      "Ġsmooth": 3214,
      "Ġcertain": 3215,
      "ellow": 3216,
      "Ġfarm": 3217,
      "Ġamaz": 3218,
      "ĠMake": 3219,
      "Ġge": 3220,
      "Ġlat": 3221,
      "pped": 3222,
      "Ġwond": 3223,
      "ington": 3224,
      "Ġdidn": 3225,
      "Ġdemand": 3226,
      "Ġcontact": 3227,
      "Ġimage": 3228,
      "Ġforest": 3229,
      "Ġtable": 3230,
      "Ġobs": 3231,
      "Ġhealthcare": 3232,
      "Ġconstruction": 3233,
      "Ġdeg": 3234,
      "Ġvict": 3235,
      "Ġcosts": 3236,
      "Ġdistrict": 3237,
      "Ġactive": 3238,
      "Ġbroad": 3239,
      "erve": 3240,
      "Ġadop": 3241,
      "Ġapprec": 3242,
      "Ġtransform": 3243,
      "Ġrequired": 3244,
      "AS": 3245,
      "Ġmount": 3246,
      "Ġtrust": 3247,
      "196": 3248,
      "ĠCommun": 3249,
      "Ġmeaning": 3250,
      "icated": 3251,
      "Ġweb": 3252,
      "Ġfish": 3253,
      "ipment": 3254,
      "Ġlif": 3255,
      "Ġsuggestions": 3256,
      "Ġet": 3257,
      "rought": 3258,
      "Ġ190": 3259,
      "Ġsus": 3260,
      "ux": 3261,
      "Ġpoem": 3262,
      "Ġmother": 3263,
      "Ã¼": 3264,
      "idents": 3265,
      "Ġproduced": 3266,
      "Ġunc": 3267,
      "Ġ2021": 3268,
      "Ġtitle": 3269,
      "Ġpark": 3270,
      "Ġhon": 3271,
      "ĠSo": 3272,
      "Ġtrue": 3273,
      "ĠDep": 3274,
      "rics": 3275,
      "Ġpartners": 3276,
      "life": 3277,
      "Ġtasks": 3278,
      "Ġconclusion": 3279,
      "ume": 3280,
      "Ġcomprehensive": 3281,
      "ĠEngland": 3282,
      "Ġmilitary": 3283,
      "Ġanxiety": 3284,
      "inary": 3285,
      "orial": 3286,
      "ĠEar": 3287,
      "Ġleaves": 3288,
      "ij": 3289,
      "Ġpatterns": 3290,
      "alian": 3291,
      "sych": 3292,
      "Ġcop": 3293,
      "Ġmid": 3294,
      "Ġactivity": 3295,
      "Ġprotein": 3296,
      "ctions": 3297,
      "ĠAmerica": 3298,
      "su": 3299,
      "ville": 3300,
      "Ġtom": 3301,
      "Ġcomplete": 3302,
      "Ġoption": 3303,
      "Ġopp": 3304,
      "aint": 3305,
      "Ġbalance": 3306,
      "Ġcritical": 3307,
      "Ġlab": 3308,
      "que": 3309,
      "Ġmass": 3310,
      "ĠSam": 3311,
      "Ġdecision": 3312,
      "Ġfaced": 3313,
      "yth": 3314,
      "Ġwhy": 3315,
      "itar": 3316,
      "Ġacadem": 3317,
      "ĠAustralia": 3318,
      "ufact": 3319,
      "gcolor": 3320,
      "Ġbi": 3321,
      "Ġyourself": 3322,
      "den": 3323,
      "ilies": 3324,
      "field": 3325,
      "gorith": 3326,
      "Ġscreen": 3327,
      "ora": 3328,
      "ĠPat": 3329,
      "Ġitems": 3330,
      "Ġbuildings": 3331,
      "ocol": 3332,
      "Ġvoice": 3333,
      "Ġsugar": 3334,
      "Ġexecut": 3335,
      "Ġsports": 3336,
      "Ġexplain": 3337,
      "Ġdelicious": 3338,
      "Ġchann": 3339,
      "word": 3340,
      "atory": 3341,
      "Ġcouldn": 3342,
      "ira": 3343,
      "duc": 3344,
      "Ġmanufact": 3345,
      "Ġinvolves": 3346,
      "ding": 3347,
      "za": 3348,
      "text": 3349,
      "Ġsess": 3350,
      "isions": 3351,
      "Living": 3352,
      "ÃŃ": 3353,
      "Ġconflic": 3354,
      "arc": 3355,
      "Ġnorth": 3356,
      "Ġter": 3357,
      "ĠServ": 3358,
      "ties": 3359,
      "Ġfront": 3360,
      "Ġplants": 3361,
      "ĠAlso": 3362,
      "Ġdevices": 3363,
      "Un": 3364,
      "Ġbackground": 3365,
      "Ġinitial": 3366,
      "Ġsongs": 3367,
      "ĠDistrict": 3368,
      "ying": 3369,
      "orthern": 3370,
      "uth": 3371,
      "Ġmethods": 3372,
      "ER": 3373,
      "Ġsolutions": 3374,
      "Ġrate": 3375,
      "Ġdang": 3376,
      "Ġcred": 3377,
      "ĠAssoci": 3378,
      "Ġtalk": 3379,
      "Ġremind": 3380,
      "iers": 3381,
      "Ġsoon": 3382,
      "ception": 3383,
      "ready": 3384,
      "Ġbudget": 3385,
      "Ġdone": 3386,
      "Ġelse": 3387,
      "Ġmale": 3388,
      "Ġlonger": 3389,
      "Ġchallenge": 3390,
      "aughter": 3391,
      "Ġoffice": 3392,
      "het": 3393,
      "Ġinteresting": 3394,
      "raw": 3395,
      "Ġhappy": 3396,
      "Ġ40": 3397,
      "Ġtouch": 3398,
      "ini": 3399,
      "Ġslic": 3400,
      "etry": 3401,
      "Ġsetting": 3402,
      "ula": 3403,
      "Ġmor": 3404,
      "osition": 3405,
      "Ġrelig": 3406,
      "Ġalgorith": 3407,
      "ĠSocial": 3408,
      "olutely": 3409,
      "place": 3410,
      "Con": 3411,
      "rug": 3412,
      "year": 3413,
      "Ġlot": 3414,
      "umber": 3415,
      "ki": 3416,
      "king": 3417,
      "Ġhighly": 3418,
      "Ġtables": 3419,
      "Ġju": 3420,
      "venue": 3421,
      "Ġnumbers": 3422,
      "aid": 3423,
      "Ġpowder": 3424,
      "aught": 3425,
      "Ġtechnologies": 3426,
      "Ġcorn": 3427,
      "Ġstrength": 3428,
      "Ġstri": 3429,
      "iles": 3430,
      "agon": 3431,
      "ither": 3432,
      "Ġinterested": 3433,
      "Ġcand": 3434,
      "ĠChina": 3435,
      "ervation": 3436,
      "ĠEuropean": 3437,
      "chan": 3438,
      "pre": 3439,
      "iring": 3440,
      "ibrary": 3441,
      "Step": 3442,
      "icro": 3443,
      "irm": 3444,
      "Ġanimals": 3445,
      "Ġ2005": 3446,
      "Ġexercise": 3447,
      "Ġones": 3448,
      "Ġfocused": 3449,
      "Ġdeveloping": 3450,
      "Ġwild": 3451,
      "Ġepis": 3452,
      "Ġeasily": 3453,
      "Ġcast": 3454,
      "airs": 3455,
      "Ad": 3456,
      "Ġdream": 3457,
      "ĠPort": 3458,
      "Ġsty": 3459,
      "Ġcross": 3460,
      "Ġhous": 3461,
      "Ġallowing": 3462,
      "Ġproblem": 3463,
      "isp": 3464,
      "ĠMal": 3465,
      "overs": 3466,
      "Ġmer": 3467,
      "ĠSum": 3468,
      "ĠĊĠĊ": 3469,
      "ule": 3470,
      "Ġgot": 3471,
      "Ġrelease": 3472,
      "Ġcou": 3473,
      "Ġdou": 3474,
      "Ġthr": 3475,
      "ĠRober": 3476,
      "Ġgard": 3477,
      "Ġvirtual": 3478,
      "Ġdance": 3479,
      "Ġparty": 3480,
      "Ġglobal": 3481,
      "Ġsouth": 3482,
      "Ġalready": 3483,
      "ĠChurch": 3484,
      "phas": 3485,
      "Ġsubject": 3486,
      "wh": 3487,
      "Ġwoman": 3488,
      "Ġrecent": 3489,
      "Ġexperiment": 3490,
      "ĠQue": 3491,
      "asons": 3492,
      "Ġboard": 3493,
      "ĠDevelop": 3494,
      "ĠMount": 3495,
      "Ġallowed": 3496,
      "ww": 3497,
      "Ġarray": 3498,
      "Ġhands": 3499,
      "Ġvoc": 3500,
      "omb": 3501,
      "olic": 3502,
      "Ġscience": 3503,
      "Ġult": 3504,
      "ĠCanada": 3505,
      "Ġ2003": 3506,
      "Ġparts": 3507,
      "Ġsociety": 3508,
      "Ġadvert": 3509,
      "194": 3510,
      "Pe": 3511,
      "Ġhab": 3512,
      "ricult": 3513,
      "Ġupon": 3514,
      "Ġforward": 3515,
      "Ġaspect": 3516,
      "Ġbit": 3517,
      "Ġbgcolor": 3518,
      "Ġhor": 3519,
      "Ġ,": 3520,
      "Ġplaces": 3521,
      "Ġpeace": 3522,
      "Ġpersonalized": 3523,
      "Ġsection": 3524,
      "Ġabs": 3525,
      "ĠAnt": 3526,
      "porary": 3527,
      "now": 3528,
      "outhern": 3529,
      "Ġlimited": 3530,
      "ĠMex": 3531,
      "Ġdefe": 3532,
      "ĠMary": 3533,
      "Ġol": 3534,
      "Ġcard": 3535,
      "Ġsea": 3536,
      "Ġwhole": 3537,
      "Ġencourage": 3538,
      "Ġstage": 3539,
      "ĠPal": 3540,
      "Ġ21": 3541,
      "Ġinj": 3542,
      "ago": 3543,
      "Ġisland": 3544,
      "ably": 3545,
      "Ġnews": 3546,
      "ashion": 3547,
      "Ġguid": 3548,
      "Ġeveryone": 3549,
      "ĠWow": 3550,
      "odes": 3551,
      "Ġgain": 3552,
      "Ġspread": 3553,
      "ĠHol": 3554,
      "ought": 3555,
      "issions": 3556,
      "ĠAward": 3557,
      "Ġshown": 3558,
      "Ġclients": 3559,
      "uis": 3560,
      "Ġcollection": 3561,
      "ĠBra": 3562,
      "Ġded": 3563,
      "ĠAccording": 3564,
      "ĠRoman": 3565,
      "ĠDuring": 3566,
      "Ġequipment": 3567,
      "Ġbread": 3568,
      "Ġmovement": 3569,
      "ĠFrance": 3570,
      "Ġsav": 3571,
      "Ġexpand": 3572,
      "Ġrace": 3573,
      "Ġexcell": 3574,
      "ĠGreen": 3575,
      "Ġweight": 3576,
      "Ġoperations": 3577,
      "order": 3578,
      "Ġaward": 3579,
      "illa": 3580,
      "Ġroll": 3581,
      "Ġattempt": 3582,
      "Ġserve": 3583,
      "inese": 3584,
      "Ġmobile": 3585,
      "ustr": 3586,
      "Ġmedical": 3587,
      "Ġgetting": 3588,
      "Ġrunning": 3589,
      "Ġtherapy": 3590,
      "Ġwatch": 3591,
      "Ġspent": 3592,
      "ports": 3593,
      "Ġlength": 3594,
      "Ġ2000": 3595,
      "ĠCenter": 3596,
      "Ġdocument": 3597,
      "Ġopened": 3598,
      "etimes": 3599,
      "ules": 3600,
      "Ġmeditation": 3601,
      "Ġdry": 3602,
      "Ġrates": 3603,
      "Ġdetect": 3604,
      "Ġcompetition": 3605,
      "Ġgave": 3606,
      "iency": 3607,
      "Ġfamous": 3608,
      "Ġamazing": 3609,
      "By": 3610,
      "la": 3611,
      "Ġsurface": 3612,
      "ĠRepublic": 3613,
      "ĠGeorge": 3614,
      "lines": 3615,
      "ani": 3616,
      "Ġopportunity": 3617,
      "Ġrelax": 3618,
      "Ġsubs": 3619,
      "rote": 3620,
      "Ġconcept": 3621,
      "thlet": 3622,
      "wood": 3623,
      "ĠGra": 3624,
      "ĠMuseum": 3625,
      "igation": 3626,
      "ĠBel": 3627,
      "ateg": 3628,
      "lam": 3629,
      "Ġcollege": 3630,
      "Ġrich": 3631,
      "Ġdeaths": 3632,
      "Ġinstr": 3633,
      "writ": 3634,
      "Ġelement": 3635,
      "Ġancient": 3636,
      "ĠNet": 3637,
      "Ġserving": 3638,
      "Ġintegr": 3639,
      "ĠCompany": 3640,
      "room": 3641,
      "Ġinfluence": 3642,
      "craft": 3643,
      "ala": 3644,
      "Ġtax": 3645,
      "alu": 3646,
      "Ġtim": 3647,
      "ĠCouncil": 3648,
      "ĠLet": 3649,
      "Ġcampaigns": 3650,
      "Ġfem": 3651,
      "unte": 3652,
      "Ġpromoting": 3653,
      "Ġissue": 3654,
      "ĠImp": 3655,
      "Ġimproving": 3656,
      "rastructure": 3657,
      "Ġprivate": 3658,
      "Ġlink": 3659,
      "Ġaccept": 3660,
      "Ġpowers": 3661,
      "Ġstaff": 3662,
      "eks": 3663,
      "ams": 3664,
      "Ġannounced": 3665,
      "inn": 3666,
      "Ġjournal": 3667,
      "ĠAfrican": 3668,
      "Ġ188": 3669,
      "ancing": 3670,
      "ĠMiss": 3671,
      "Ġexhib": 3672,
      "asket": 3673,
      "ogle": 3674,
      "Ġquestion": 3675,
      "Ġcrucial": 3676,
      "Ġemphas": 3677,
      "ĠOnce": 3678,
      "Ġmatter": 3679,
      "Ġapplications": 3680,
      "Sc": 3681,
      "Ġplans": 3682,
      "Ġproduce": 3683,
      "Ġadvanced": 3684,
      "Ġqual": 3685,
      "Ġdead": 3686,
      "ĠHealth": 3687,
      "Ġlack": 3688,
      "Ġchopped": 3689,
      "Ġspirit": 3690,
      "Ġ50": 3691,
      "Ġpolitic": 3692,
      "ications": 3693,
      "Ġappoint": 3694,
      "After": 3695,
      "Ġmax": 3696,
      "ental": 3697,
      "used": 3698,
      "Ġengage": 3699,
      "Ġwhether": 3700,
      "ĊĠĠĠĠĠ": 3701,
      "Ġsafety": 3702,
      "Ġtraffic": 3703,
      "tended": 3704,
      "Ġoccur": 3705,
      "ĠAustralian": 3706,
      "Ġmentioned": 3707,
      "At": 3708,
      "Ġbrought": 3709,
      "Pl": 3710,
      "Ġmel": 3711,
      "ĠGovern": 3712,
      "Ġmeasure": 3713,
      "mary": 3714,
      "Ġfamilies": 3715,
      "ĠList": 3716,
      "Ġword": 3717,
      "ocr": 3718,
      "Ġgraph": 3719,
      "Ġsave": 3720,
      "Ġartist": 3721,
      "Ġforms": 3722,
      "ĠTechn": 3723,
      "Ġwid": 3724,
      "Ġgenerate": 3725,
      "Ġesc": 3726,
      "En": 3727,
      "ĠCor": 3728,
      "Ġscene": 3729,
      "Ġscen": 3730,
      "Ġcat": 3731,
      "Ġinsights": 3732,
      "print": 3733,
      "ĠName": 3734,
      "Ġinstructions": 3735,
      "omas": 3736,
      "Ġtreatment": 3737,
      "History": 3738,
      "ĠOur": 3739,
      "Ġshap": 3740,
      "Ġhit": 3741,
      "ilm": 3742,
      "ronic": 3743,
      "Ġexercises": 3744,
      "Ġhair": 3745,
      "Ġdiscovered": 3746,
      "Ġlarger": 3747,
      "ror": 3748,
      "ĠLou": 3749,
      "Ġpreferences": 3750,
      "rag": 3751,
      "Ġanything": 3752,
      "ĠMet": 3753,
      "Ġagre": 3754,
      "Ġstudent": 3755,
      "ĠArmy": 3756,
      "Ġyog": 3757,
      "orage": 3758,
      "ĠParty": 3759,
      "Ġstar": 3760,
      "With": 3761,
      "ĠJapanese": 3762,
      "hem": 3763,
      "Ġsalad": 3764,
      "Ġbelieve": 3765,
      "Ġneigh": 3766,
      "Ġrecip": 3767,
      "ĠRo": 3768,
      "Ġregard": 3769,
      "Ġbrown": 3770,
      "Ġchoice": 3771,
      "Ġreported": 3772,
      "Ġaverage": 3773,
      "Ġvideos": 3774,
      "Ġdress": 3775,
      "Ġteac": 3776,
      "Ġconnection": 3777,
      "ĠAbs": 3778,
      "Ġdoing": 3779,
      "Ġproblems": 3780,
      "yond": 3781,
      "ĠMag": 3782,
      "\")": 3783,
      "ON": 3784,
      "Ġtexture": 3785,
      "kn": 3786,
      "ĠMany": 3787,
      "ĠRoad": 3788,
      "Des": 3789,
      "Ġadvent": 3790,
      "Ġreceive": 3791,
      "Ġindepend": 3792,
      "ĠMil": 3793,
      "Ġreturned": 3794,
      "Ġdemonstr": 3795,
      "set": 3796,
      "Ġi": 3797,
      "Ġmedium": 3798,
      "Ġcivil": 3799,
      "ĠAssociation": 3800,
      "cean": 3801,
      "Ġeconomy": 3802,
      "ĠDavid": 3803,
      "Ġvalu": 3804,
      "Ġsafe": 3805,
      "ĠThanks": 3806,
      "____": 3807,
      "Ġhowever": 3808,
      "Ġtried": 3809,
      "Ġweather": 3810,
      "Ġinside": 3811,
      "ĠIm": 3812,
      "Ġhighlight": 3813,
      "ĠMarket": 3814,
      "eared": 3815,
      "Ġpurpose": 3816,
      "key": 3817,
      "Ġfavorite": 3818,
      "Ġleave": 3819,
      "Ġreading": 3820,
      "Ġacqu": 3821,
      "itable": 3822,
      "unt": 3823,
      "People": 3824,
      "ĠResearch": 3825,
      "ellig": 3826,
      "CA": 3827,
      "Ġprec": 3828,
      "free": 3829,
      "Ġblue": 3830,
      "Ġsand": 3831,
      "Ġpieces": 3832,
      "Ġchurch": 3833,
      "lier": 3834,
      "Ġmindfulness": 3835,
      "ĠRich": 3836,
      "ceed": 3837,
      "rian": 3838,
      "Ġrather": 3839,
      "Ġstarting": 3840,
      "Ġafford": 3841,
      "ĠTrans": 3842,
      "Ġmonth": 3843,
      "Ġmilk": 3844,
      "Ġoven": 3845,
      "Ġdeliver": 3846,
      "Ġmark": 3847,
      "istor": 3848,
      "ĠBlack": 3849,
      "being": 3850,
      "Ġthreat": 3851,
      "ĠDem": 3852,
      "ĠStreet": 3853,
      "Ġhandle": 3854,
      "Sh": 3855,
      "acc": 3856,
      "ĠPaul": 3857,
      "Ġreb": 3858,
      "Ġfast": 3859,
      "unicip": 3860,
      "Ġveh": 3861,
      "Ġmission": 3862,
      "hing": 3863,
      "iling": 3864,
      "not": 3865,
      "etic": 3866,
      "Ġinteg": 3867,
      "Ġ22": 3868,
      "Ġdebut": 3869,
      "ida": 3870,
      "Ġreve": 3871,
      "'d": 3872,
      "house": 3873,
      "ightly": 3874,
      "Ġparents": 3875,
      "Ġinfrastructure": 3876,
      "ĠPri": 3877,
      "ĠItalian": 3878,
      "Ġchallenging": 3879,
      "',": 3880,
      "ĠGermany": 3881,
      "Ġfinally": 3882,
      "ĠTV": 3883,
      "Ġthemes": 3884,
      "Ġphone": 3885,
      "like": 3886,
      "Ã¶": 3887,
      "ĠGroup": 3888,
      "Ġdecor": 3889,
      "Ġsummer": 3890,
      "ĠMusic": 3891,
      "ĠTur": 3892,
      "Ġshared": 3893,
      "Ġlines": 3894,
      "Ġfollowed": 3895,
      "Ġdiet": 3896,
      "Ġdate": 3897,
      "ĠFirst": 3898,
      "rief": 3899,
      "itors": 3900,
      "Ġbaking": 3901,
      "Ġtrees": 3902,
      "ĠFrom": 3903,
      "Ġ186": 3904,
      "Ġmemory": 3905,
      "Ġbirth": 3906,
      "Ġexpert": 3907,
      "Ġblog": 3908,
      "ĠBen": 3909,
      "ags": 3910,
      "Ġcompon": 3911,
      "Ġacademic": 3912,
      "Ġ27": 3913,
      "Ġpaint": 3914,
      "inct": 3915,
      "itz": 3916,
      "Ġweeks": 3917,
      "Ġpolicies": 3918,
      "ano": 3919,
      "Ġgreater": 3920,
      "inter": 3921,
      "BC": 3922,
      "Ġwanted": 3923,
      "Ġlargest": 3924,
      "Ġ28": 3925,
      "rie": 3926,
      "Ġhistorical": 3927,
      "24": 3928,
      "Ġspeed": 3929,
      "ĠAbsolutely": 3930,
      "Ġcalcul": 3931,
      "Ġappeal": 3932,
      "iences": 3933,
      "ola": 3934,
      "ES": 3935,
      "Ġtree": 3936,
      "ĠRoyal": 3937,
      "Ġalmost": 3938,
      "Ġworkers": 3939,
      "Ġtransl": 3940,
      "Ġ2022": 3941,
      "ĠSet": 3942,
      "init": 3943,
      "Ġcompleted": 3944,
      "There": 3945,
      "Ġimplemented": 3946,
      "Ġtur": 3947,
      "Ġexcellent": 3948,
      "agram": 3949,
      "Ġmachine": 3950,
      "Ġmeasures": 3951,
      "Ġtablesp": 3952,
      "Cl": 3953,
      "umni": 3954,
      "bert": 3955,
      "Ġ*": 3956,
      "Ġjoined": 3957,
      "ĠDivision": 3958,
      "Ġconstant": 3959,
      "Ġroutine": 3960,
      "Ġ26": 3961,
      "Ġovercome": 3962,
      "Ġpurchase": 3963,
      "inger": 3964,
      "Ġhosp": 3965,
      "iding": 3966,
      "akers": 3967,
      "Ġmechan": 3968,
      "Ġtal": 3969,
      "Ġcontract": 3970,
      "Ġenter": 3971,
      "ya": 3972,
      "Ġvaluable": 3973,
      "Ġolive": 3974,
      "ĠWash": 3975,
      "Ġarticle": 3976,
      "Ġthoughts": 3977,
      "Ġthick": 3978,
      "Ġwrote": 3979,
      "Ġsecure": 3980,
      "Ġbox": 3981,
      "Ġevidence": 3982,
      "AC": 3983,
      "Ġstruct": 3984,
      "Ġ2004": 3985,
      "aling": 3986,
      "ĠWestern": 3987,
      "Ġcarbon": 3988,
      "ios": 3989,
      "Ġsolar": 3990,
      "Ġdamage": 3991,
      "Ġviol": 3992,
      "Ġhear": 3993,
      "ulate": 3994,
      "Ġexperienced": 3995,
      "ĠAfrica": 3996,
      "Ġalone": 3997,
      "ĠPresident": 3998,
      "ĠHall": 3999,
      "Ġpartner": 4000,
      "ĠUnion": 4001,
      "Ġeasier": 4002,
      "lo": 4003,
      "ĠConsider": 4004,
      "Ġdial": 4005,
      "ĠDef": 4006,
      "Ġadvance": 4007,
      "rab": 4008,
      "men": 4009,
      "Ġemp": 4010,
      "Ġsmart": 4011,
      "ĠGeneral": 4012,
      "term": 4013,
      "Ġice": 4014,
      "Ġscript": 4015,
      "ĠGames": 4016,
      "ĠFranc": 4017,
      "fully": 4018,
      "ĠAut": 4019,
      "gen": 4020,
      "ĠMad": 4021,
      "ĠChinese": 4022,
      "Ġturned": 4023,
      "ffee": 4024,
      "Ġdecided": 4025,
      "hent": 4026,
      "rial": 4027,
      "Ġpercent": 4028,
      "Ġwrite": 4029,
      "Ġdiv": 4030,
      "ston": 4031,
      "Ġobst": 4032,
      "Ġchanged": 4033,
      "195": 4034,
      "Pro": 4035,
      "Ġcaused": 4036,
      "Ġfashion": 4037,
      "asted": 4038,
      "Ġflav": 4039,
      "ĠÃ": 4040,
      "iance": 4041,
      "ĠInter": 4042,
      "Ġblock": 4043,
      "Ġdrive": 4044,
      "burg": 4045,
      "Ġshape": 4046,
      "semb": 4047,
      "emporary": 4048,
      "ĠCho": 4049,
      "ĠGoogle": 4050,
      "Ġfa": 4051,
      "dule": 4052,
      "Ġgrand": 4053,
      "Ġinterests": 4054,
      "Ġdirector": 4055,
      "Ġstir": 4056,
      "Ġadminist": 4057,
      "193": 4058,
      "],": 4059,
      "Ġgirl": 4060,
      "nes": 4061,
      "Ġwear": 4062,
      "antic": 4063,
      "Ġmarried": 4064,
      "urban": 4065,
      "ris": 4066,
      "Ġdat": 4067,
      "ĠTom": 4068,
      "Ġformat": 4069,
      "Ġthing": 4070,
      "mosp": 4071,
      "Ġeither": 4072,
      "ĠAcadem": 4073,
      "Ġbeyond": 4074,
      "Ġutil": 4075,
      "Ġcam": 4076,
      "Ġupdated": 4077,
      "Ġpresident": 4078,
      "Ġoffering": 4079,
      "Ġtypically": 4080,
      "sec": 4081,
      "Ġcommand": 4082,
      "Ġincorporate": 4083,
      "=#": 4084,
      "Ġsym": 4085,
      "Ġbrain": 4086,
      "Ġdram": 4087,
      "ĠIts": 4088,
      "olid": 4089,
      "Ġidentity": 4090,
      "opping": 4091,
      "Ġmeal": 4092,
      "ded": 4093,
      "nel": 4094,
      "Ġpolice": 4095,
      "ĠChristian": 4096,
      "Ġop": 4097,
      "uten": 4098,
      "Ġrice": 4099,
      "Ġformed": 4100,
      "Ġstorage": 4101,
      "Ġflour": 4102,
      "Ġcurrently": 4103,
      "aming": 4104,
      "Ġproductivity": 4105,
      "ootball": 4106,
      "Ġapprop": 4107,
      "isl": 4108,
      "ania": 4109,
      "Ġusually": 4110,
      "Ġeventually": 4111,
      "Ġplanning": 4112,
      "Ġexpected": 4113,
      "You": 4114,
      "Ġleaving": 4115,
      "ĠUK": 4116,
      "Ġten": 4117,
      "step": 4118,
      "ĠKh": 4119,
      "ube": 4120,
      "othing": 4121,
      "ĠScott": 4122,
      "ĠRussian": 4123,
      "Ġbecoming": 4124,
      "known": 4125,
      "Ġcases": 4126,
      "Ġheavy": 4127,
      "Ġtrade": 4128,
      "ĠBest": 4129,
      "Ġrob": 4130,
      "Ġpict": 4131,
      "ulated": 4132,
      "ĠSur": 4133,
      "ĠHen": 4134,
      "Ġrank": 4135,
      "Ġbott": 4136,
      "ĠDay": 4137,
      "Ġrail": 4138,
      "Ġeffort": 4139,
      "Ġelection": 4140,
      "Ġcommer": 4141,
      "Ġmovie": 4142,
      "Ġproperty": 4143,
      "inated": 4144,
      "Ġsituation": 4145,
      "ID": 4146,
      "Ġgrew": 4147,
      "Ġremember": 4148,
      "Ġseemed": 4149,
      "AT": 4150,
      "Ġmuseum": 4151,
      "ĠNor": 4152,
      "Ġevalu": 4153,
      "Le": 4154,
      "Ġrestaurant": 4155,
      "Ġloved": 4156,
      "Ġpractical": 4157,
      "Ġawareness": 4158,
      "Ġpsych": 4159,
      "ĠCour": 4160,
      "Ġoutput": 4161,
      "Ġlimit": 4162,
      "Ġtransfer": 4163,
      "Ġpolicy": 4164,
      "Ġprimary": 4165,
      "Se": 4166,
      "When": 4167,
      "Ġcities": 4168,
      "ĊĠĠĠĠĠĠĠĠĠĠĠĠ": 4169,
      "tics": 4170,
      "ĠMont": 4171,
      "Ġagricult": 4172,
      "Ġsmaller": 4173,
      "Ġbelow": 4174,
      "Ġappl": 4175,
      "Ġinterview": 4176,
      "Ġreality": 4177,
      "ĠOut": 4178,
      "rupt": 4179,
      "ĠInstitute": 4180,
      "Ġdisease": 4181,
      "band": 4182,
      "tee": 4183,
      "asketball": 4184,
      "Ġdifference": 4185,
      "ulpt": 4186,
      "ĠSl": 4187,
      "ĠCath": 4188,
      "uries": 4189,
      "Te": 4190,
      "Ġatmosp": 4191,
      "Ġtesting": 4192,
      "ressive": 4193,
      "Ġinfluenc": 4194,
      "arter": 4195,
      "Ġlandsc": 4196,
      "rect": 4197,
      "Ġcollaboration": 4198,
      "Ġintern": 4199,
      "Ġactions": 4200,
      "Ġprice": 4201,
      "ĠMart": 4202,
      "Ġstop": 4203,
      "ĠOverall": 4204,
      "ĠMac": 4205,
      "ĠBus": 4206,
      "ĠTheir": 4207,
      "Ġimproved": 4208,
      "ply": 4209,
      "roy": 4210,
      "Ġplays": 4211,
      "Ġrain": 4212,
      "Ġfilled": 4213,
      "ria": 4214,
      "ĠMat": 4215,
      "Ġyet": 4216,
      "Ġblood": 4217,
      "rey": 4218,
      "ĠChampionship": 4219,
      "Ġloyal": 4220,
      "Ġjud": 4221,
      "Ġguitar": 4222,
      "Ġimmed": 4223,
      "Ġcontains": 4224,
      "Inst": 4225,
      "ffer": 4226,
      "iter": 4227,
      "Ġadvant": 4228,
      "ĠSociety": 4229,
      "Ġearn": 4230,
      "ĠGreek": 4231,
      "Ġhelping": 4232,
      "itc": 4233,
      "Ġgrowing": 4234,
      "ny": 4235,
      "ita": 4236,
      "ĠAngel": 4237,
      "ducation": 4238,
      "Ġsupply": 4239,
      "Ġforce": 4240,
      "ĠLat": 4241,
      "Ġdy": 4242,
      "Ġvegan": 4243,
      "ĠGod": 4244,
      "ses": 4245,
      "emic": 4246,
      "inating": 4247,
      "Ġincome": 4248,
      "ĠMichael": 4249,
      "Ġitself": 4250,
      "Ġbrother": 4251,
      "Ġhop": 4252,
      "ults": 4253,
      "Ġoutd": 4254,
      "Ġgiving": 4255,
      "Ġsch": 4256,
      "Ġsort": 4257,
      "itt": 4258,
      "Ġpick": 4259,
      "Ġinstitut": 4260,
      "Ġresponsible": 4261,
      "gram": 4262,
      "ĠAre": 4263,
      "Ġpainting": 4264,
      "rition": 4265,
      "Ġlooks": 4266,
      "comes": 4267,
      "swer": 4268,
      "Ġfully": 4269,
      "Ġbed": 4270,
      "Ġwasn": 4271,
      "Ġbelieved": 4272,
      "Ġoffered": 4273,
      "ĠEmily": 4274,
      "Ġfitness": 4275,
      "arsh": 4276,
      "Ġcontinu": 4277,
      "usive": 4278,
      "ares": 4279,
      "Ġer": 4280,
      "more": 4281,
      "Ġdaughter": 4282,
      "Ġbatter": 4283,
      "ken": 4284,
      "Ġrecover": 4285,
      "Ġpresence": 4286,
      "Ġefficiency": 4287,
      "Ġmaxim": 4288,
      "Ġstyles": 4289,
      "initely": 4290,
      "How": 4291,
      "Ġtrain": 4292,
      "Ġprofession": 4293,
      "Ġchat": 4294,
      "iller": 4295,
      "cel": 4296,
      "aled": 4297,
      "Ġpatients": 4298,
      "Ġletter": 4299,
      "onic": 4300,
      "unning": 4301,
      "II": 4302,
      "NA": 4303,
      "Ġencounter": 4304,
      "Ġbra": 4305,
      "Ġdepending": 4306,
      "Ġflex": 4307,
      "aged": 4308,
      "Ġcancer": 4309,
      "olf": 4310,
      "dr": 4311,
      "Ġstates": 4312,
      "Ġ29": 4313,
      "Ġclassic": 4314,
      "Ġ187": 4315,
      "ĠRobert": 4316,
      "Ġfeelings": 4317,
      "itage": 4318,
      "edy": 4319,
      "ĠVol": 4320,
      "Ġfeet": 4321,
      "Ġarchitecture": 4322,
      "ĠGrand": 4323,
      "azz": 4324,
      "Ġnumerous": 4325,
      "astern": 4326,
      "hest": 4327,
      "Ġinteractive": 4328,
      "://": 4329,
      "EO": 4330,
      "ĠJew": 4331,
      "Ġstatus": 4332,
      "Ġdetermine": 4333,
      "Ġobstac": 4334,
      "40": 4335,
      "ederal": 4336,
      "Ġassess": 4337,
      "Ġ1990": 4338,
      "Ġcentral": 4339,
      "leg": 4340,
      "Ġgas": 4341,
      "Ġincorporating": 4342,
      "ycle": 4343,
      "ĠWashington": 4344,
      "Ġonto": 4345,
      "Ġreached": 4346,
      "coming": 4347,
      "ĠJust": 4348,
      "Ġwriter": 4349,
      "Ġpassed": 4350,
      "Ġrights": 4351,
      "Ġperformed": 4352,
      "acing": 4353,
      "Ġball": 4354,
      "ona": 4355,
      "Ġcy": 4356,
      "Ġ2002": 4357,
      "27": 4358,
      "encies": 4359,
      "arian": 4360,
      "Ġdesigns": 4361,
      "Ġcoc": 4362,
      "Ġearth": 4363,
      "ipped": 4364,
      "eria": 4365,
      "Ġfasc": 4366,
      "Ġchart": 4367,
      "Ġ1998": 4368,
      "ĠClub": 4369,
      "Ġpriorit": 4370,
      "icy": 4371,
      "roduction": 4372,
      "ĠCam": 4373,
      "ipping": 4374,
      "Ġtail": 4375,
      "Ġvolunte": 4376,
      "Ġvivid": 4377,
      "Ġinitiatives": 4378,
      "ros": 4379,
      "26": 4380,
      "Ġworth": 4381,
      "Ġmur": 4382,
      "Ġremove": 4383,
      "Ġpressure": 4384,
      "Ġretail": 4385,
      "Ġdistance": 4386,
      "ican": 4387,
      "eters": 4388,
      "Ġindustries": 4389,
      "ĠBay": 4390,
      "Ġwriters": 4391,
      "28": 4392,
      "ifically": 4393,
      "ements": 4394,
      "Ġrequires": 4395,
      "Ġcompl": 4396,
      "Ġpoll": 4397,
      "Ġheard": 4398,
      "ulations": 4399,
      "Ġleader": 4400,
      "Ġpal": 4401,
      "Ġappeared": 4402,
      "ĠVe": 4403,
      "ĠMr": 4404,
      "ella": 4405,
      "Ġcontribute": 4406,
      "Ind": 4407,
      "idden": 4408,
      "ĠCanadian": 4409,
      "ivery": 4410,
      "list": 4411,
      "ĠSen": 4412,
      "ute": 4413,
      "Ġwife": 4414,
      "ocolate": 4415,
      "Ġhousehold": 4416,
      "vest": 4417,
      "ĠÂ": 4418,
      "ĠThank": 4419,
      "Ġalternative": 4420,
      "Ġtask": 4421,
      "ĠFace": 4422,
      "Ġdirectly": 4423,
      "Ġbright": 4424,
      "olit": 4425,
      "Ġinvestment": 4426,
      "Ġsnack": 4427,
      "Ġtow": 4428,
      "Ġcin": 4429,
      "irgin": 4430,
      "Ġincred": 4431,
      "ĠPo": 4432,
      "pected": 4433,
      "Ġmiddle": 4434,
      "Ġ2001": 4435,
      "ĠSuper": 4436,
      "Ġjuice": 4437,
      "Ġsoil": 4438,
      "ĠJe": 4439,
      "Ġrespond": 4440,
      "ĠFe": 4441,
      "bb": 4442,
      "erved": 4443,
      "Ġassign": 4444,
      "Ġcoming": 4445,
      "Ġseeds": 4446,
      "Ġbeginning": 4447,
      "Ġfinished": 4448,
      "faction": 4449,
      "load": 4450,
      "ĠThomas": 4451,
      "Ġadvertising": 4452,
      "Ġcreatures": 4453,
      "urance": 4454,
      "Ġcapac": 4455,
      "Ġx": 4456,
      "ĠSystem": 4457,
      "down": 4458,
      "Ġ:": 4459,
      "PI": 4460,
      "Ġwine": 4461,
      "Ġmeat": 4462,
      "Ġoccas": 4463,
      "Ġsolution": 4464,
      "Ġcoffee": 4465,
      "Ġmo": 4466,
      "ĠParis": 4467,
      "Ġconcerns": 4468,
      "arp": 4469,
      "Ġabilities": 4470,
      "ĠCentral": 4471,
      "Ġregularly": 4472,
      "vin": 4473,
      "Ġcuis": 4474,
      "Ġpet": 4475,
      "Ġnarr": 4476,
      "Ġrequest": 4477,
      "Ġcompared": 4478,
      "Ġreviews": 4479,
      "Ġcer": 4480,
      "Ġaffected": 4481,
      "ĠCO": 4482,
      "oses": 4483,
      "Ġrequirements": 4484,
      "olk": 4485,
      "unction": 4486,
      "Ġsigned": 4487,
      "Ġcombination": 4488,
      "ously": 4489,
      "bour": 4490,
      "Ġfounded": 4491,
      "ĠWil": 4492,
      "ĠSpanish": 4493,
      "Ġsometimes": 4494,
      "Ġlived": 4495,
      "oles": 4496,
      "Ġsharing": 4497,
      "Ġsculpt": 4498,
      "Ġmodels": 4499,
      "Ġleague": 4500,
      "Ġcomputer": 4501,
      "itter": 4502,
      "Ġmusical": 4503,
      "Ġprocesses": 4504,
      "Ġinfluenced": 4505,
      "Ġmeeting": 4506,
      "Â°": 4507,
      "force": 4508,
      "Ġcommunicate": 4509,
      "Ġregions": 4510,
      "Ġreduced": 4511,
      "ned": 4512,
      "pec": 4513,
      "vis": 4514,
      "elligence": 4515,
      "She": 4516,
      "rim": 4517,
      "Ġvisitors": 4518,
      "Ġalbums": 4519,
      "Ġanalyze": 4520,
      "ĠGold": 4521,
      "Ġpush": 4522,
      "ĠSing": 4523,
      "Ġpassion": 4524,
      "Ġdirected": 4525,
      "Ġproperties": 4526,
      "fit": 4527,
      "iable": 4528,
      "ĠLouis": 4529,
      "Ġrecorded": 4530,
      "Ġship": 4531,
      "Ġoutcomes": 4532,
      "ĠPress": 4533,
      "ores": 4534,
      "ĠAcademy": 4535,
      "Ġcoast": 4536,
      "hi": 4537,
      "ĠCong": 4538,
      "ĠAI": 4539,
      "Ġfinding": 4540,
      "Am": 4541,
      "ĠFin": 4542,
      "Ġremained": 4543,
      "--------": 4544,
      "Ġprinc": 4545,
      "ĠCarol": 4546,
      "fess": 4547,
      "ĠCook": 4548,
      "unk": 4549,
      "ĠDis": 4550,
      "ifications": 4551,
      "ĠYear": 4552,
      "Ġready": 4553,
      "ifying": 4554,
      "icing": 4555,
      "Ġforces": 4556,
      "zy": 4557,
      "imb": 4558,
      "Ġtechnique": 4559,
      "Ġwat": 4560,
      "ĠTake": 4561,
      "lude": 4562,
      "Ġbenefit": 4563,
      "Ġcommercial": 4564,
      "29": 4565,
      "ĠCle": 4566,
      "ĠOlympics": 4567,
      "ĠPlay": 4568,
      "Ġimplementing": 4569,
      "Ġauthent": 4570,
      "Ġtheme": 4571,
      "Ġprem": 4572,
      "Ġcomfortable": 4573,
      "rem": 4574,
      "ĠMod": 4575,
      "ĠDel": 4576,
      "ero": 4577,
      "ĠPlease": 4578,
      "ĠManag": 4579,
      "arily": 4580,
      "ĠRev": 4581,
      "Ġsecret": 4582,
      "Ġsignificance": 4583,
      "ourage": 4584,
      "Ġnavigate": 4585,
      "Ġdrug": 4586,
      "Ġrevenue": 4587,
      "Ġfruit": 4588,
      "ĠSummer": 4589,
      "Ġder": 4590,
      "aked": 4591,
      "Ġremote": 4592,
      "Ġfinish": 4593,
      "ĠNot": 4594,
      "ĠWhite": 4595,
      "Ġcarry": 4596,
      "Ġchem": 4597,
      "oration": 4598,
      "Ġteasp": 4599,
      "Ġstructures": 4600,
      "||": 4601,
      "change": 4602,
      "abilities": 4603,
      "Ġpair": 4604,
      "Ġappropriate": 4605,
      "ĠTown": 4606,
      "ersonal": 4607,
      "Ġbound": 4608,
      "Ġerror": 4609,
      "Ġvan": 4610,
      "Ġatmosphere": 4611,
      "berg": 4612,
      "Ġwonder": 4613,
      "apter": 4614,
      "ada": 4615,
      "Ġfeatured": 4616,
      "ĠTex": 4617,
      "ota": 4618,
      "Ġeye": 4619,
      "Ġepisode": 4620,
      "Ġdesired": 4621,
      "Ġmyself": 4622,
      "ĠKore": 4623,
      "Ġtone": 4624,
      "Ġstra": 4625,
      "Ġoptimize": 4626,
      "west": 4627,
      "Ġmap": 4628,
      "Ġang": 4629,
      "Ġcold": 4630,
      "ĠHam": 4631,
      "Ġresil": 4632,
      "AN": 4633,
      "Ġbank": 4634,
      "ĠOther": 4635,
      "Ġpassage": 4636,
      "Ġsen": 4637,
      "Ġthinking": 4638,
      "Ġalumni": 4639,
      "Ġstreet": 4640,
      "Ġreligious": 4641,
      "liam": 4642,
      "Ġinnovative": 4643,
      "Ġfields": 4644,
      "Ġtruly": 4645,
      "oviet": 4646,
      "Ġcandid": 4647,
      "Ġmusc": 4648,
      "ĠArch": 4649,
      "rael": 4650,
      "ensity": 4651,
      "host": 4652,
      "oper": 4653,
      "attle": 4654,
      "Ġearlier": 4655,
      "Ġinvolve": 4656,
      "ga": 4657,
      "Ġcit": 4658,
      "ĠCamp": 4659,
      "Ġprompt": 4660,
      "Ġharm": 4661,
      "ava": 4662,
      "ĠStr": 4663,
      "Ġec": 4664,
      "Ġeight": 4665,
      "Ġemployee": 4666,
      "Ġcompletely": 4667,
      "ĠRail": 4668,
      "Ġchampions": 4669,
      "agn": 4670,
      "Ġbattle": 4671,
      "Ġemissions": 4672,
      "Ġsets": 4673,
      "Ġstandard": 4674,
      "De": 4675,
      "azine": 4676,
      "zil": 4677,
      "Ġfra": 4678,
      "left": 4679,
      "Ġsky": 4680,
      "Ġcoach": 4681,
      "Ġglass": 4682,
      "ogue": 4683,
      "Ġtrends": 4684,
      "Ġsummary": 4685,
      "Ġriver": 4686,
      "Ġsequ": 4687,
      "ĠDepartment": 4688,
      "Ġcondition": 4689,
      "Ġdegree": 4690,
      "Ġintroduced": 4691,
      "ĠBook": 4692,
      "Ġinvent": 4693,
      "Ġlooked": 4694,
      "Ġinstance": 4695,
      "Ġtrip": 4696,
      "Ġaffordable": 4697,
      "oo": 4698,
      "Ġreact": 4699,
      "Ġlaun": 4700,
      "igr": 4701,
      "ells": 4702,
      "Ġaircraft": 4703,
      "works": 4704,
      "ĠMem": 4705,
      "ffect": 4706,
      "agonist": 4707,
      "iration": 4708,
      "ictor": 4709,
      "bl": 4710,
      "Ġcells": 4711,
      "fl": 4712,
      "ĠFore": 4713,
      "Ġradio": 4714,
      "wide": 4715,
      "ĠBal": 4716,
      "pping": 4717,
      "Ġvia": 4718,
      "Ġreaders": 4719,
      "60": 4720,
      "hab": 4721,
      "Ġshel": 4722,
      "Ġdecisions": 4723,
      "Ġanyone": 4724,
      "Ġcritic": 4725,
      "eper": 4726,
      "liament": 4727,
      "anging": 4728,
      "Ġfeat": 4729,
      "Ġbelief": 4730,
      "nament": 4731,
      "Ġimpacts": 4732,
      "Ġurban": 4733,
      "Ġeffectiveness": 4734,
      "ĠRad": 4735,
      "ĠBre": 4736,
      "rd": 4737,
      "Ġschol": 4738,
      "Ġcooked": 4739,
      "Ġclasses": 4740,
      "Ġbasic": 4741,
      "Ġsatisfaction": 4742,
      "ensus": 4743,
      "uilding": 4744,
      "ĠFacebook": 4745,
      "gredients": 4746,
      "Ġsem": 4747,
      "ĠPlan": 4748,
      "Ġflavors": 4749,
      "lands": 4750,
      "orders": 4751,
      "gypt": 4752,
      "aks": 4753,
      "Ġspot": 4754,
      "EN": 4755,
      "Ġmaster": 4756,
      "Ġprefer": 4757,
      "Ġsinger": 4758,
      "Ġmoving": 4759,
      "Ġmist": 4760,
      "icks": 4761,
      "Ġ1980": 4762,
      "ibly": 4763,
      "Ġexploring": 4764,
      "Ġleads": 4765,
      "Ġmissing": 4766,
      "Ġvalid": 4767,
      "Äģ": 4768,
      "Ġbrief": 4769,
      "cho": 4770,
      "Ġdepression": 4771,
      "à¤": 4772,
      "Ġaccur": 4773,
      "ĠKingdom": 4774,
      "Ġlatest": 4775,
      "enty": 4776,
      "ĠFrank": 4777,
      "Ġnames": 4778,
      "Ġsurrounding": 4779,
      "atitude": 4780,
      "Ġsignificantly": 4781,
      "Ġwest": 4782,
      "Ġresulting": 4783,
      "Ġsuccessfully": 4784,
      "Ġliterature": 4785,
      "Ġshowcase": 4786,
      "onial": 4787,
      "ĠEmp": 4788,
      "Ġconflict": 4789,
      "Ġleadership": 4790,
      "FA": 4791,
      "va": 4792,
      "Ġstorm": 4793,
      "Ġslightly": 4794,
      "Ġnearby": 4795,
      "inner": 4796,
      "Ġremains": 4797,
      "Comp": 4798,
      "Ġshot": 4799,
      "ĠScience": 4800,
      "ĠRecords": 4801,
      "ognitive": 4802,
      "ĠĠĠĠĠĠĠĠĠĠĠĠĠĠĠĠĠĠĠĠĠĠĠĠĠĠĠĠĠĠĠĠ": 4803,
      "Ġcuisine": 4804,
      "Ġamb": 4805,
      "ycling": 4806,
      "Ġaf": 4807,
      "Ġahead": 4808,
      "ection": 4809,
      "Ġultimately": 4810,
      "))": 4811,
      "Ġstations": 4812,
      "Ġreader": 4813,
      "Ġtopics": 4814,
      "Ġcreation": 4815,
      "Ġfunding": 4816,
      "enses": 4817,
      "Ġpap": 4818,
      "Ġheav": 4819,
      "Ġelected": 4820,
      "Ġrecipes": 4821,
      "Ġdu": 4822,
      "Ġalthough": 4823,
      "allery": 4824,
      "Ġcontrast": 4825,
      "Ġimmers": 4826,
      "Ġillustr": 4827,
      "Ġdro": 4828,
      "Ġconvey": 4829,
      "Ġowners": 4830,
      "Ġdevice": 4831,
      "List": 4832,
      "ĠCatholic": 4833,
      "ĠGood": 4834,
      "istry": 4835,
      "ĠDet": 4836,
      "Ġchance": 4837,
      "Ġnorm": 4838,
      "Ġnothing": 4839,
      "Ġeast": 4840,
      "Ġpatient": 4841,
      "Ġ1970": 4842,
      "Ġphotos": 4843,
      "ĠEach": 4844,
      "bre": 4845,
      "ĠSant": 4846,
      "SS": 4847,
      "Ġblend": 4848,
      "Ġseparate": 4849,
      "ĠCat": 4850,
      "Ġrise": 4851,
      "Ġgarden": 4852,
      "Ġmixed": 4853,
      "Ġeggs": 4854,
      "ien": 4855,
      "utch": 4856,
      "atively": 4857,
      "Ġsliced": 4858,
      "iant": 4859,
      "Ġresidents": 4860,
      "oves": 4861,
      "Ġonion": 4862,
      "water": 4863,
      "Ġcontemporary": 4864,
      "Ġdrink": 4865,
      "ĠProvide": 4866,
      "icago": 4867,
      "Ġdiverse": 4868,
      "ounds": 4869,
      "reme": 4870,
      "Ġcateg": 4871,
      "ĠMore": 4872,
      "Ġdriving": 4873,
      "Ġcatch": 4874,
      "ĠVirgin": 4875,
      "uge": 4876,
      "ĊĠĠ": 4877,
      "Ġtold": 4878,
      "ĠTour": 4879,
      "ĠMark": 4880,
      "Ġplaced": 4881,
      "ĠSmith": 4882,
      "abase": 4883,
      "Ġchain": 4884,
      "ĠSk": 4885,
      "Ġsector": 4886,
      "Ġ1999": 4887,
      "Ġdelivery": 4888,
      "Ġdetermined": 4889,
      "Ġconsequ": 4890,
      "tenance": 4891,
      "...": 4892,
      "Another": 4893,
      "Ġreplace": 4894,
      "ĠService": 4895,
      "Ġdom": 4896,
      "ĠVis": 4897,
      "Ġapprox": 4898,
      "ĠStart": 4899,
      "cription": 4900,
      "Ġteaspoon": 4901,
      "Ġver": 4902,
      "Ġappearance": 4903,
      "Ġschedule": 4904,
      "oma": 4905,
      "Ġdynam": 4906,
      "BA": 4907,
      "Ġking": 4908,
      "onds": 4909,
      "ĠTor": 4910,
      "ĠLaw": 4911,
      "Ġcorrect": 4912,
      "ĠClass": 4913,
      "ĠChoose": 4914,
      "ĠMel": 4915,
      "Ġdoesn": 4916,
      "ĠCharles": 4917,
      "ĠFestival": 4918,
      "Ġvisually": 4919,
      "Ġchannels": 4920,
      "Ġkilled": 4921,
      "Ġcapital": 4922,
      "Ġic": 4923,
      "Ġconducted": 4924,
      "Ġlibrary": 4925,
      "Ġappreciate": 4926,
      "sembly": 4927,
      "Ġfab": 4928,
      "ders": 4929,
      "ĠSpace": 4930,
      "Ġrh": 4931,
      "Ġevol": 4932,
      "Ġtechnical": 4933,
      "ĠMexico": 4934,
      "Ġdecre": 4935,
      "ands": 4936,
      "Ġlemon": 4937,
      "Ġstruggles": 4938,
      "Ġcry": 4939,
      "Ġ()": 4940,
      "Ġban": 4941,
      "ums": 4942,
      "Ġprotagonist": 4943,
      "Ġfootballers": 4944,
      "Ġtracking": 4945,
      "ĠEarth": 4946,
      "Ġfemale": 4947,
      "New": 4948,
      "ĠOl": 4949,
      "arly": 4950,
      "ĠInf": 4951,
      "Ġaccessible": 4952,
      "Ġboost": 4953,
      "sure": 4954,
      "ĠCast": 4955,
      "Ph": 4956,
      "can": 4957,
      "ĠHistor": 4958,
      "icine": 4959,
      "Ġsoup": 4960,
      "Ġbul": 4961,
      "Ġlayer": 4962,
      "Ġcolle": 4963,
      "Ġlighting": 4964,
      "Ġobjects": 4965,
      "Ġeducational": 4966,
      "All": 4967,
      "Ġensuring": 4968,
      "ĠKeep": 4969,
      "Ġappointed": 4970,
      "Ġadopt": 4971,
      "ĠSub": 4972,
      "ĠFinally": 4973,
      "Ġdeeper": 4974,
      "Ġmorning": 4975,
      "Ġmoments": 4976,
      "Ġbecomes": 4977,
      "ette": 4978,
      "ĠMo": 4979,
      "Ġcourses": 4980,
      "ealand": 4981,
      "Ġeco": 4982,
      "Ġdefinitely": 4983,
      "fficient": 4984,
      "Ġsustainability": 4985,
      "Ġclosed": 4986,
      "Ġkm": 4987,
      "Ġasked": 4988,
      "ĠTer": 4989,
      "ĠJour": 4990,
      "ĠOpen": 4991,
      "Ġopening": 4992,
      "isk": 4993,
      "Ġcompos": 4994,
      "igen": 4995,
      "Ġexcept": 4996,
      "ĠJo": 4997,
      "road": 4998,
      "Ġreason": 4999,
      "ĠZealand": 5000,
      "onut": 5001,
      "Ġcourt": 5002,
      "ĠTexas": 5003,
      "Ġseven": 5004,
      "eless": 5005,
      "ĠRob": 5006,
      "Ġprofessionals": 5007,
      "Ġcontinues": 5008,
      "Ġwall": 5009,
      "Ġdespite": 5010,
      "Ġsimply": 5011,
      "ĠOver": 5012,
      "Ġunits": 5013,
      "ĊĠĊ": 5014,
      "Ġcombined": 5015,
      "ĠSil": 5016,
      "Ġjoy": 5017,
      "gra": 5018,
      "Ġrisks": 5019,
      "eries": 5020,
      "Ġconstruct": 5021,
      "ittle": 5022,
      "tered": 5023,
      "Ġmedal": 5024,
      "ĠDesign": 5025,
      "atre": 5026,
      "ĠWater": 5027,
      "Ġfigure": 5028,
      "mission": 5029,
      "oons": 5030,
      "Ã³n": 5031,
      "Ġsatisf": 5032,
      "Ġsuffer": 5033,
      "Ġcultures": 5034,
      "Ġresearc": 5035,
      "ĠId": 5036,
      "Ġ31": 5037,
      "Ġspecifically": 5038,
      "Ġspices": 5039,
      "Ġcovered": 5040,
      "Ġpreviously": 5041,
      "Your": 5042,
      "Ġquant": 5043,
      "Ã¨": 5044,
      "ĠBur": 5045,
      "ĠLos": 5046,
      "ockey": 5047,
      "ĠCheck": 5048,
      "Ġhoney": 5049,
      "ĠDan": 5050,
      "Ġsched": 5051,
      "Ġstores": 5052,
      "gment": 5053,
      "ĠPublic": 5054,
      "zing": 5055,
      "ĠArts": 5056,
      "ĠHenry": 5057,
      "uke": 5058,
      "ĠEducation": 5059,
      "Ġtomatoes": 5060,
      "Ġathlet": 5061,
      "Ġmood": 5062,
      "ĠLake": 5063,
      "Ġpolitician": 5064,
      "atur": 5065,
      "ĠProgram": 5066,
      "Ġexisting": 5067,
      "iled": 5068,
      "lim": 5069,
      "orough": 5070,
      "Ġadvice": 5071,
      "lor": 5072,
      "Ġflowers": 5073,
      "Ġuseful": 5074,
      "ĠOff": 5075,
      "Ġclient": 5076,
      "Ġcreativity": 5077,
      "Ġoutdoor": 5078,
      ".)": 5079,
      "iana": 5080,
      "Ġpredict": 5081,
      "gent": 5082,
      "ship": 5083,
      "ocal": 5084,
      "ĠEgypt": 5085,
      "Ġdecl": 5086,
      "ĠSoviet": 5087,
      "Ġrom": 5088,
      "Ġrepe": 5089,
      "Ã¤": 5090,
      "ĠMax": 5091,
      "aby": 5092,
      "iately": 5093,
      "Ġplastic": 5094,
      "ĠOld": 5095,
      "Ġdistribution": 5096,
      "Ġdedicated": 5097,
      "Ġfat": 5098,
      "ĠSwed": 5099,
      "ĠJose": 5100,
      "efore": 5101,
      "Ġgather": 5102,
      "encing": 5103,
      "Ġmaintaining": 5104,
      "Ġwalking": 5105,
      "80": 5106,
      "Ġapart": 5107,
      "tra": 5108,
      "Ġir": 5109,
      "Ġparticipants": 5110,
      "Ġisol": 5111,
      "ĠOh": 5112,
      "Can": 5113,
      "des": 5114,
      "part": 5115,
      "ĠFilm": 5116,
      "Ġsessions": 5117,
      "ĠWomen": 5118,
      "Ġdoor": 5119,
      "Ġaspects": 5120,
      "ocratic": 5121,
      "Ġlaunched": 5122,
      "ĠSun": 5123,
      "ĠFlor": 5124,
      "ĠAnother": 5125,
      "found": 5126,
      "oul": 5127,
      "Ġmit": 5128,
      "ĠRock": 5129,
      "acific": 5130,
      "odies": 5131,
      "Ġweak": 5132,
      "Ġparticipate": 5133,
      "Ġdip": 5134,
      "umin": 5135,
      "Ġvul": 5136,
      "iking": 5137,
      "Ġanalytics": 5138,
      "Ġinspired": 5139,
      "Ġentertain": 5140,
      "ht": 5141,
      "Ġmunicip": 5142,
      "ila": 5143,
      "osen": 5144,
      "Ġbelong": 5145,
      "Ġchanging": 5146,
      "wa": 5147,
      "ĠSom": 5148,
      "ĠVictor": 5149,
      "ĠBrown": 5150,
      "Ġfestival": 5151,
      "ĠDirect": 5152,
      "ishop": 5153,
      "ĠCr": 5154,
      "ĠIsrael": 5155,
      "ĠInstagram": 5156,
      "Ġalgorithm": 5157,
      "iÄ": 5158,
      "ady": 5159,
      "Ġworkout": 5160,
      "Ġmanager": 5161,
      "Ġanimal": 5162,
      "ĠItaly": 5163,
      "Ġgod": 5164,
      "Ġstatistics": 5165,
      "ompl": 5166,
      "Ġcrisp": 5167,
      "Ġmetal": 5168,
      "words": 5169,
      "Ġdepth": 5170,
      "name": 5171,
      "eline": 5172,
      "ĠHistory": 5173,
      "Ġstret": 5174,
      "Ġobtain": 5175,
      "ĠMass": 5176,
      "Ġengaged": 5177,
      "yr": 5178,
      "Ġhidden": 5179,
      "ĠBu": 5180,
      "Ġpod": 5181,
      "Ġbuy": 5182,
      "Ġplanet": 5183,
      "ĠConst": 5184,
      "ĠMix": 5185,
      "Ġfilling": 5186,
      "Ġoccup": 5187,
      "ĠCourt": 5188,
      "Ġhar": 5189,
      "ocks": 5190,
      "Ġcomment": 5191,
      "Ġmemories": 5192,
      "Ġrecommended": 5193,
      "Ġhighest": 5194,
      "Ġapply": 5195,
      "Instructions": 5196,
      "ancy": 5197,
      "ĠBusiness": 5198,
      "Ġhabit": 5199,
      "night": 5200,
      "Ġclick": 5201,
      "Ġprincip": 5202,
      "IS": 5203,
      "Ġrow": 5204,
      "Ġpul": 5205,
      "ĠSpr": 5206,
      "Ġstars": 5207,
      "ĠDisc": 5208,
      "Ġrestaurants": 5209,
      "('": 5210,
      "rooms": 5211,
      "ĠHill": 5212,
      "ĠHot": 5213,
      "ĠDespite": 5214,
      "ĠRemember": 5215,
      "Ġocean": 5216,
      "ĠFound": 5217,
      "Ġobstacles": 5218,
      "Ġfeaturing": 5219,
      "ĠHy": 5220,
      "rich": 5221,
      "Ġbasketball": 5222,
      "Ġweap": 5223,
      "ĠChicago": 5224,
      "Ġpotatoes": 5225,
      "Ġmicro": 5226,
      "Ġpricing": 5227,
      "Ġpoetry": 5228,
      "Ġruns": 5229,
      "where": 5230,
      "Ġbeg": 5231,
      "Ġquite": 5232,
      "Ġfair": 5233,
      "rans": 5234,
      "Ġpages": 5235,
      "ansion": 5236,
      "Ġspaces": 5237,
      "Ġchocolate": 5238,
      "ĠLove": 5239,
      "Ġherbs": 5240,
      "Ġindic": 5241,
      "mark": 5242,
      "Ġorganic": 5243,
      "If": 5244,
      "fast": 5245,
      "flow": 5246,
      "Ġcognitive": 5247,
      "Ġwalls": 5248,
      "Ġmanaged": 5249,
      "Ġolder": 5250,
      "Ġmis": 5251,
      "Ġpen": 5252,
      "Ġannual": 5253,
      "Ġden": 5254,
      "ĠTest": 5255,
      "Ġload": 5256,
      "Ġnutrition": 5257,
      "Ġviews": 5258,
      "Ġemerg": 5259,
      "Ġimmediately": 5260,
      "Ġprogramming": 5261,
      "Ġarrang": 5262,
      "amily": 5263,
      "idae": 5264,
      "uts": 5265,
      "Ġimplementation": 5266,
      "ĠTime": 5267,
      "ĠEst": 5268,
      "Ġstronger": 5269,
      "Ġpand": 5270,
      "Ġfacilities": 5271,
      "Ġscientific": 5272,
      "ĠRichard": 5273,
      "ĠUp": 5274,
      "gu": 5275,
      "ĠSol": 5276,
      "ĠMain": 5277,
      "Ġrap": 5278,
      "Ġdough": 5279,
      "Ġbottom": 5280,
      "ĠPeter": 5281,
      "Ġsupporting": 5282,
      "ĠEmma": 5283,
      "Ġprob": 5284,
      "Ġsubsequ": 5285,
      "hetic": 5286,
      "kin": 5287,
      "Ġvegetable": 5288,
      "lick": 5289,
      "ĠScot": 5290,
      "ĠLily": 5291,
      "Ġdestroy": 5292,
      "Ġcapacity": 5293,
      "inate": 5294,
      "rix": 5295,
      "Ġintelligence": 5296,
      "Ġphil": 5297,
      "Ġcreates": 5298,
      "Sp": 5299,
      "Ġtaught": 5300,
      "Ġ185": 5301,
      "Ġbrands": 5302,
      "Eng": 5303,
      "uration": 5304,
      "ĠBill": 5305,
      "Ġconnected": 5306,
      "ĠTop": 5307,
      "Ġplot": 5308,
      "Ġspl": 5309,
      "ppers": 5310,
      "Ġtwist": 5311,
      "Ġproperly": 5312,
      "ĠBudd": 5313,
      "Ġcapture": 5314,
      "ĠStar": 5315,
      "John": 5316,
      "Ġbeat": 5317,
      "Ġtraditions": 5318,
      "Ġaccompl": 5319,
      "Ġcommonly": 5320,
      "Ġwhose": 5321,
      "ev": 5322,
      "Ġfuel": 5323,
      "Ġsituations": 5324,
      "Gener": 5325,
      "Ġcra": 5326,
      "ĠWal": 5327,
      "ĠLife": 5328,
      "ups": 5329,
      "pass": 5330,
      "ateful": 5331,
      "reland": 5332,
      "Ġdog": 5333,
      "orporate": 5334,
      "?\"": 5335,
      "ario": 5336,
      "Ġ1996": 5337,
      "Ġvary": 5338,
      "Ġprepar": 5339,
      "irection": 5340,
      "Ġapproximately": 5341,
      "ĠWork": 5342,
      "Ġcert": 5343,
      "Ġfro": 5344,
      "Ġkept": 5345,
      "ront": 5346,
      "isms": 5347,
      "ĠMa": 5348,
      "istan": 5349,
      "azon": 5350,
      "Ġlegal": 5351,
      "ĠFootball": 5352,
      "Ġwealth": 5353,
      "pty": 5354,
      "Ġcro": 5355,
      "Ġapps": 5356,
      "ĠStep": 5357,
      "oes": 5358,
      "Ġboy": 5359,
      "Ġgratitude": 5360,
      "ĠMinister": 5361,
      "Ġnotable": 5362,
      "och": 5363,
      "Ġsac": 5364,
      "Ġstatement": 5365,
      "ĠChampionships": 5366,
      "Ġcerem": 5367,
      "anguages": 5368,
      "Ġdescription": 5369,
      "Ġforced": 5370,
      "Ġshopping": 5371,
      "Ġdisapp": 5372,
      "ushed": 5373,
      "inals": 5374,
      "ĠWind": 5375,
      "Ġfloor": 5376,
      "Res": 5377,
      "ĠPan": 5378,
      "Ġestim": 5379,
      "Ġprices": 5380,
      "Ġcontext": 5381,
      "Ġwaves": 5382,
      "Ġposts": 5383,
      "ptoms": 5384,
      "Ġguidance": 5385,
      "ĊĠĠĠĠĠĠĠĠĠĠĠĠĠĠĠ": 5386,
      "Ġru": 5387,
      "Ġswim": 5388,
      "Ġvulner": 5389,
      "Ġcrow": 5390,
      "Ġclothing": 5391,
      "ĠHey": 5392,
      "Ġoriginally": 5393,
      "Ġwit": 5394,
      "Ġdefend": 5395,
      "Ġwinning": 5396,
      "Ġpoor": 5397,
      "Ġfram": 5398,
      "ĠLand": 5399,
      "Ġserves": 5400,
      "Ġsensory": 5401,
      "well": 5402,
      "stand": 5403,
      "Ġmatches": 5404,
      "itchen": 5405,
      "Ġdiscount": 5406,
      "ĠPeople": 5407,
      "Ġmonitor": 5408,
      "Ġcompetitive": 5409,
      "ĠExp": 5410,
      "hire": 5411,
      "Ġexcl": 5412,
      "Ġhyd": 5413,
      "gl": 5414,
      "Ġrural": 5415,
      "Ġextensive": 5416,
      "Ġhomes": 5417,
      "Ġescape": 5418,
      "itle": 5419,
      "estyle": 5420,
      "Ġcolumn": 5421,
      "ban": 5422,
      "Ġlic": 5423,
      "ibilities": 5424,
      "Ġassistant": 5425,
      "yan": 5426,
      "ĠDen": 5427,
      "ĠBrazil": 5428,
      "Ġloyalty": 5429,
      "ĠTre": 5430,
      "Ġfoods": 5431,
      "Ġreput": 5432,
      "ĠSoph": 5433,
      "Ġpresented": 5434,
      "Ġlandscape": 5435,
      "ĠRet": 5436,
      "overty": 5437,
      "Ġstudio": 5438,
      "Ġfunctions": 5439,
      "Ġextract": 5440,
      "Ġresearchers": 5441,
      "Ġstated": 5442,
      "Ġnotes": 5443,
      "AM": 5444,
      "erts": 5445,
      "Ġtele": 5446,
      "Ġunit": 5447,
      "Ġsites": 5448,
      "Ġmovements": 5449,
      "going": 5450,
      "ĠMarketing": 5451,
      "formation": 5452,
      "ĠSecond": 5453,
      "ĠAngeles": 5454,
      "org": 5455,
      "Ġgives": 5456,
      "IC": 5457,
      "uman": 5458,
      "Ġterrit": 5459,
      "ĠEmpire": 5460,
      "Ġmeals": 5461,
      "Ġinterface": 5462,
      "Ġcontributed": 5463,
      "ĊĊĠĠĠ": 5464,
      "people": 5465,
      "Ġspr": 5466,
      "ault": 5467,
      "Ġfirm": 5468,
      "ĠThrough": 5469,
      "Ġreports": 5470,
      "Ġdescriptions": 5471,
      "making": 5472,
      "ystem": 5473,
      "Ġjobs": 5474,
      ",âĢĿ": 5475,
      "Ġincent": 5476,
      "Ġscore": 5477,
      "rid": 5478,
      "Ġmaintenance": 5479,
      "Ġactor": 5480,
      "UT": 5481,
      "add": 5482,
      "Ġsuc": 5483,
      "Ġrecognition": 5484,
      "Ġindependent": 5485,
      "Ġwr": 5486,
      "ommod": 5487,
      "Ġmusicians": 5488,
      "Ġperformances": 5489,
      "ĠAtl": 5490,
      "iors": 5491,
      "Ġdifferences": 5492,
      "Ġgun": 5493,
      "unting": 5494,
      "Ġexpression": 5495,
      "ĠPract": 5496,
      "Ġ1960": 5497,
      "ĠSqu": 5498,
      "Ġsoul": 5499,
      "Ġsusp": 5500,
      "oken": 5501,
      "ivals": 5502,
      "Ġvibr": 5503,
      "Ġentered": 5504,
      "Ġmenu": 5505,
      "Ġinnovation": 5506,
      "Ġgre": 5507,
      "Ġconcent": 5508,
      "Ġgrant": 5509,
      "Ġselected": 5510,
      "PS": 5511,
      "real": 5512,
      "Ġcannot": 5513,
      "areer": 5514,
      "aph": 5515,
      "Ġ1997": 5516,
      "win": 5517,
      "Ġple": 5518,
      "Ġadds": 5519,
      "Ġforeign": 5520,
      "Ġintric": 5521,
      "Ġ1995": 5522,
      "Ġmountain": 5523,
      "Ġperspective": 5524,
      "Ġfarmers": 5525,
      "Ġresilience": 5526,
      "Ġprocessing": 5527,
      "vention": 5528,
      "Col": 5529,
      "Mus": 5530,
      "iano": 5531,
      "sm": 5532,
      "whel": 5533,
      "Ġenab": 5534,
      "Ġrat": 5535,
      "igan": 5536,
      "Ġgoes": 5537,
      "ographic": 5538,
      "Ġfourth": 5539,
      "Ġconsequences": 5540,
      "Ġroles": 5541,
      "Ġ60": 5542,
      "Ġmetrics": 5543,
      "Ġreplaced": 5544,
      "Ġcomponents": 5545,
      "ĠJournal": 5546,
      "inations": 5547,
      "Ġcausing": 5548,
      "Ġmanufacturing": 5549,
      "Ġmut": 5550,
      "Ġgift": 5551,
      "rows": 5552,
      "crib": 5553,
      "ttps": 5554,
      "num": 5555,
      "Ġlocations": 5556,
      "ĠMedia": 5557,
      "Ġconsistent": 5558,
      "Ġraised": 5559,
      "Ġjoin": 5560,
      "Ġpaid": 5561,
      "Ġstruggle": 5562,
      "ĠCongress": 5563,
      "Ġseasons": 5564,
      "ĠRussia": 5565,
      "Despite": 5566,
      "Ġprioritize": 5567,
      "Ã±": 5568,
      "Ġven": 5569,
      "Ġtrou": 5570,
      "Ġlisted": 5571,
      "Em": 5572,
      "Ġtro": 5573,
      "oli": 5574,
      "Ġsnow": 5575,
      "sol": 5576,
      "Ġsides": 5577,
      "Ġorganized": 5578,
      "Ġillness": 5579,
      "Ġsettings": 5580,
      "Ġpros": 5581,
      "Ġarm": 5582,
      "Ġsurpr": 5583,
      "Ġassist": 5584,
      "Ġstruggling": 5585,
      "Ġstunning": 5586,
      "Ġgenerally": 5587,
      "Ġcups": 5588,
      "ĠElect": 5589,
      "Ġcontroll": 5590,
      "Ġadventure": 5591,
      "45": 5592,
      "itoring": 5593,
      "Ġbeach": 5594,
      "ĠAsia": 5595,
      "Ġconfident": 5596,
      "ja": 5597,
      "ingu": 5598,
      "Ġremaining": 5599,
      "ĠCustom": 5600,
      "Ġ2023": 5601,
      "lis": 5602,
      "mas": 5603,
      "Ġhospital": 5604,
      "lear": 5605,
      "Ġ1992": 5606,
      "ĠEnc": 5607,
      "Ge": 5608,
      "Ġmurder": 5609,
      "ĠNorthern": 5610,
      "ĠSpain": 5611,
      "Ġneighbor": 5612,
      "Ġcab": 5613,
      "Ġshad": 5614,
      "Ġcrew": 5615,
      "Ġpollut": 5616,
      "FC": 5617,
      "ĠMer": 5618,
      "Ġscored": 5619,
      "ĠCarolina": 5620,
      "FL": 5621,
      "Ġpu": 5622,
      "Ġsurvey": 5623,
      "Ġprepare": 5624,
      "Ġcomments": 5625,
      "75": 5626,
      "ighter": 5627,
      "Ġhousing": 5628,
      "Ġsymptoms": 5629,
      "Ġoverwhel": 5630,
      "AY": 5631,
      "ao": 5632,
      "ias": 5633,
      "Ġteaching": 5634,
      "Ġuniversity": 5635,
      "Ġdepartment": 5636,
      "Ġembra": 5637,
      "bur": 5638,
      "bles": 5639,
      "ĠPet": 5640,
      "Ġarticles": 5641,
      "Ġengineering": 5642,
      "Ġtalent": 5643,
      "irus": 5644,
      "Ġmagic": 5645,
      "Ġproposed": 5646,
      "top": 5647,
      "ĠFlorida": 5648,
      "Ġbeans": 5649,
      "Ġspin": 5650,
      "Ġpoems": 5651,
      "ĠAnn": 5652,
      "ĠUsing": 5653,
      "Ġdouble": 5654,
      "ĠVirginia": 5655,
      "ĠWood": 5656,
      "ĠRel": 5657,
      "Ġconsult": 5658,
      "ĠAlthough": 5659,
      "war": 5660,
      "Ġdistinct": 5661,
      "ĠPlace": 5662,
      "Ġpayment": 5663,
      "ython": 5664,
      "elines": 5665,
      "Ġran": 5666,
      "ati": 5667,
      "Ġcoconut": 5668,
      "].": 5669,
      "ED": 5670,
      "ocado": 5671,
      "Ġbirds": 5672,
      "amin": 5673,
      "Ġstock": 5674,
      "ĠProfess": 5675,
      "Ġmanaging": 5676,
      "Ġstick": 5677,
      "ĠIrish": 5678,
      "resp": 5679,
      "Ġstream": 5680,
      "Ġshoot": 5681,
      "sole": 5682,
      "Ġwed": 5683,
      "Ġdim": 5684,
      "ĠEr": 5685,
      "Ġinstrument": 5686,
      "ĠLeg": 5687,
      "Ġlaunch": 5688,
      "izza": 5689,
      "Ġwebsites": 5690,
      "Ġreturns": 5691,
      "ugby": 5692,
      "Ġprepared": 5693,
      "Ġrespective": 5694,
      "Ġgent": 5695,
      "Ġappealing": 5696,
      "Ġheritage": 5697,
      "Rem": 5698,
      "usband": 5699,
      "Ġparties": 5700,
      "related": 5701,
      "Ġawarded": 5702,
      "Ġfle": 5703,
      "Ġfest": 5704,
      "ĠPenn": 5705,
      "Ġsummar": 5706,
      "Ġwinter": 5707,
      "Ġanti": 5708,
      "heast": 5709,
      "Ġspend": 5710,
      "ĠCap": 5711,
      "Ġimagery": 5712,
      "Ġpandemic": 5713,
      "ĠEvery": 5714,
      "Ġlistening": 5715,
      "verse": 5716,
      "Ġdiseases": 5717,
      "ĠSaint": 5718,
      "abeth": 5719,
      "Ġarts": 5720,
      "Ġvehicles": 5721,
      "erg": 5722,
      "asure": 5723,
      "Ġshop": 5724,
      "aren": 5725,
      "Ġworksh": 5726,
      "Ġtournament": 5727,
      "Ġimpl": 5728,
      "Ġ1994": 5729,
      "ua": 5730,
      "Ġtact": 5731,
      "erb": 5732,
      "Ġsays": 5733,
      "ĠBig": 5734,
      "Ġlanguages": 5735,
      "ĠShow": 5736,
      "uled": 5737,
      "ĠPost": 5738,
      "Ġassistance": 5739,
      "ĠMaybe": 5740,
      "Ġnuts": 5741,
      "US": 5742,
      "gian": 5743,
      "ĠHaw": 5744,
      "Ġvision": 5745,
      "Ġsucceed": 5746,
      "mus": 5747,
      "otic": 5748,
      "Ġedge": 5749,
      "ĠPacific": 5750,
      "Ġlabel": 5751,
      "Ġnutri": 5752,
      "Ġtablespoon": 5753,
      "ograp": 5754,
      "Ġimprovement": 5755,
      "Ġestablishments": 5756,
      "Ġslowly": 5757,
      "Ġadvantage": 5758,
      "ĠCur": 5759,
      "Ġbad": 5760,
      "Ġusage": 5761,
      "Ġyoga": 5762,
      "ĠArab": 5763,
      "ĠIreland": 5764,
      "Ġcloud": 5765,
      "Ġarms": 5766,
      "oday": 5767,
      "ĠAmazon": 5768,
      "Ġtut": 5769,
      "Ġforg": 5770,
      "oving": 5771,
      "value": 5772,
      "Ġspending": 5773,
      "file": 5774,
      "Ġpossess": 5775,
      "Ġsurvive": 5776,
      "lies": 5777,
      "watch": 5778,
      "Ġexpertise": 5779,
      "ĠDou": 5780,
      "Ġactress": 5781,
      "Ġenem": 5782,
      "Ġended": 5783,
      "Ġgeneration": 5784,
      "Ġtea": 5785,
      "Ġcurious": 5786,
      "iÄĩ": 5787,
      "Ġheight": 5788,
      "ager": 5789,
      "Ġsuitable": 5790,
      "Ġactually": 5791,
      "ĠOrder": 5792,
      "unct": 5793,
      "Ġexact": 5794,
      "Ġseek": 5795,
      "Ġwel": 5796,
      "Ġsupported": 5797,
      "Ġarrived": 5798,
      "ittee": 5799,
      "ĠHa": 5800,
      "osal": 5801,
      "ĠTwo": 5802,
      "Ġnode": 5803,
      "Ġideal": 5804,
      "kins": 5805,
      "Ġdiced": 5806,
      "Ingredients": 5807,
      "ĠMah": 5808,
      "Ġreliable": 5809,
      "Ġgoods": 5810,
      "Ġcalm": 5811,
      "Ġelectricity": 5812,
      "Ġtheory": 5813,
      "Ġconven": 5814,
      "Ġfiles": 5815,
      "Ġsuggests": 5816,
      "What": 5817,
      "Ġbroadcast": 5818,
      "TV": 5819,
      "Ġlabor": 5820,
      "Ġnewsp": 5821,
      "weight": 5822,
      "Ġconcise": 5823,
      "Ġconfidence": 5824,
      "Ġgrateful": 5825,
      "Ġmagn": 5826,
      "Ġwidely": 5827,
      "Ġast": 5828,
      "osure": 5829,
      "Ġwilling": 5830,
      "Ġseems": 5831,
      "oster": 5832,
      "Ġcouple": 5833,
      "During": 5834,
      "EC": 5835,
      "oned": 5836,
      "Ġmotivated": 5837,
      "cont": 5838,
      "ĠBi": 5839,
      "osh": 5840,
      "Ġmessages": 5841,
      "ste": 5842,
      "Ġshowed": 5843,
      "isco": 5844,
      "Ġattended": 5845,
      "Ġnarrative": 5846,
      "Ġdrama": 5847,
      "35": 5848,
      "à¸": 5849,
      "ctors": 5850,
      "Ġholding": 5851,
      "Ġcloser": 5852,
      "ĠColumb": 5853,
      "Ġaccommod": 5854,
      "athy": 5855,
      "Ġspiritual": 5856,
      "Ġfans": 5857,
      "una": 5858,
      "Ġassociation": 5859,
      "Ġtension": 5860,
      "repre": 5861,
      "ĠBased": 5862,
      "ĠEv": 5863,
      "Ġupdates": 5864,
      "reprene": 5865,
      "ĠTeam": 5866,
      "Ġmaximum": 5867,
      "Ġpoverty": 5868,
      "Ġuns": 5869,
      "Ġerr": 5870,
      "Or": 5871,
      "cious": 5872,
      "km": 5873,
      "ĠJohnson": 5874,
      "roduct": 5875,
      "clusion": 5876,
      "umes": 5877,
      "Ġlisten": 5878,
      "Ġcleaning": 5879,
      "Early": 5880,
      "orb": 5881,
      "see": 5882,
      "Ġfilter": 5883,
      "Ġstraight": 5884,
      "Fil": 5885,
      "inch": 5886,
      "Ġseat": 5887,
      "Ġcoord": 5888,
      "Ġkeeping": 5889,
      "Ġsession": 5890,
      "Ġdatabase": 5891,
      "Ġfascinating": 5892,
      "ĠLim": 5893,
      "Ġgolden": 5894,
      "Ġdivision": 5895,
      "ĠHel": 5896,
      "Ġsyn": 5897,
      "fficial": 5898,
      "zen": 5899,
      "Ġalive": 5900,
      "Ġchair": 5901,
      "Ġhotel": 5902,
      "Ġdefeated": 5903,
      "Ġprison": 5904,
      "ĠEnsure": 5905,
      "iny": 5906,
      "Ġdirection": 5907,
      "ĠRead": 5908,
      "ĠForm": 5909,
      "Ġcontainer": 5910,
      "Ġcitiz": 5911,
      "eek": 5912,
      "ylv": 5913,
      "Ġprofile": 5914,
      "Ġrevolution": 5915,
      "Ġincreasingly": 5916,
      "ech": 5917,
      "cher": 5918,
      "ali": 5919,
      "Ġmill": 5920,
      "Ġuniverse": 5921,
      "ĠCommunity": 5922,
      "ĠTechnology": 5923,
      "oted": 5924,
      "Ġbeef": 5925,
      "Ġ1991": 5926,
      "Ġdivid": 5927,
      "ĠLook": 5928,
      "Ġrepresented": 5929,
      "Ġsaying": 5930,
      "Ġintricate": 5931,
      "Ġimpacted": 5932,
      "Ġoperation": 5933,
      "Ġrecently": 5934,
      "AL": 5935,
      "gia": 5936,
      "ĠChild": 5937,
      "Ġbell": 5938,
      "ĠProm": 5939,
      "Ġjump": 5940,
      "ĠColl": 5941,
      "Mar": 5942,
      "agues": 5943,
      "Ġserious": 5944,
      "Ġconsumption": 5945,
      "Enter": 5946,
      "Ġsend": 5947,
      "Our": 5948,
      "So": 5949,
      "oral": 5950,
      "Ġcraft": 5951,
      "ĠFre": 5952,
      "Ġflood": 5953,
      "ĠUl": 5954,
      "ĠEnergy": 5955,
      "ĠCommission": 5956,
      "Ġfif": 5957,
      "ĠPolish": 5958,
      "Ġdangerous": 5959,
      "Ġhusband": 5960,
      "ĠIll": 5961,
      "Ġmeant": 5962,
      "mal": 5963,
      "Ġmarkets": 5964,
      "Ġappears": 5965,
      "Ġtsp": 5966,
      "Ġstanding": 5967,
      "Ġvictory": 5968,
      "Ġetc": 5969,
      "Ġcamera": 5970,
      "OR": 5971,
      "ĠFort": 5972,
      "Ġmoist": 5973,
      "sk": 5974,
      "inent": 5975,
      "ĠMost": 5976,
      "Ġalgorithms": 5977,
      "fu": 5978,
      "itate": 5979,
      "ĠMiddle": 5980,
      "âĢ¢": 5981,
      "Ġfollows": 5982,
      "Ġvast": 5983,
      "Ġunex": 5984,
      "Ġminor": 5985,
      "Ġtall": 5986,
      "ĠSir": 5987,
      "Ġempty": 5988,
      "ĠInstead": 5989,
      "Ġfabric": 5990,
      "From": 5991,
      "illet": 5992,
      "ĠUk": 5993,
      "ĠEngine": 5994,
      "Ġhumans": 5995,
      "Ġconnections": 5996,
      "class": 5997,
      "resents": 5998,
      "Ġcomplement": 5999,
      "Ġinspiration": 6000,
      "ĠValley": 6001,
      "Ġvine": 6002,
      "backs": 6003,
      "world": 6004,
      "edom": 6005,
      "rip": 6006,
      "ĠNavy": 6007,
      "Ġsister": 6008,
      "ĠProject": 6009,
      "ĠServe": 6010,
      "ĠManagement": 6011,
      "70": 6012,
      "ĠBlue": 6013,
      "Ġroute": 6014,
      "asy": 6015,
      "Ġcalls": 6016,
      "mm": 6017,
      "Ġcars": 6018,
      "Ġexchange": 6019,
      "Ġadvoc": 6020,
      "Ġelim": 6021,
      "ĠMartin": 6022,
      "heat": 6023,
      "Ġswe": 6024,
      "Ġrecords": 6025,
      "Ġvariations": 6026,
      "Ġpil": 6027,
      "asts": 6028,
      "Ġseeking": 6029,
      "Ġconsumers": 6030,
      "pan": 6031,
      "onom": 6032,
      "Ġalongside": 6033,
      "Ġfell": 6034,
      "Ġattacks": 6035,
      "Ġinitially": 6036,
      "iro": 6037,
      "Ġcounter": 6038,
      "ĠCross": 6039,
      "Ġenable": 6040,
      "Ġresource": 6041,
      "Ġguests": 6042,
      "urd": 6043,
      "ĠFollow": 6044,
      "erman": 6045,
      "Ġskill": 6046,
      "Ġrepresents": 6047,
      "Ġprotection": 6048,
      "ĠJim": 6049,
      "Acc": 6050,
      "Ġcovers": 6051,
      "Ġachieving": 6052,
      "Ġinteractions": 6053,
      "Ġnation": 6054,
      "Ġselection": 6055,
      "berries": 6056,
      "Ġstarts": 6057,
      "hand": 6058,
      "asters": 6059,
      "OS": 6060,
      "ta": 6061,
      "uation": 6062,
      "adium": 6063,
      "Ġphr": 6064,
      "rical": 6065,
      "90": 6066,
      "</": 6067,
      "gers": 6068,
      "ĠBas": 6069,
      "Ġ(\"": 6070,
      "ĠWall": 6071,
      "Ġ1988": 6072,
      "Ġcontest": 6073,
      "Don": 6074,
      "lights": 6075,
      "Ġeating": 6076,
      "lets": 6077,
      "Ġtransition": 6078,
      "ideo": 6079,
      "Ġexciting": 6080,
      "ĠQueen": 6081,
      "ĠGovernment": 6082,
      "ĠDutch": 6083,
      "Ġrand": 6084,
      "ĠCommittee": 6085,
      "oky": 6086,
      "Ġarrest": 6087,
      "Ġquarter": 6088,
      "ĠTry": 6089,
      "They": 6090,
      "ulty": 6091,
      "achel": 6092,
      "Bl": 6093,
      "with": 6094,
      "ĠCut": 6095,
      "Ġseconds": 6096,
      "Ġteacher": 6097,
      "ĠAwards": 6098,
      "Ġvocals": 6099,
      "Ġcher": 6100,
      "imal": 6101,
      "unior": 6102,
      "ĠBank": 6103,
      "Ġanswer": 6104,
      "Ġfix": 6105,
      "Ġsenior": 6106,
      "Ġdreams": 6107,
      "2010": 6108,
      "Ġaudio": 6109,
      "Ġinstitutions": 6110,
      "Ġbold": 6111,
      "Ġdisp": 6112,
      "ĠTwitter": 6113,
      "Ġburn": 6114,
      "met": 6115,
      "Ġcas": 6116,
      "Ġhour": 6117,
      "Ġflo": 6118,
      "Ġbreathing": 6119,
      "Ġinstruments": 6120,
      "Ġtend": 6121,
      "ĠPrince": 6122,
      "Ġsoldiers": 6123,
      "ĠSa": 6124,
      "riage": 6125,
      "Ġmush": 6126,
      "Ġ1993": 6127,
      "Ġbreaks": 6128,
      "Ġwait": 6129,
      "Ġadministr": 6130,
      "Ġgro": 6131,
      "ĠLuc": 6132,
      "stra": 6133,
      "Ġhero": 6134,
      "wich": 6135,
      "ĠNav": 6136,
      "Ġunivers": 6137,
      "Ġtracks": 6138,
      "Ġrecording": 6139,
      "Ġpeppers": 6140,
      "ĠJoseph": 6141,
      "ĠTem": 6142,
      "ĠSouthern": 6143,
      "Ġ500": 6144,
      "ĠGard": 6145,
      "izabeth": 6146,
      "Ġrules": 6147,
      "Ġchannel": 6148,
      "ĠTy": 6149,
      "Ġgained": 6150,
      "ĠJul": 6151,
      "Ġreduction": 6152,
      "Ġconver": 6153,
      "Ġwindow": 6154,
      "Ġscholars": 6155,
      "Ne": 6156,
      "power": 6157,
      "Ġeat": 6158,
      "Ġresistance": 6159,
      "ĠBerlin": 6160,
      "Ġdisorders": 6161,
      "Ġinterp": 6162,
      "ionally": 6163,
      "Ġheavily": 6164,
      "Ġarmy": 6165,
      "zzle": 6166,
      "ĠCult": 6167,
      "ĠMind": 6168,
      "unc": 6169,
      "ĠGet": 6170,
      "ĠMu": 6171,
      "Ġpriv": 6172,
      "ĠYoung": 6173,
      "ographics": 6174,
      "English": 6175,
      "Ġintense": 6176,
      "uty": 6177,
      "190": 6178,
      "Ġaband": 6179,
      "wan": 6180,
      "Ġnorthern": 6181,
      "erse": 6182,
      "Ġloop": 6183,
      "Ġcreamy": 6184,
      "Notes": 6185,
      "ĠHome": 6186,
      "Ġsex": 6187,
      "Ġrespect": 6188,
      "ĠTim": 6189,
      "Ġteachers": 6190,
      "Ġsouthern": 6191,
      "Ġextended": 6192,
      "Ġinfluencers": 6193,
      "Ġaid": 6194,
      "ĠTO": 6195,
      "Ġachieved": 6196,
      "Ġmixing": 6197,
      "IT": 6198,
      "Ġthin": 6199,
      "ĠLord": 6200,
      "Ġfocusing": 6201,
      "Ġfrequency": 6202,
      "Ġneighborhood": 6203,
      "esh": 6204,
      "emade": 6205,
      "Ġcommitment": 6206,
      "Be": 6207,
      "estic": 6208,
      "Ġmonitoring": 6209,
      "center": 6210,
      "mitted": 6211,
      "www": 6212,
      "VID": 6213,
      "Ġquiet": 6214,
      "Ġserver": 6215,
      "Ġfruits": 6216,
      "Ġdescriptive": 6217,
      "Ġagriculture": 6218,
      "Ġofficer": 6219,
      "Ġpodcast": 6220,
      "alse": 6221,
      "Ġque": 6222,
      "Ġinstruction": 6223,
      "Career": 6224,
      "Ġinternal": 6225,
      "Ġthous": 6226,
      "Ġproducer": 6227,
      "Ġcarried": 6228,
      "Ġstreets": 6229,
      "uit": 6230,
      "anda": 6231,
      "ĠInclude": 6232,
      "Ġwalked": 6233,
      "ĠOrgan": 6234,
      "Ġregarding": 6235,
      "ela": 6236,
      "def": 6237,
      "osc": 6238,
      "ampion": 6239,
      "Ġrot": 6240,
      "Ġaims": 6241,
      "Ġrent": 6242,
      "Ġsud": 6243,
      "Ġcontributions": 6244,
      "Ġcaught": 6245,
      "ĠNight": 6246,
      "Ġmagazine": 6247,
      "Ġapplied": 6248,
      "ĠPower": 6249,
      "Ġstudied": 6250,
      ".âĢĿ": 6251,
      "igration": 6252,
      "Ġrare": 6253,
      "Ġfrequently": 6254,
      "wise": 6255,
      "Ġfant": 6256,
      "âĢľ": 6257,
      "ĠAnaly": 6258,
      "Ġclubs": 6259,
      "hus": 6260,
      "ĠLem": 6261,
      "ĠLee": 6262,
      "Ġclin": 6263,
      "Ġjustice": 6264,
      "Ġbeliefs": 6265,
      "Ġvibrant": 6266,
      "Ġera": 6267,
      "Ġvictim": 6268,
      "Ġgentle": 6269,
      "look": 6270,
      "ĊĊĠ": 6271,
      "ĠTimes": 6272,
      "ĠBet": 6273,
      "Ġtargeted": 6274,
      "Ġrandom": 6275,
      "Ġkitchen": 6276,
      "ET": 6277,
      "ĠFire": 6278,
      "osa": 6279,
      "99": 6280,
      "Ġtrib": 6281,
      "ĠSpe": 6282,
      "Ġnoise": 6283,
      "Ġpasseng": 6284,
      "ĠThen": 6285,
      "ĠJason": 6286,
      "Ġfollowers": 6287,
      "ĠWales": 6288,
      "urthermore": 6289,
      "Ġsell": 6290,
      "Ġdura": 6291,
      "amples": 6292,
      "ĠForce": 6293,
      "Ġwatching": 6294,
      "ĠScottish": 6295,
      "igenous": 6296,
      "Ġrapid": 6297,
      "Ġvit": 6298,
      "My": 6299,
      "ĠCivil": 6300,
      "ĠExper": 6301,
      "ĠIran": 6302,
      "Ġflight": 6303,
      "ĠMaria": 6304,
      "Ġaddiction": 6305,
      "Ġpartnership": 6306,
      "Ġfaster": 6307,
      "ĠHave": 6308,
      "ĠEastern": 6309,
      "Ġads": 6310,
      "Ġtopic": 6311,
      "ĠViet": 6312,
      "merce": 6313,
      "aze": 6314,
      "Ġ1987": 6315,
      "Ġcrust": 6316,
      "ĠDevelopment": 6317,
      "Ġwal": 6318,
      "Ġresulted": 6319,
      "ĠPoland": 6320,
      "48": 6321,
      "ĠOpt": 6322,
      "ĠEnjoy": 6323,
      "Ġtender": 6324,
      "Ġsingles": 6325,
      "Ġscenes": 6326,
      "Ġsizes": 6327,
      "Ġfort": 6328,
      "iga": 6329,
      "Ġgets": 6330,
      "cue": 6331,
      "fall": 6332,
      "rier": 6333,
      "Ġroasted": 6334,
      "Ġnearly": 6335,
      "Ġrhyth": 6336,
      "ĠĊĊ": 6337,
      "ĠAssembly": 6338,
      "ashed": 6339,
      "Ġstake": 6340,
      "ensions": 6341,
      "Ġaccident": 6342,
      "Ġflat": 6343,
      "Ġconservation": 6344,
      "Ġstrange": 6345,
      "awa": 6346,
      "Ġfacing": 6347,
      "umbled": 6348,
      "Ġcenturies": 6349,
      "Ġindex": 6350,
      "Ġrein": 6351,
      "ĠLong": 6352,
      "Ġtrail": 6353,
      "Ġflu": 6354,
      "ĠAsian": 6355,
      "Ġdescribe": 6356,
      "Ġpicture": 6357,
      "Ġinternet": 6358,
      "ĠAR": 6359,
      "Ġchief": 6360,
      "Med": 6361,
      "Ġcrick": 6362,
      "arity": 6363,
      "Ġimpressive": 6364,
      "oston": 6365,
      "Ġspons": 6366,
      "Ġ1950": 6367,
      "Ġbag": 6368,
      "Ġstone": 6369,
      "align": 6370,
      "Ġedition": 6371,
      "ĠSeries": 6372,
      "Ġfighting": 6373,
      "ament": 6374,
      "ocation": 6375,
      "Ġconstantly": 6376,
      "Ġaccurate": 6377,
      "Ġunexpected": 6378,
      "Ġfederal": 6379,
      "ache": 6380,
      "Ġentreprene": 6381,
      "However": 6382,
      "!\"": 6383,
      "oa": 6384,
      "ĠLittle": 6385,
      "ĠSea": 6386,
      "Ġpracticing": 6387,
      "fts": 6388,
      "Ġbass": 6389,
      "Ġghost": 6390,
      "Ġ==": 6391,
      "Ġmagical": 6392,
      "ender": 6393,
      "Ġexclusive": 6394,
      "Ġsudden": 6395,
      "cell": 6396,
      "Rec": 6397,
      "ĠSand": 6398,
      "Ġvent": 6399,
      "Ġreson": 6400,
      "Ġcrim": 6401,
      "bury": 6402,
      "Ġdepart": 6403,
      "Ġequal": 6404,
      "Ġexcess": 6405,
      "izz": 6406,
      "Ġdistract": 6407,
      "Finally": 6408,
      "atriate": 6409,
      "ĠBir": 6410,
      "ĠJones": 6411,
      "Ġbridge": 6412,
      "Ġcarefully": 6413,
      "Ġyouth": 6414,
      "Ġhonor": 6415,
      "Ġincredible": 6416,
      "Ġbillion": 6417,
      "ads": 6418,
      "Ġwhom": 6419,
      "ĠReview": 6420,
      "ennis": 6421,
      "Ġsour": 6422,
      "iders": 6423,
      "ĠGar": 6424,
      "osystem": 6425,
      "Ġpollution": 6426,
      "erry": 6427,
      "Ġinformed": 6428,
      "Ġskillet": 6429,
      "iche": 6430,
      "2000": 6431,
      "Ġforget": 6432,
      "othes": 6433,
      "osoph": 6434,
      "Ġcompar": 6435,
      "Ġvolume": 6436,
      "Ġcouncil": 6437,
      "Ġkids": 6438,
      "Ġchemical": 6439,
      "Ġdeploy": 6440,
      "action": 6441,
      "Ġcommitted": 6442,
      "Ġmyst": 6443,
      "ĠParliament": 6444,
      "Ġri": 6445,
      "Ġfine": 6446,
      "ĠLine": 6447,
      "Ġends": 6448,
      "ĠIndust": 6449,
      "Ġprimarily": 6450,
      "ĠSince": 6451,
      "Ġcommission": 6452,
      "Ġpassing": 6453,
      "Ġ1989": 6454,
      "Ġexcited": 6455,
      "Ġtang": 6456,
      "Ġstruggled": 6457,
      "ĠEdward": 6458,
      "CC": 6459,
      "Ġeditor": 6460,
      "ĠDev": 6461,
      "box": 6462,
      "ĠAvoid": 6463,
      "ran": 6464,
      "Ġnote": 6465,
      "Ġcharge": 6466,
      "Ġchildhood": 6467,
      "Ġerrors": 6468,
      "ĠAPI": 6469,
      "inkle": 6470,
      "ras": 6471,
      "Ġfiber": 6472,
      "Ġbatt": 6473,
      "Ġvac": 6474,
      "Ġworldwide": 6475,
      "Ġalmond": 6476,
      "ĠSecret": 6477,
      "Ġagreement": 6478,
      "Ġthus": 6479,
      "ework": 6480,
      "ih": 6481,
      "Ġclaimed": 6482,
      "rum": 6483,
      "ĠKn": 6484,
      "anger": 6485,
      "Ġregional": 6486,
      "Ġcrime": 6487,
      "Ġresolution": 6488,
      "Ġoperating": 6489,
      "ĠExpl": 6490,
      "Ġbegins": 6491,
      "Ġwire": 6492,
      "Ġwave": 6493,
      "ansas": 6494,
      "Ġbutton": 6495,
      "Ġborder": 6496,
      "Ġavocado": 6497,
      "bridge": 6498,
      "ĠProvince": 6499,
      "Ġrailway": 6500,
      "icial": 6501,
      "active": 6502,
      "Ġhandling": 6503,
      "Ġrecovery": 6504,
      "Ġdess": 6505,
      "ĠMen": 6506,
      "ressed": 6507,
      "ĠâĢĺ": 6508,
      "ĠVer": 6509,
      "namon": 6510,
      "Ġintegration": 6511,
      "ĠSn": 6512,
      "ĠOb": 6513,
      "Ġrelaxation": 6514,
      "ĠFoundation": 6515,
      "ĠRh": 6516,
      "Ġpersonality": 6517,
      "undred": 6518,
      "Ġexpectations": 6519,
      "ĠBoard": 6520,
      "Ġhouses": 6521,
      "Ġinventory": 6522,
      "iture": 6523,
      "ĠVan": 6524,
      "Ġrose": 6525,
      "Ġenvironments": 6526,
      "Ġsilver": 6527,
      "Ġsquare": 6528,
      "ĠDig": 6529,
      "Ġpurs": 6530,
      "Ġrecognized": 6531,
      "ĠCharl": 6532,
      "Ġid": 6533,
      "ĠBoth": 6534,
      "erving": 6535,
      "ĠProt": 6536,
      "Ġcombine": 6537,
      "ĠLatin": 6538,
      "Ġsummarize": 6539,
      "ether": 6540,
      "ĠWalk": 6541,
      "ails": 6542,
      "Ġemerged": 6543,
      "point": 6544,
      "ĠAp": 6545,
      "Ġsport": 6546,
      "Ġhappened": 6547,
      "Ġchatb": 6548,
      "33": 6549,
      "arrow": 6550,
      "erate": 6551,
      "Ġ1986": 6552,
      "Ġexpenses": 6553,
      "Other": 6554,
      "Ġchosen": 6555,
      "ĠOper": 6556,
      "Ġmiles": 6557,
      "ĠDAY": 6558,
      "Ġmanip": 6559,
      "Ġknowing": 6560,
      "Ġinvestig": 6561,
      "Ġmostly": 6562,
      "enna": 6563,
      "alle": 6564,
      "Ġongoing": 6565,
      "Ġupper": 6566,
      "rup": 6567,
      "Ġgenerated": 6568,
      "Ġnegot": 6569,
      "Ġsitting": 6570,
      "Ġcorner": 6571,
      "Comm": 6572,
      "Ġhes": 6573,
      "Ġshall": 6574,
      "Ġjazz": 6575,
      "Ġfailed": 6576,
      "ĠLight": 6577,
      "Ġexplan": 6578,
      "Ġ1984": 6579,
      "ĠSalt": 6580,
      "ffective": 6581,
      "Ġine": 6582,
      "ĠBoy": 6583,
      "Ġstandards": 6584,
      "Ġliterary": 6585,
      "Ġyogurt": 6586,
      "Ġtick": 6587,
      "acon": 6588,
      "ĠIns": 6589,
      "lishing": 6590,
      "Ġbird": 6591,
      "ĠCro": 6592,
      "Ġexperts": 6593,
      "Ġindustrial": 6594,
      "Ġautomation": 6595,
      "Ġbond": 6596,
      "ĠLo": 6597,
      "Ġdanger": 6598,
      "ugg": 6599,
      "ĠHon": 6600,
      "Ġ35": 6601,
      "Ġobjectives": 6602,
      "Ġfigures": 6603,
      "INT": 6604,
      "Ġrevealed": 6605,
      "ĠAud": 6606,
      "ĠEll": 6607,
      "Ġvegetarian": 6608,
      "iner": 6609,
      "Ġdried": 6610,
      "Ġly": 6611,
      "Ġyellow": 6612,
      "Ġunknown": 6613,
      "Ġraise": 6614,
      "Ġgluten": 6615,
      "ĠIslam": 6616,
      "Conclusion": 6617,
      "ĠAz": 6618,
      "ĠUnder": 6619,
      "Ġ45": 6620,
      "Ġbrush": 6621,
      "ĠColumbia": 6622,
      "No": 6623,
      "Ġholid": 6624,
      "Ġluck": 6625,
      "Ġfellow": 6626,
      "rots": 6627,
      "uma": 6628,
      "Ġinsurance": 6629,
      "Ġforever": 6630,
      "ĠFrancisco": 6631,
      "ĠMot": 6632,
      "Ġproced": 6633,
      "Ġchips": 6634,
      "Ġinsight": 6635,
      "Ġlux": 6636,
      "aya": 6637,
      "ĠWhe": 6638,
      "ĠFred": 6639,
      "Ġpersonnel": 6640,
      "ĠConf": 6641,
      "Ġfootballer": 6642,
      "ĠCOVID": 6643,
      "Ġactors": 6644,
      "Ġencountered": 6645,
      "Ġwrong": 6646,
      "anes": 6647,
      "char": 6648,
      "ĠDi": 6649,
      "Ġunion": 6650,
      "ĠChristmas": 6651,
      "Ġtough": 6652,
      "Ġshift": 6653,
      "omet": 6654,
      "ĠBang": 6655,
      "ĠNow": 6656,
      "ylvania": 6657,
      "Ġspect": 6658,
      "cons": 6659,
      "nic": 6660,
      "ĠBul": 6661,
      "gend": 6662,
      "Ġecosystem": 6663,
      "Ġstretch": 6664,
      "date": 6665,
      "Åį": 6666,
      "ĠLear": 6667,
      "ĠElizabeth": 6668,
      "hemat": 6669,
      "antry": 6670,
      "apping": 6671,
      "Ġfeels": 6672,
      "Ġpursu": 6673,
      "Ġod": 6674,
      "roph": 6675,
      "aka": 6676,
      "Ġclassical": 6677,
      "Ġefficiently": 6678,
      "Ġnoted": 6679,
      "Ġengines": 6680,
      "Ġfulf": 6681,
      ";\"": 6682,
      "Ġdomin": 6683,
      "ĠHun": 6684,
      "Ġowned": 6685,
      "IA": 6686,
      "Ġcapable": 6687,
      "ĠKar": 6688,
      "Ġcoaching": 6689,
      "ĠCoast": 6690,
      "Ġshapes": 6691,
      "Ġmanagers": 6692,
      "Ġinspire": 6693,
      "Ġtun": 6694,
      "ishes": 6695,
      "urer": 6696,
      "________": 6697,
      "Films": 6698,
      "Ġtourism": 6699,
      "Ġphoto": 6700,
      "Ġlifestyle": 6701,
      "Is": 6702,
      "ĠStudies": 6703,
      "ĠJewish": 6704,
      "Ġcensus": 6705,
      "mond": 6706,
      "ĠBattle": 6707,
      "rete": 6708,
      "Ġbot": 6709,
      "iments": 6710,
      "ears": 6711,
      "Ġsurvival": 6712,
      "Remember": 6713,
      "500": 6714,
      "oom": 6715,
      "Ġiron": 6716,
      "ĠCorn": 6717,
      "Ġpackaging": 6718,
      "EL": 6719,
      "Ġformation": 6720,
      "Ġbroth": 6721,
      "Ġdynamic": 6722,
      "Ġease": 6723,
      "itution": 6724,
      "Ġcopy": 6725,
      "ĠSund": 6726,
      "bsp": 6727,
      "ĠOlympic": 6728,
      "osis": 6729,
      "Ġpackage": 6730,
      "ĠBuddh": 6731,
      "Cont": 6732,
      "Ġcycle": 6733,
      "Ġscientists": 6734,
      "100": 6735,
      "ĠOx": 6736,
      "Ġscale": 6737,
      "phone": 6738,
      "Ġdestination": 6739,
      "Ġhistoric": 6740,
      "Ġcredit": 6741,
      "Ġpaintings": 6742,
      "itement": 6743,
      "Ġecho": 6744,
      "ĠStand": 6745,
      "Ġfacil": 6746,
      "Ġcolorful": 6747,
      "Ġsurrounded": 6748,
      "Ġdiagn": 6749,
      "ĠJes": 6750,
      "inson": 6751,
      "Ġpasta": 6752,
      "Ġsolid": 6753,
      "Ġlegisl": 6754,
      "Ġdemonstrate": 6755,
      "Ġcart": 6756,
      "Ġreasons": 6757,
      "ĠHead": 6758,
      "oir": 6759,
      "Ġinner": 6760,
      "ĠAri": 6761,
      "Ġdressing": 6762,
      "Ġawards": 6763,
      "aborate": 6764,
      "Ġswitch": 6765,
      "ĠCD": 6766,
      "ĠGal": 6767,
      "ventions": 6768,
      "ĠScotland": 6769,
      "lers": 6770,
      "Ġstood": 6771,
      "Ġfactor": 6772,
      "ĠIII": 6773,
      "Int": 6774,
      "Ġfurn": 6775,
      "Ġpizza": 6776,
      "ĠDec": 6777,
      "ĠNews": 6778,
      "Ġcentre": 6779,
      "sen": 6780,
      "ĠRom": 6781,
      "anche": 6782,
      "Ġidentified": 6783,
      "ĠApple": 6784,
      "Ġconcepts": 6785,
      "ais": 6786,
      "ishing": 6787,
      "Ġsimpl": 6788,
      "Ġavailability": 6789,
      "Ġstudying": 6790,
      "ĠCentre": 6791,
      "49": 6792,
      "Ġfriendly": 6793,
      "Ġcore": 6794,
      "Ġartistic": 6795,
      "Ġinjury": 6796,
      "Ġearned": 6797,
      "iy": 6798,
      "pur": 6799,
      "ieties": 6800,
      "Ġpromotion": 6801,
      "ĠPhilipp": 6802,
      "Ġperforming": 6803,
      "Ġelectronic": 6804,
      "Ġresponsibility": 6805,
      "Ġprinting": 6806,
      "ĠRevolution": 6807,
      "sort": 6808,
      "Ġsight": 6809,
      "ĠStan": 6810,
      "anges": 6811,
      "Ġopin": 6812,
      "36": 6813,
      "amm": 6814,
      "ĠBob": 6815,
      "ĠBoston": 6816,
      "Qu": 6817,
      "aria": 6818,
      "ĠDie": 6819,
      "Ġmemor": 6820,
      "Ġwinner": 6821,
      "Ġtrial": 6822,
      "ĠHistoric": 6823,
      "log": 6824,
      "ĠBh": 6825,
      "Ġsupplies": 6826,
      "Ġgenus": 6827,
      "ĠWilliams": 6828,
      "Ġcake": 6829,
      "ĠCreat": 6830,
      "oding": 6831,
      "Ġsurviv": 6832,
      "ĠSophie": 6833,
      "ĠField": 6834,
      "Ġshowing": 6835,
      "Ġofficials": 6836,
      "\">": 6837,
      "EX": 6838,
      "Ġwestern": 6839,
      "Ġdates": 6840,
      "Ġjew": 6841,
      "Ġestate": 6842,
      "Ġbattery": 6843,
      "Ġ90": 6844,
      "Ġreaching": 6845,
      "ĠEnd": 6846,
      "Ġ80": 6847,
      "Name": 6848,
      "Ġminimal": 6849,
      "sylvania": 6850,
      "onies": 6851,
      "Ġchest": 6852,
      "Ġinvestigation": 6853,
      "Ġnetworks": 6854,
      "Ġcitizens": 6855,
      "person": 6856,
      "Ġsan": 6857,
      "Ġthorough": 6858,
      "Ġreputation": 6859,
      "car": 6860,
      "div": 6861,
      "ova": 6862,
      "language": 6863,
      "Ġmassive": 6864,
      "ĠRadio": 6865,
      "ĠCost": 6866,
      "Ġfestivals": 6867,
      "Ġsuggested": 6868,
      "Ġinteger": 6869,
      "urric": 6870,
      "Ġtowns": 6871,
      "Ġhabits": 6872,
      "ĠLibrary": 6873,
      "Ġrecon": 6874,
      "Ġexecutive": 6875,
      "Ġwitness": 6876,
      "Ġtbsp": 6877,
      "itu": 6878,
      "ema": 6879,
      "ĠGh": 6880,
      "Ġowner": 6881,
      "Ġ1983": 6882,
      "net": 6883,
      "inet": 6884,
      "rets": 6885,
      "Ġwider": 6886,
      "Ġnative": 6887,
      "style": 6888,
      "ĠRen": 6889,
      "Ġsheet": 6890,
      "Ġbreakfast": 6891,
      "Ġconversation": 6892,
      "ĠNetwork": 6893,
      "Ġgraphics": 6894,
      "ĠPak": 6895,
      "Ġsynt": 6896,
      "Ġpump": 6897,
      "ĠMur": 6898,
      "Ġdiscovery": 6899,
      "Ġagency": 6900,
      "Ġinformative": 6901,
      "orporation": 6902,
      "Ġincorporated": 6903,
      "Ġcauses": 6904,
      "Ġpra": 6905,
      "ĠCard": 6906,
      "Ġneck": 6907,
      "Ġdialogue": 6908,
      "stone": 6909,
      "Ġadm": 6910,
      "Ġguided": 6911,
      "Ġmessaging": 6912,
      "Ġrust": 6913,
      "ĠChief": 6914,
      "Ġdoub": 6915,
      "outs": 6916,
      "Ġaudiences": 6917,
      "lessly": 6918,
      "Ġexcitement": 6919,
      "Ġemergency": 6920,
      "ĠMicro": 6921,
      "Ġaccomp": 6922,
      "ĠMichigan": 6923,
      "ĠIdent": 6924,
      "Ġintended": 6925,
      "Ġlosing": 6926,
      "iday": 6927,
      "Ġentry": 6928,
      "iliar": 6929,
      "Ġwaiting": 6930,
      "Ġcards": 6931,
      "ĠHand": 6932,
      "Ġextend": 6933,
      "Ġfinds": 6934,
      "Ġupdate": 6935,
      "iform": 6936,
      "ĠPay": 6937,
      "ĠFar": 6938,
      "Ġunable": 6939,
      "Ġhighlights": 6940,
      "Ġgrown": 6941,
      "Ġnuc": 6942,
      "Ġonions": 6943,
      "Ġrule": 6944,
      "Ġprominent": 6945,
      "no": 6946,
      "Ġmulti": 6947,
      "holders": 6948,
      "atically": 6949,
      "Ġmanner": 6950,
      "Ġclosely": 6951,
      "Ġaccomplish": 6952,
      "Ġfan": 6953,
      "Ġconference": 6954,
      "ĠLab": 6955,
      "CO": 6956,
      "Ġfold": 6957,
      "Ġdetermination": 6958,
      "ĠMid": 6959,
      "That": 6960,
      "Ġturns": 6961,
      "Ġteen": 6962,
      "Ġwinners": 6963,
      "Ġhomemade": 6964,
      "Ġsteel": 6965,
      "Ġsuit": 6966,
      "Ġmotor": 6967,
      "most": 6968,
      "Ġyounger": 6969,
      "Ġrelief": 6970,
      "Ġ1985": 6971,
      "dney": 6972,
      "opt": 6973,
      "ĠKent": 6974,
      "Car": 6975,
      "string": 6976,
      "ĠWild": 6977,
      "ogether": 6978,
      "Ġclimb": 6979,
      "ĠJackson": 6980,
      "Ġships": 6981,
      "Ġcomple": 6982,
      "Ġaffects": 6983,
      "Ġfailure": 6984,
      "Su": 6985,
      "yer": 6986,
      "Ġreform": 6987,
      "Ġvital": 6988,
      "Ġacid": 6989,
      "Ġconfig": 6990,
      "Ġmeaningful": 6991,
      "Ġentertainment": 6992,
      "\":": 6993,
      "eed": 6994,
      "Ġtopp": 6995,
      "Ġhall": 6996,
      "ulf": 6997,
      "Ġago": 6998,
      "Ġpassword": 6999,
      "Ġreferred": 7000,
      "Ġretired": 7001,
      "ĠConnect": 7002,
      "Ġbasis": 7003,
      "ĠSong": 7004,
      "Ġnoticed": 7005,
      "EM": 7006,
      "rees": 7007,
      "annel": 7008,
      "Ġathletes": 7009,
      "Ġweapons": 7010,
      "kes": 7011,
      "Ġgone": 7012,
      "Ġsurf": 7013,
      "illy": 7014,
      "Ġtrained": 7015,
      "ĠBeach": 7016,
      "Ġvehicle": 7017,
      "Ġsacr": 7018,
      "Ġcampus": 7019,
      "Ġofficers": 7020,
      "Ġbiggest": 7021,
      "ĠRemove": 7022,
      "burgh": 7023,
      "ii": 7024,
      "Ġdrop": 7025,
      "Ġelev": 7026,
      "Ġcompetitors": 7027,
      "Ġfunds": 7028,
      "ĠPrem": 7029,
      "ĠOhio": 7030,
      "Ġvariable": 7031,
      "bit": 7032,
      "Ġcomedy": 7033,
      "Over": 7034,
      "Ġteach": 7035,
      "onym": 7036,
      "ĠEven": 7037,
      "Ġsupports": 7038,
      "Ġvinegar": 7039,
      "gon": 7040,
      "Ġeth": 7041,
      "lyn": 7042,
      "uls": 7043,
      "Ġmainly": 7044,
      "Ġoperated": 7045,
      "ĠHosp": 7046,
      "assion": 7047,
      "ĠEnter": 7048,
      "Ġchoices": 7049,
      "ĠLink": 7050,
      "Ġspeaker": 7051,
      "ĠDemocratic": 7052,
      "ĠProduct": 7053,
      "ĠYouT": 7054,
      "Ġlessons": 7055,
      "Ġspicy": 7056,
      "37": 7057,
      "Ċĉ": 7058,
      "Ġestimated": 7059,
      "wing": 7060,
      "Ġalt": 7061,
      "ĠEconom": 7062,
      "izer": 7063,
      "Ġ1920": 7064,
      "Ġlinked": 7065,
      "Ġhouseholds": 7066,
      "Ġchampionship": 7067,
      "Ġpositions": 7068,
      "Ġletters": 7069,
      "ĠBritain": 7070,
      "Ġprofessor": 7071,
      "track": 7072,
      "Ġeld": 7073,
      "ĠPen": 7074,
      "Ġaccounts": 7075,
      "AP": 7076,
      "Ġwings": 7077,
      "ĠImpro": 7078,
      "ĠRose": 7079,
      "ologist": 7080,
      "Ġbroken": 7081,
      "()`": 7082,
      "Ġcalculate": 7083,
      "comm": 7084,
      "pes": 7085,
      "Ġtag": 7086,
      "Ġfill": 7087,
      "ĠRam": 7088,
      "ĠOk": 7089,
      "Ġplanned": 7090,
      "Ġdarkness": 7091,
      "Ġminimum": 7092,
      "Ġtactics": 7093,
      "da": 7094,
      "Ġfly": 7095,
      "ĠStory": 7096,
      "Ġtruth": 7097,
      "Ġconflicts": 7098,
      "Ġaer": 7099,
      "Ġchronic": 7100,
      "Ġrub": 7101,
      "ĠKong": 7102,
      "Ġrelatively": 7103,
      "icted": 7104,
      "Ġcounty": 7105,
      "Ġconsumer": 7106,
      "input": 7107,
      "Ġglow": 7108,
      "Ġconversion": 7109,
      "Men": 7110,
      "ĠSpecial": 7111,
      "uracy": 7112,
      "haps": 7113,
      "ĠFood": 7114,
      "Ġconsists": 7115,
      "Ġaimed": 7116,
      "ĠIntroduction": 7117,
      "According": 7118,
      "Ġliqu": 7119,
      "Ġvacc": 7120,
      "Ġexposure": 7121,
      "Ġ1982": 7122,
      "Ġcategory": 7123,
      "bal": 7124,
      "Ġfaith": 7125,
      "Ġrealize": 7126,
      "yal": 7127,
      "Ġmajority": 7128,
      "Ġadoption": 7129,
      "raid": 7130,
      "Ġsharp": 7131,
      "Ġperiods": 7132,
      "Ġox": 7133,
      "Ġbes": 7134,
      "Ġcha": 7135,
      "ĠJane": 7136,
      "Ġguest": 7137,
      "Ġportray": 7138,
      "iral": 7139,
      "ĠLiber": 7140,
      "ĠLena": 7141,
      "Ġresol": 7142,
      "Ġcrispy": 7143,
      "berry": 7144,
      "writer": 7145,
      "Ġdoll": 7146,
      "Ġcinnamon": 7147,
      "46": 7148,
      "Mem": 7149,
      "telling": 7150,
      "adel": 7151,
      "obe": 7152,
      "ĠPennsylvania": 7153,
      "Ġselling": 7154,
      "Ġrely": 7155,
      "ĠUr": 7156,
      "onto": 7157,
      "Ġenjoyed": 7158,
      "Ġidentifying": 7159,
      "inoa": 7160,
      "ĠÂ£": 7161,
      "38": 7162,
      "Ġspring": 7163,
      "iated": 7164,
      "Ġdiam": 7165,
      "Ġexpensive": 7166,
      "Ġanalyzing": 7167,
      "ĠOffice": 7168,
      "Ġ>": 7169,
      "onel": 7170,
      "Ġpure": 7171,
      "ĠJoe": 7172,
      "Ġgradually": 7173,
      "ĠPractice": 7174,
      "isation": 7175,
      "Ġnine": 7176,
      "profit": 7177,
      "ĠMexican": 7178,
      "Ġconv": 7179,
      "Ġspeaking": 7180,
      "Ġconfir": 7181,
      "32": 7182,
      "47": 7183,
      "MS": 7184,
      "cers": 7185,
      "etts": 7186,
      "1998": 7187,
      "ĠKorean": 7188,
      "bra": 7189,
      "ĠPu": 7190,
      "ively": 7191,
      "ĠFree": 7192,
      "Ġride": 7193,
      "Ġinterpret": 7194,
      "Ġbill": 7195,
      "apore": 7196,
      "Ġguidelines": 7197,
      "Ã§": 7198,
      "ĠTherefore": 7199,
      "Ġevaluate": 7200,
      "erie": 7201,
      "Ġcomplexity": 7202,
      "BT": 7203,
      "aped": 7204,
      "Ġnewfound": 7205,
      "Ġmovies": 7206,
      "Ġnormal": 7207,
      "Ġ--": 7208,
      "ĠÐ": 7209,
      "ĠPot": 7210,
      "coh": 7211,
      "ĠRon": 7212,
      "ĠFour": 7213,
      "ĠVR": 7214,
      "Ġdisrupt": 7215,
      "Ġbath": 7216,
      "ĠData": 7217,
      "ĠWay": 7218,
      "achus": 7219,
      "ĠRailway": 7220,
      "ns": 7221,
      "Å¡": 7222,
      "amic": 7223,
      "ĠLike": 7224,
      "Ġinfect": 7225,
      "Ġparticipated": 7226,
      "Ġtablespoons": 7227,
      "jo": 7228,
      "ye": 7229,
      "Ġmeets": 7230,
      "Ġroot": 7231,
      "Ġsolve": 7232,
      "ori": 7233,
      "ĠKen": 7234,
      "ĠAtt": 7235,
      "Ġtitles": 7236,
      "while": 7237,
      "Ġmuscle": 7238,
      "ĠYouTube": 7239,
      "ĠBefore": 7240,
      "tery": 7241,
      "Ġdispl": 7242,
      "Ġworkplace": 7243,
      "indu": 7244,
      "isters": 7245,
      "ocated": 7246,
      "ĠReal": 7247,
      "Ġtemple": 7248,
      "Ġclaims": 7249,
      "();": 7250,
      "Ġensures": 7251,
      "Ġcombat": 7252,
      "Amph": 7253,
      "rika": 7254,
      "ĠInvest": 7255,
      "ĠPortug": 7256,
      "Ġenables": 7257,
      "ĠJan": 7258,
      "rence": 7259,
      "Ġbranch": 7260,
      "Ġseeing": 7261,
      "etime": 7262,
      "iger": 7263,
      "Ġmaybe": 7264,
      "While": 7265,
      "Ġtroops": 7266,
      "Ġtoppings": 7267,
      "BS": 7268,
      "bar": 7269,
      "Ġlights": 7270,
      "ially": 7271,
      "Ġvocal": 7272,
      "ko": 7273,
      "ĠÅ": 7274,
      "hered": 7275,
      "Ġinhab": 7276,
      "Ġsignal": 7277,
      "Ġmarine": 7278,
      "Ġjoint": 7279,
      "Ġproviders": 7280,
      "Ġfocuses": 7281,
      "Ġflexible": 7282,
      "ĠTam": 7283,
      "Ġnarrow": 7284,
      "orship": 7285,
      "shire": 7286,
      "Ġsquad": 7287,
      "Er": 7288,
      "stal": 7289,
      "Ġstim": 7290,
      "riers": 7291,
      "Ġscent": 7292,
      "Ġattribut": 7293,
      "ĠCarl": 7294,
      "Ġportion": 7295,
      "ĠGeorgia": 7296,
      "po": 7297,
      "Ġtours": 7298,
      "ĠIncre": 7299,
      "equ": 7300,
      "gal": 7301,
      "Ġign": 7302,
      "ĠGree": 7303,
      "ĠIntern": 7304,
      "Ġce": 7305,
      "ĠColor": 7306,
      "atus": 7307,
      "Ġlies": 7308,
      "Ġsmok": 7309,
      "Ġcris": 7310,
      "Ġgrav": 7311,
      "Ġpresentation": 7312,
      "antha": 7313,
      "Ġrit": 7314,
      "asting": 7315,
      "Ġscheme": 7316,
      "Ġtomato": 7317,
      "Ġromantic": 7318,
      "Ġlists": 7319,
      "Ġstability": 7320,
      "ĠRod": 7321,
      "Ġchili": 7322,
      "Ġmountains": 7323,
      "Ġdivided": 7324,
      "Ġdefeat": 7325,
      "Ġflexibility": 7326,
      "Ġcrack": 7327,
      "Ġhiking": 7328,
      "ĠSEO": 7329,
      "Ġplenty": 7330,
      "Ġmeetings": 7331,
      "state": 7332,
      "sect": 7333,
      "ĠShare": 7334,
      "Ġapproaches": 7335,
      "Ġadapted": 7336,
      "ersey": 7337,
      "ello": 7338,
      "Ġrough": 7339,
      "edia": 7340,
      "Ġhundred": 7341,
      "Ġpotato": 7342,
      "Ġagricultural": 7343,
      "urning": 7344,
      "Ġsurve": 7345,
      "vironment": 7346,
      "afe": 7347,
      "ĠCa": 7348,
      "Ġnotice": 7349,
      "issance": 7350,
      "ĠLead": 7351,
      "Ġgenerations": 7352,
      "Ġgran": 7353,
      "Ġabandoned": 7354,
      "2009": 7355,
      "scale": 7356,
      "Ġcomponent": 7357,
      "Ġtrig": 7358,
      "Ġbaseball": 7359,
      "Ġadvancements": 7360,
      "ĠPop": 7361,
      "ĠGirl": 7362,
      "Ġspeak": 7363,
      "Ġrefresh": 7364,
      "Ġparam": 7365,
      "Ġrepresenting": 7366,
      "Ġaw": 7367,
      "Ã©e": 7368,
      "Ġdeeply": 7369,
      "Ġshelter": 7370,
      "Ġprinciples": 7371,
      "Ġther": 7372,
      "amber": 7373,
      "ador": 7374,
      "Ġimmersive": 7375,
      "Ġworkshops": 7376,
      "ĠKenn": 7377,
      "Ġextreme": 7378,
      "secut": 7379,
      "TS": 7380,
      "alities": 7381,
      "ĠSports": 7382,
      "apes": 7383,
      "Ġpopulations": 7384,
      "ĠSerb": 7385,
      "Ġpoliticians": 7386,
      "orter": 7387,
      "Ġkeywords": 7388,
      "ederation": 7389,
      "Ġhockey": 7390,
      "Ġaccuracy": 7391,
      "Ġstands": 7392,
      "achusetts": 7393,
      "ba": 7394,
      "yon": 7395,
      "Ġaest": 7396,
      "ilant": 7397,
      "ĠRome": 7398,
      "Ġkick": 7399,
      "cknow": 7400,
      "Ġwellness": 7401,
      "Ġfoundation": 7402,
      "ĠOnline": 7403,
      "Ġauthentic": 7404,
      "Ġcolleagues": 7405,
      "worth": 7406,
      "Ġbike": 7407,
      "Ġda": 7408,
      "Ġdraft": 7409,
      "Ġintroduction": 7410,
      "ĠForest": 7411,
      "ĠDirector": 7412,
      "Ġracing": 7413,
      "2011": 7414,
      "Ġfreedom": 7415,
      "ĠServices": 7416,
      "oto": 7417,
      "ropical": 7418,
      "Ġmotivation": 7419,
      "Ġcater": 7420,
      "Ġdriver": 7421,
      "Ġafraid": 7422,
      "Ġsplit": 7423,
      "IM": 7424,
      "Ġpoet": 7425,
      "Ġsevere": 7426,
      "Ġrestrict": 7427,
      "ĠSydney": 7428,
      "ĠSpacewatch": 7429,
      "lom": 7430,
      "mat": 7431,
      "Ġterror": 7432,
      "anches": 7433,
      "ĠAndrew": 7434,
      "Ġsubstitute": 7435,
      "Ġturning": 7436,
      "Ġdestroyed": 7437,
      "gener": 7438,
      "Ġspeech": 7439,
      "Ġchoosing": 7440,
      "Ġstrengths": 7441,
      "Ġevolved": 7442,
      "Ġcrisis": 7443,
      "ami": 7444,
      "Ġ1968": 7445,
      "Ġnerv": 7446,
      "ĠBase": 7447,
      "Ġvirus": 7448,
      "Ġcapabilities": 7449,
      "Ġitem": 7450,
      "Ġadults": 7451,
      "Ġupcoming": 7452,
      "Ġ1974": 7453,
      "ĠConference": 7454,
      "Ġcandidate": 7455,
      "Ġpray": 7456,
      "Ġcomposition": 7457,
      "Ġ70": 7458,
      "2007": 7459,
      "Ġargument": 7460,
      "Ġmushrooms": 7461,
      "Ġmole": 7462,
      "Ġshif": 7463,
      "Ġ1981": 7464,
      "ĠRegister": 7465,
      "ĠUSA": 7466,
      "ĠRepresent": 7467,
      "Ġimmune": 7468,
      "alog": 7469,
      "Ġorders": 7470,
      "Ġ1972": 7471,
      "Ġoccurred": 7472,
      "then": 7473,
      "Ġdialect": 7474,
      "pack": 7475,
      "Ġ1979": 7476,
      "Ġmotion": 7477,
      "Ġadministration": 7478,
      "Ġlimitations": 7479,
      "Ġincentives": 7480,
      "ĠArm": 7481,
      "Ġcreature": 7482,
      "Ġinvesting": 7483,
      "ker": 7484,
      "Ġreward": 7485,
      "Ġgreatest": 7486,
      "Ġentr": 7487,
      "Ġstaying": 7488,
      "Ġcrops": 7489,
      "55": 7490,
      "ML": 7491,
      "Ġcul": 7492,
      "chant": 7493,
      "ĠDuke": 7494,
      "Ġsegment": 7495,
      "Ġcompost": 7496,
      "Ġcorresp": 7497,
      "Ġtemperatures": 7498,
      "Ġmal": 7499,
      "ownt": 7500,
      "Ġlaws": 7501,
      "RA": 7502,
      "`.": 7503,
      "bell": 7504,
      "page": 7505,
      "enth": 7506,
      "ĠBon": 7507,
      "arters": 7508,
      "Ġsequence": 7509,
      "39": 7510,
      "Me": 7511,
      "iti": 7512,
      "Ġthank": 7513,
      "Ġgrass": 7514,
      "Char": 7515,
      "Ġbringing": 7516,
      "Ġfought": 7517,
      "ulating": 7518,
      "Ġrecognize": 7519,
      "ĠPrize": 7520,
      "Ġpictures": 7521,
      "Brit": 7522,
      "Ġsoy": 7523,
      "Ġpool": 7524,
      "airy": 7525,
      "ĠGovernor": 7526,
      "Ġrhythm": 7527,
      "grad": 7528,
      "Ġpars": 7529,
      "ĠToday": 7530,
      "acher": 7531,
      "ĠSciences": 7532,
      "Ġwindows": 7533,
      "Ġmitigate": 7534,
      "44": 7535,
      "Ġagg": 7536,
      "Ġsolo": 7537,
      "Ġboundaries": 7538,
      "mers": 7539,
      "Ġmedicine": 7540,
      "garian": 7541,
      "Ġencourages": 7542,
      "Ġadopted": 7543,
      "Aust": 7544,
      "ĠJac": 7545,
      "income": 7546,
      "Amphora": 7547,
      "onia": 7548,
      "level": 7549,
      "Ġvote": 7550,
      "ĠYe": 7551,
      "Ġholds": 7552,
      "Ġturb": 7553,
      "Ġfindings": 7554,
      "ĠConc": 7555,
      "Ġseam": 7556,
      "ditional": 7557,
      "Ġwildlife": 7558,
      "Pr": 7559,
      "Ġbodies": 7560,
      "ĠSus": 7561,
      "Ġaside": 7562,
      "Ġremoved": 7563,
      "ĠAlexander": 7564,
      "bro": 7565,
      "Ġ@": 7566,
      "ĠCop": 7567,
      "2015": 7568,
      "Ġdrivers": 7569,
      "named": 7570,
      "cend": 7571,
      "igned": 7572,
      "Ġmyth": 7573,
      "Ġdevelopers": 7574,
      "Ġvisited": 7575,
      "ounsel": 7576,
      "Through": 7577,
      "Ġpartnerships": 7578,
      "31": 7579,
      "`,": 7580,
      "ĠDiv": 7581,
      "Ġcutting": 7582,
      "ĠDar": 7583,
      "ĠVen": 7584,
      "Ġsyrup": 7585,
      "Ġdownload": 7586,
      "Ġviewers": 7587,
      "Ġencouraged": 7588,
      "Ġinstallation": 7589,
      "ĠOs": 7590,
      "Ġharsh": 7591,
      "Ġminced": 7592,
      "Ġcompeted": 7593,
      "oz": 7594,
      "uan": 7595,
      "roud": 7596,
      "Ġunf": 7597,
      "Ġdocuments": 7598,
      "ĠEncourage": 7599,
      "heim": 7600,
      "isa": 7601,
      "ĠBern": 7602,
      "Ġregister": 7603,
      "Ġcenters": 7604,
      "Ġsentence": 7605,
      "Ġfiction": 7606,
      "Ġcompare": 7607,
      "Ġcollaborate": 7608,
      "Ġsample": 7609,
      "ĠTai": 7610,
      "Ġvanilla": 7611,
      "Ġsigns": 7612,
      "Ġeastern": 7613,
      "Ġgenre": 7614,
      "icians": 7615,
      "2020": 7616,
      "Ġguard": 7617,
      "Ġintegrated": 7618,
      "ione": 7619,
      "ĠGen": 7620,
      "Ġ36": 7621,
      "erto": 7622,
      "Ġdesigners": 7623,
      "Pop": 7624,
      "yme": 7625,
      "Ġur": 7626,
      "Ġsale": 7627,
      "ĠCreek": 7628,
      "ĠAlbert": 7629,
      "mann": 7630,
      "Ġtalking": 7631,
      "Trans": 7632,
      "ĠTurn": 7633,
      "ĠJr": 7634,
      "Ġvisiting": 7635,
      "Ġroutes": 7636,
      "Ġinitiative": 7637,
      "Ġ65": 7638,
      "ĠBroad": 7639,
      "athan": 7640,
      "ĠAdv": 7641,
      "Ġcarrots": 7642,
      "Ġinstalled": 7643,
      "ĠSingapore": 7644,
      "ĠMassachusetts": 7645,
      "Not": 7646,
      "eta": 7647,
      "ĠMike": 7648,
      "ĠFind": 7649,
      "ĠEth": 7650,
      "oven": 7651,
      "Ġexpansion": 7652,
      "Ġacquired": 7653,
      "ĠGallery": 7654,
      "ĠUN": 7655,
      "phones": 7656,
      "iox": 7657,
      "Ġappearances": 7658,
      "Ġnewspaper": 7659,
      "iot": 7660,
      "ĠTay": 7661,
      "Ġginger": 7662,
      "Ġcomposed": 7663,
      "Ġdesire": 7664,
      "Ġvegg": 7665,
      "Ġexperiencing": 7666,
      "Ġtutorial": 7667,
      "gn": 7668,
      "ĠBrand": 7669,
      "Ġimprovements": 7670,
      "Ġpolitics": 7671,
      "Ġepisodes": 7672,
      "Ġtofu": 7673,
      "ĠBol": 7674,
      "Ġroof": 7675,
      "ĠBridge": 7676,
      "Ġexplores": 7677,
      "rue": 7678,
      "Ġformal": 7679,
      "Ġagreed": 7680,
      "do": 7681,
      "ÅĤ": 7682,
      "ruit": 7683,
      "Ġtransp": 7684,
      "Ġgovernments": 7685,
      "Ġ1964": 7686,
      "Ġentirely": 7687,
      "Ġisolation": 7688,
      "ĠEs": 7689,
      "Ġdisaster": 7690,
      "Ġevenly": 7691,
      "Ġ1978": 7692,
      "ĠBrook": 7693,
      "ĠCapt": 7694,
      "ĠFocus": 7695,
      "Ġrepair": 7696,
      "Ġseasoning": 7697,
      "Ġmarriage": 7698,
      "uster": 7699,
      "urrent": 7700,
      "redited": 7701,
      "Ġbreaking": 7702,
      "Ġceremony": 7703,
      "Ġgram": 7704,
      "Ġevening": 7705,
      "Ġhospit": 7706,
      "ester": 7707,
      "Ġbusy": 7708,
      "Ġ1976": 7709,
      "ĠTri": 7710,
      "Ġpromoted": 7711,
      "cest": 7712,
      "rowing": 7713,
      "Ġstorytelling": 7714,
      "ossible": 7715,
      "OM": 7716,
      "Ġexternal": 7717,
      "han": 7718,
      "Ġsought": 7719,
      "Ġbaby": 7720,
      "ĠDun": 7721,
      "ĠInformation": 7722,
      "ĠAsh": 7723,
      "Ġelections": 7724,
      "Ġfears": 7725,
      "Ġexplanation": 7726,
      "National": 7727,
      "mes": 7728,
      "ĠStation": 7729,
      "ĠFriday": 7730,
      "Ġbasil": 7731,
      "ĠMcC": 7732,
      "lamm": 7733,
      "ca": 7734,
      "Ġtort": 7735,
      "2019": 7736,
      "Ġauth": 7737,
      "Here": 7738,
      "ĠSat": 7739,
      "ĠDub": 7740,
      "Ġrefused": 7741,
      "ĠLie": 7742,
      "Ġdesert": 7743,
      "Ġartwork": 7744,
      "Ġthanks": 7745,
      "Ġcelebrate": 7746,
      "Ġrooms": 7747,
      "ĠArgent": 7748,
      "Ġ1977": 7749,
      "Ġtells": 7750,
      "Ġreference": 7751,
      "Ġappreciation": 7752,
      "standing": 7753,
      "34": 7754,
      "long": 7755,
      "Ġ400": 7756,
      "Ġgrid": 7757,
      "van": 7758,
      "ĠBC": 7759,
      "ĠPers": 7760,
      "lla": 7761,
      "Ġreceiving": 7762,
      "Sar": 7763,
      "Ġraces": 7764,
      "Ġempathy": 7765,
      "ima": 7766,
      "ĠPython": 7767,
      "Ġglad": 7768,
      "Ġversions": 7769,
      "Ġlegs": 7770,
      "ĠAirport": 7771,
      "efficient": 7772,
      "elry": 7773,
      "Ġcompelling": 7774,
      "Ġdesk": 7775,
      "Ġbrings": 7776,
      "First": 7777,
      "Ġurg": 7778,
      "Ġtight": 7779,
      "ĠRun": 7780,
      "ĠLow": 7781,
      "Ġretire": 7782,
      "Ġhydro": 7783,
      "Ġnutrients": 7784,
      "Ġsail": 7785,
      "ĠHong": 7786,
      "Ġdiss": 7787,
      "Ġdrawn": 7788,
      "ĠImplement": 7789,
      "Ġpsychological": 7790,
      "Ġgal": 7791,
      "ĠKey": 7792,
      "Ġresident": 7793,
      "ĠAnth": 7794,
      "Ġdefine": 7795,
      "Ġtrend": 7796,
      "Ġpeaceful": 7797,
      "stein": 7798,
      "Year": 7799,
      "imp": 7800,
      "Ġenthus": 7801,
      "Ġ1971": 7802,
      "Ġstrategic": 7803,
      "ĠPeak": 7804,
      "ĠPerform": 7805,
      "Ġmemorable": 7806,
      "Ġdinner": 7807,
      "Ġcoverage": 7808,
      "ouri": 7809,
      "Ġpersever": 7810,
      "Ġmarked": 7811,
      "ĠToronto": 7812,
      "owned": 7813,
      "2014": 7814,
      "Ġexpanded": 7815,
      "ĠRay": 7816,
      "osm": 7817,
      "Ġkid": 7818,
      "inder": 7819,
      "Ġfacility": 7820,
      "Ġlayout": 7821,
      "Ġproposal": 7822,
      "Ġthousands": 7823,
      "ĠSup": 7824,
      "ĠFC": 7825,
      "ĠFamily": 7826,
      "Ġskilled": 7827,
      "Ġwedding": 7828,
      "Ġhttps": 7829,
      "Ġcharity": 7830,
      "ĠIslands": 7831,
      "Ġfolk": 7832,
      "Ġnomin": 7833,
      "Ġproducing": 7834,
      "2012": 7835,
      "Ġpurp": 7836,
      "Ġfaces": 7837,
      "lav": 7838,
      "arant": 7839,
      "ĠBuilding": 7840,
      "Ġsmell": 7841,
      "Ġbron": 7842,
      "Ġinjuries": 7843,
      "Ġvulnerable": 7844,
      "Ġlyrics": 7845,
      "body": 7846,
      "Ġtheater": 7847,
      "Ġmouth": 7848,
      "okyo": 7849,
      "ĠVietnam": 7850,
      "ĠOtt": 7851,
      "Ġperman": 7852,
      "Ġauthority": 7853,
      "Ġâ": 7854,
      "ctic": 7855,
      "otal": 7856,
      "ĠWilson": 7857,
      "Sports": 7858,
      "enly": 7859,
      "abet": 7860,
      "Ġminute": 7861,
      "ĠSupport": 7862,
      "Ġflavorful": 7863,
      "Ġuncertain": 7864,
      "ĠHospital": 7865,
      "ĠPersonal": 7866,
      "rome": 7867,
      "asty": 7868,
      "Ġapple": 7869,
      "Ġdecline": 7870,
      "Ġsearching": 7871,
      "ĠOxford": 7872,
      "ĠJud": 7873,
      "ĠDigital": 7874,
      "AD": 7875,
      "ls": 7876,
      "ayer": 7877,
      "ĠMP": 7878,
      "rying": 7879,
      "ibli": 7880,
      "lected": 7881,
      "Ġpurchased": 7882,
      "77": 7883,
      "Fr": 7884,
      "RE": 7885,
      "Ġrealistic": 7886,
      "Ġfaculty": 7887,
      "Ġreflects": 7888,
      "Ġexistence": 7889,
      "Ġsavings": 7890,
      "Ġmechanisms": 7891,
      "British": 7892,
      "zer": 7893,
      "Ġbars": 7894,
      "Ġwhis": 7895,
      "ĠWin": 7896,
      "Ġloan": 7897,
      "Ġfurniture": 7898,
      "Ġplate": 7899,
      "Ġrecycling": 7900,
      "Ġsubsequently": 7901,
      "Ġfo": 7902,
      "este": 7903,
      "Ġtwice": 7904,
      "Ġmusician": 7905,
      "ĠKorea": 7906,
      "95": 7907,
      "iography": 7908,
      "inity": 7909,
      "Ġaccepted": 7910,
      "Ġfier": 7911,
      "ĠTurk": 7912,
      "Ġembrace": 7913,
      "Ġhealing": 7914,
      "ĠHan": 7915,
      "ruption": 7916,
      "efe": 7917,
      "2018": 7918,
      "Ġrewards": 7919,
      "uling": 7920,
      "Ġupl": 7921,
      "2013": 7922,
      "ĠSecurity": 7923,
      "ĠOffer": 7924,
      "Ġcoaches": 7925,
      "Ġ1967": 7926,
      "Ġfunctionality": 7927,
      "Ġspecialized": 7928,
      "Ġauthorities": 7929,
      "ĠRegular": 7930,
      "Ġdrawing": 7931,
      "Ġmunicipality": 7932,
      "ĠVill": 7933,
      "Ġstrings": 7934,
      "Ġcalling": 7935,
      "oty": 7936,
      "ĠBand": 7937,
      "Ġoptimization": 7938,
      "Ġsnacks": 7939,
      "uing": 7940,
      "Ġrocks": 7941,
      "2017": 7942,
      "Ġevolution": 7943,
      "inois": 7944,
      "ĠTheatre": 7945,
      "Ġretain": 7946,
      "Ġoperate": 7947,
      "Ġcollected": 7948,
      "ÃŃa": 7949,
      "Ġfifth": 7950,
      "Ġconfirmed": 7951,
      "gs": 7952,
      "pace": 7953,
      "Ġdescent": 7954,
      "Ġcareful": 7955,
      "Ġpanel": 7956,
      "IV": 7957,
      "ennes": 7958,
      "Ġhappen": 7959,
      "Ġframe": 7960,
      "Ġgreenhouse": 7961,
      "Ġfragr": 7962,
      "Ġhuge": 7963,
      "ĠHal": 7964,
      "aware": 7965,
      "Ġconcert": 7966,
      "Ġ1975": 7967,
      "Ġconstructed": 7968,
      "ĠMaster": 7969,
      "background": 7970,
      "Ġadministrative": 7971,
      "Members": 7972,
      "ĠHor": 7973,
      "thur": 7974,
      "ĠChall": 7975,
      "Ġphotography": 7976,
      "ĠRena": 7977,
      "ntario": 7978,
      "insert": 7979,
      "Ġiconic": 7980,
      "ĠVictoria": 7981,
      "Ġentrepreneurs": 7982,
      "soft": 7983,
      "2006": 7984,
      "Ġholiday": 7985,
      "pool": 7986,
      "ĠLive": 7987,
      "Ġcharts": 7988,
      "Ġphilosoph": 7989,
      "88": 7990,
      "Ġshoes": 7991,
      "Ġcompassion": 7992,
      "Ġtechnological": 7993,
      "Ġending": 7994,
      "Ġ1973": 7995,
      "Ġcookies": 7996,
      "Ġcircum": 7997,
      "Ġhorror": 7998,
      "Ġincredibly": 7999,
      "----------------": 8000,
      "SI": 8001,
      "Ġped": 8002,
      "ĠWeb": 8003,
      "commerce": 8004,
      "ĠClark": 8005,
      "Ġcaptured": 8006,
      "Par": 8007,
      "Ġcustomized": 8008,
      "Ġaddressing": 8009,
      "Ġsurroundings": 8010,
      "Ġwatched": 8011,
      "Some": 8012,
      "TA": 8013,
      "Ġsor": 8014,
      "Ġreject": 8015,
      "ĠTokyo": 8016,
      "akh": 8017,
      "Ġincident": 8018,
      "ĠPolice": 8019,
      "Ġbehaviors": 8020,
      "Ġlibr": 8021,
      "2016": 8022,
      "2008": 8023,
      "Ġstakeholders": 8024,
      "Ġphase": 8025,
      "Ġrefrig": 8026,
      "Ġinteraction": 8027,
      "erland": 8028,
      "Ġfont": 8029,
      "oda": 8030,
      "ĠGolden": 8031,
      "Ġprobably": 8032,
      "Ġmystery": 8033,
      "Ġpursue": 8034,
      "gi": 8035,
      "aste": 8036,
      "iÃ³n": 8037,
      "Ġclothes": 8038,
      "Ġ32": 8039,
      "Ġmyster": 8040,
      "olitan": 8041,
      ":#": 8042,
      "data": 8043,
      "Ġcub": 8044,
      "Ġlime": 8045,
      "Ġkill": 8046,
      "Ġagent": 8047,
      "Ġdisplays": 8048,
      "Ġfav": 8049,
      "Ġrising": 8050,
      "teen": 8051,
      "Ġencouraging": 8052,
      "Ġrespectively": 8053,
      "ĠBell": 8054,
      "ĠGiven": 8055,
      "ĠAlice": 8056,
      "Ġdefined": 8057,
      "dis": 8058,
      "through": 8059,
      "Ġcompete": 8060,
      "Ġversat": 8061,
      "Ġspirits": 8062,
      "Ġsculpture": 8063,
      "Im": 8064,
      "count": 8065,
      "Ġcourage": 8066,
      "Ġwing": 8067,
      "ĠCorporation": 8068,
      "Ġwithd": 8069,
      "rapy": 8070,
      "Ġweekend": 8071,
      "Ġreminder": 8072,
      "Ġdocumentary": 8073,
      "LA": 8074,
      "elly": 8075,
      "aints": 8076,
      "Ġissued": 8077,
      "Ġtransformation": 8078,
      "Ġastron": 8079,
      "Ġpairs": 8080,
      "Ġdust": 8081,
      "ervice": 8082,
      "ĠCommon": 8083,
      "Ġgraduated": 8084,
      "Art": 8085,
      "yard": 8086,
      "Ġacknow": 8087,
      "Ġmand": 8088,
      "Ġseats": 8089,
      "Ġspark": 8090,
      "ĠAnswer": 8091,
      "Ġdrum": 8092,
      "Ġprotest": 8093,
      "Ġsensitive": 8094,
      "ĠSanta": 8095,
      "Ġdessert": 8096,
      "Will": 8097,
      "ucky": 8098,
      "Ġviolence": 8099,
      "FF": 8100,
      "such": 8101,
      "Ġber": 8102,
      "aser": 8103,
      "Ġprovider": 8104,
      "Ġpromotions": 8105,
      "Ġpurposes": 8106,
      "ĠNa": 8107,
      "aret": 8108,
      "Ġdiscip": 8109,
      "2005": 8110,
      "SP": 8111,
      "organ": 8112,
      "anz": 8113,
      "mented": 8114,
      "Ġtreatments": 8115,
      "Ġkindness": 8116,
      "Ġspinach": 8117,
      "Ġhearing": 8118,
      "alled": 8119,
      "Ġcooper": 8120,
      "ĠPhys": 8121,
      "ĠQueens": 8122,
      "Ġvo": 8123,
      "ĠNative": 8124,
      "Ġprovince": 8125,
      "Ġvisibility": 8126,
      "incess": 8127,
      "ĠOcean": 8128,
      "ricts": 8129,
      "Ġoverview": 8130,
      "Ġpoly": 8131,
      "ĠAk": 8132,
      "atever": 8133,
      "ificial": 8134,
      "hy": 8135,
      "peas": 8136,
      "Ġshipping": 8137,
      "Ġhighlighting": 8138,
      "76": 8139,
      "Gu": 8140,
      "Ġhun": 8141,
      "acter": 8142,
      "marks": 8143,
      "ĠÎ": 8144,
      "eral": 8145,
      "ĠAff": 8146,
      "ictional": 8147,
      "Ġedges": 8148,
      "zona": 8149,
      "orous": 8150,
      "ĠMic": 8151,
      "Ġchampion": 8152,
      "Ġwooden": 8153,
      "Ġuncover": 8154,
      "CD": 8155,
      "oured": 8156,
      "ĠRyan": 8157,
      "comp": 8158,
      "Ġextrem": 8159,
      "Ġtests": 8160,
      "ĠJean": 8161,
      "Ġassigned": 8162,
      "esan": 8163,
      "ĠGame": 8164,
      "ĠJava": 8165,
      "Ġcustomize": 8166,
      "ĠSeason": 8167,
      "ilarly": 8168,
      "Ġattending": 8169,
      "78": 8170,
      "aud": 8171,
      "eling": 8172,
      "ĠBack": 8173,
      "hedral": 8174,
      "ĠWho": 8175,
      "Ġofferings": 8176,
      "Ġsaved": 8177,
      "ĠSwedish": 8178,
      "Ġsurvivors": 8179,
      "Co": 8180,
      "length": 8181,
      "Ġhasht": 8182,
      "Ġrefers": 8183,
      "ttp": 8184,
      "Ġcorrespond": 8185,
      "Com": 8186,
      "ĠIN": 8187,
      "phia": 8188,
      "Ġaccordingly": 8189,
      "bi": 8190,
      "ĠCy": 8191,
      "Ġspoke": 8192,
      "Ġscr": 8193,
      "Ġdecades": 8194,
      "Ġreduces": 8195,
      "Ġencry": 8196,
      "Ġsunlight": 8197,
      "Ġnavigation": 8198,
      "Ġmachines": 8199,
      "RL": 8200,
      "Ġmob": 8201,
      "rovers": 8202,
      "ĠSound": 8203,
      "ĠPub": 8204,
      "Ġ180": 8205,
      "ĠAnna": 8206,
      "Ġattractions": 8207,
      "Ġswimming": 8208,
      "Ġenabling": 8209,
      "Man": 8210,
      "law": 8211,
      "Ġyield": 8212,
      "ĠHard": 8213,
      "Ġenemy": 8214,
      "Ġselecting": 8215,
      "Ġdiscounts": 8216,
      "Ġconvert": 8217,
      "ĠHeart": 8218,
      "Ġfootprint": 8219,
      "Ġelaborate": 8220,
      "Ġgenres": 8221,
      "ĠChildren": 8222,
      "CUT": 8223,
      "lined": 8224,
      "Ġwants": 8225,
      "iece": 8226,
      "Ġtherefore": 8227,
      "Ġasking": 8228,
      "ĠĠĠĠĠĠĠĠĠĠĠĠĠĠĠĠĠĠĠĠĠĠĠĠĠĠĠĠĠĠĠĠĠĠĠĠĠĠĠĠĠĠĠĠĠĠĠĠĠĠĠĠĠĠĠĠĠĠĠĠĠĠĠĠ": 8229,
      "Ġterritory": 8230,
      "using": 8231,
      "ordan": 8232,
      "Ġbranches": 8233,
      "Ġemployment": 8234,
      "Ġfalling": 8235,
      "Ġcandidates": 8236,
      "Ġ!": 8237,
      "reens": 8238,
      "Ġshell": 8239,
      "Ġlegacy": 8240,
      "ĠRest": 8241,
      "aine": 8242,
      "Ġlogo": 8243,
      "Back": 8244,
      "Ġtack": 8245,
      "Ġflying": 8246,
      "uses": 8247,
      "ĠLar": 8248,
      "Ġsurg": 8249,
      "ĠIndones": 8250,
      "Ġrevised": 8251,
      "Ġham": 8252,
      "Ġ1930": 8253,
      "ĠUsers": 8254,
      "ĠSenate": 8255,
      "Ġweakness": 8256,
      "IP": 8257,
      "Ġmort": 8258,
      "ĠDown": 8259,
      "Ġjack": 8260,
      "ĠMuslim": 8261,
      "Ġdedication": 8262,
      "ĠSecretary": 8263,
      "adian": 8264,
      "ĠDam": 8265,
      "Ġseaf": 8266,
      "ĠMedical": 8267,
      "Ġtransformed": 8268,
      "adelphia": 8269,
      "++": 8270,
      "Life": 8271,
      "ĠHu": 8272,
      "ĠFederal": 8273,
      "okes": 8274,
      "overy": 8275,
      "Ġprofound": 8276,
      "Ġ1969": 8277,
      "Ġparticipation": 8278,
      "Ġauthentication": 8279,
      "His": 8280,
      "ĠMajor": 8281,
      "ifact": 8282,
      "ĠDid": 8283,
      "ĠJersey": 8284,
      "Ġmakeup": 8285,
      "ĠRegiment": 8286,
      "Ġcomputing": 8287,
      "ĠSweden": 8288,
      "ĠInternet": 8289,
      "')": 8290,
      "rays": 8291,
      "Ġvs": 8292,
      "apel": 8293,
      "Ġcrash": 8294,
      "ĠTrust": 8295,
      "Ġlatter": 8296,
      "ĠCastle": 8297,
      "Ġbronze": 8298,
      "ho": 8299,
      "oni": 8300,
      "Ġdie": 8301,
      "Ġlose": 8302,
      "Ġblank": 8303,
      "Ed": 8304,
      "Us": 8305,
      "Ġstored": 8306,
      "Ġbeer": 8307,
      "ĠMach": 8308,
      "ĠRog": 8309,
      "Ġvon": 8310,
      "Ġacting": 8311,
      "Ġapartment": 8312,
      "Ġcriminal": 8313,
      "Ġwra": 8314,
      "Ġintensity": 8315,
      "ĠModern": 8316,
      "ĠDaniel": 8317,
      "Ġshadows": 8318,
      "raction": 8319,
      "2021": 8320,
      "Ġsupportive": 8321,
      "ĠPlaces": 8322,
      "pecific": 8323,
      "Ġsuffered": 8324,
      "ographer": 8325,
      "42": 8326,
      "Ġroyal": 8327,
      "Ġengineer": 8328,
      "stract": 8329,
      "ĠAdam": 8330,
      "Ġslices": 8331,
      "Ġhorse": 8332,
      "ĠJeff": 8333,
      "Ġstages": 8334,
      "ĠLater": 8335,
      "Ġretention": 8336,
      "rimp": 8337,
      "Of": 8338,
      "Out": 8339,
      "px": 8340,
      "ĠAvenue": 8341,
      "uther": 8342,
      "adow": 8343,
      "abel": 8344,
      "ĠOntario": 8345,
      "Ġ1940": 8346,
      "Ġgranted": 8347,
      "itations": 8348,
      "Ġfoss": 8349,
      "Ġsecrets": 8350,
      "Ġvisuals": 8351,
      "Ġexploration": 8352,
      "Ġemails": 8353,
      "utenant": 8354,
      "Ġcontrolled": 8355,
      "%.": 8356,
      "96": 8357,
      "tail": 8358,
      "cha": 8359,
      "urers": 8360,
      "Ġpopularity": 8361,
      "Ġpanels": 8362,
      "Ġcelebrated": 8363,
      "Ġhosted": 8364,
      "Ġhip": 8365,
      "aska": 8366,
      "Ġ1945": 8367,
      "ĠIllinois": 8368,
      "Ġpiano": 8369,
      "Ġmac": 8370,
      "ogen": 8371,
      "never": 8372,
      "Ġinterior": 8373,
      "brid": 8374,
      "Ġnetworking": 8375,
      "ĠFil": 8376,
      "obb": 8377,
      "Ġagencies": 8378,
      "gely": 8379,
      "Ð¾": 8380,
      "Ġcuc": 8381,
      "ĠBan": 8382,
      "ĠIndiana": 8383,
      "Ġattempts": 8384,
      "igrants": 8385,
      "Ġliquid": 8386,
      "ĠLady": 8387,
      "izers": 8388,
      "zech": 8389,
      "Ġ1965": 8390,
      "Ġmatrix": 8391,
      "Ġtailored": 8392,
      "ĠThree": 8393,
      "ieval": 8394,
      "ĠEnvironment": 8395,
      "1990": 8396,
      "ĠMoroc": 8397,
      "solving": 8398,
      "ĠHarr": 8399,
      "Ġdesigner": 8400,
      "ĠAlb": 8401,
      "Ġorigin": 8402,
      "Ġhappiness": 8403,
      "Ġachievements": 8404,
      "Ġdegrees": 8405,
      "Ġcrowd": 8406,
      "fol": 8407,
      "Ġsed": 8408,
      "Ġsoph": 8409,
      "oln": 8410,
      "immer": 8411,
      "Ġseed": 8412,
      "ĠStore": 8413,
      "Ġconfront": 8414,
      "ĠTurkey": 8415,
      "El": 8416,
      "Ġbeneficial": 8417,
      "Ġcharacteristics": 8418,
      "spe": 8419,
      "AA": 8420,
      "disc": 8421,
      "Ġgarn": 8422,
      "ĠPsych": 8423,
      "Ġconcrete": 8424,
      "Ġresponsibilities": 8425,
      "inf": 8426,
      "ician": 8427,
      "Ġorange": 8428,
      "angle": 8429,
      "Ġdrinks": 8430,
      "Ġcharacterized": 8431,
      "Ġreligion": 8432,
      "Ġphen": 8433,
      "Ġmathemat": 8434,
      "Ġinfluencer": 8435,
      "Ġfrozen": 8436,
      "Ġarrested": 8437,
      "iov": 8438,
      "ĠHindu": 8439,
      "ĠSS": 8440,
      "lywood": 8441,
      "ĠEss": 8442,
      "outheast": 8443,
      "Ġgrilled": 8444,
      "Ġzone": 8445,
      "Ġsettlement": 8446,
      "Ġmuseums": 8447,
      "Ġluxury": 8448,
      "Ġfalse": 8449,
      "oly": 8450,
      "othe": 8451,
      "ĠĠĊ": 8452,
      "ĠBad": 8453,
      "ĠPass": 8454,
      "Ġansw": 8455,
      "Ġvot": 8456,
      "Ġmode": 8457,
      "ĠCorps": 8458,
      "grade": 8459,
      "ologists": 8460,
      "Ġincreases": 8461,
      "Ġadvantages": 8462,
      "Ġlake": 8463,
      "ĠBishop": 8464,
      "apers": 8465,
      "ĠShort": 8466,
      "ĠLinked": 8467,
      "66": 8468,
      "Personal": 8469,
      "Ġfert": 8470,
      "etch": 8471,
      "ĠLast": 8472,
      "Ġdestruction": 8473,
      "aturday": 8474,
      "Ġkiller": 8475,
      "Ġactual": 8476,
      "ĠAmericans": 8477,
      "ĠDavis": 8478,
      "Ġuniversities": 8479,
      "Ġproud": 8480,
      "Ġalcoh": 8481,
      "Ġspoken": 8482,
      "Ġartifact": 8483,
      "Ġcoal": 8484,
      "Ġdefense": 8485,
      "anna": 8486,
      "Ġconvenient": 8487,
      "Ġjewelry": 8488,
      "ĠCas": 8489,
      "ĠPC": 8490,
      "ĠHT": 8491,
      "Ġ1966": 8492,
      "Ġminimize": 8493,
      "Act": 8494,
      "Ġdownt": 8495,
      "ĠEp": 8496,
      "endar": 8497,
      "portation": 8498,
      "const": 8499,
      "ĠCountry": 8500,
      "ĠContin": 8501,
      "ĠCub": 8502,
      "rac": 8503,
      "ĠMill": 8504,
      "ifies": 8505,
      "Ġsections": 8506,
      "chestra": 8507,
      "Ġpapers": 8508,
      "lock": 8509,
      "esty": 8510,
      "estab": 8511,
      "ĠFurthermore": 8512,
      "Ġring": 8513,
      "Ġdoctor": 8514,
      "Ġsemi": 8515,
      "ski": 8516,
      "Ġpitch": 8517,
      "ilton": 8518,
      "ĠRa": 8519,
      "Ġrush": 8520,
      "2004": 8521,
      "Ġfriendship": 8522,
      "Ġsymbols": 8523,
      "Ġdecrease": 8524,
      "Ġobtained": 8525,
      "vo": 8526,
      "ĠPur": 8527,
      "ĠInn": 8528,
      "ĠStir": 8529,
      "Ġnewly": 8530,
      "Ġtestim": 8531,
      "ĠNether": 8532,
      "Polit": 8533,
      "Ġwet": 8534,
      "Ġmir": 8535,
      "ĠSteve": 8536,
      "Ġhyp": 8537,
      "Ġstrike": 8538,
      "Ġinterviews": 8539,
      "vas": 8540,
      "omy": 8541,
      "Ġvess": 8542,
      "Ġ=>": 8543,
      "Ġlargely": 8544,
      "Ġoccurs": 8545,
      "Ġjournalist": 8546,
      ".:": 8547,
      "ĠOfficial": 8548,
      "Ġcontaining": 8549,
      "Sarah": 8550,
      "41": 8551,
      "Ġdensity": 8552,
      "ĠAthlet": 8553,
      "opher": 8554,
      "Ġinterventions": 8555,
      "Ġcrunch": 8556,
      "ĠStudents": 8557,
      "ĠMountain": 8558,
      "Ġinvolvement": 8559,
      "\";": 8560,
      "Sm": 8561,
      "Sec": 8562,
      "xts": 8563,
      "Ð°": 8564,
      "Ġpit": 8565,
      "Ġbrows": 8566,
      "Ġgear": 8567,
      "ĠLy": 8568,
      "Ġpublis": 8569,
      "Ġacquis": 8570,
      "bn": 8571,
      "sem": 8572,
      "ĠWeek": 8573,
      "Ġrescue": 8574,
      "Ġpeak": 8575,
      "Ġquinoa": 8576,
      "Ġexpatriate": 8577,
      "Ġanticip": 8578,
      "Dem": 8579,
      "wall": 8580,
      "Ġnob": 8581,
      "Ġstumbled": 8582,
      "ĠRaj": 8583,
      "ĠJer": 8584,
      "Ġequipped": 8585,
      "Ġclearly": 8586,
      "ĠBrother": 8587,
      "nesota": 8588,
      "Ġtransferred": 8589,
      "ĠPakistan": 8590,
      "Writ": 8591,
      "dem": 8592,
      "iat": 8593,
      "Ġpull": 8594,
      "stream": 8595,
      "Ġrugby": 8596,
      "aven": 8597,
      "luding": 8598,
      "Ġboat": 8599,
      "Best": 8600,
      "wo": 8601,
      "Ġbon": 8602,
      "Ġbags": 8603,
      "eld": 8604,
      "Ġobserved": 8605,
      "Form": 8606,
      "elled": 8607,
      "ĠMarc": 8608,
      "Ġgirls": 8609,
      "Ġveggies": 8610,
      "ez": 8611,
      "Ġcash": 8612,
      "Ġalle": 8613,
      "ounded": 8614,
      "Ġacts": 8615,
      "Ġ...": 8616,
      "ĠMinnesota": 8617,
      "Ġnovels": 8618,
      "ĠMissouri": 8619,
      "Ġexhibition": 8620,
      "Ġcategories": 8621,
      "ji": 8622,
      "Ġmail": 8623,
      "rot": 8624,
      "Ġstopped": 8625,
      "season": 8626,
      "ĠLabor": 8627,
      "Ġpotentially": 8628,
      "Ġlimits": 8629,
      "Ġbands": 8630,
      "Ġframework": 8631,
      "Ġgall": 8632,
      "ĠLocal": 8633,
      "Ġapproached": 8634,
      "Ġconcentr": 8635,
      "isher": 8636,
      "otion": 8637,
      "Ġneut": 8638,
      "Ġvend": 8639,
      "Ġabsorb": 8640,
      "Ġcarrying": 8641,
      "Ġmoisture": 8642,
      "high": 8643,
      "Ġlaugh": 8644,
      "raine": 8645,
      "owa": 8646,
      "Ġimpossible": 8647,
      "ĠPreheat": 8648,
      "Ġdistributed": 8649,
      "OL": 8650,
      "cery": 8651,
      "ml": 8652,
      "oop": 8653,
      "hew": 8654,
      "ĠHuman": 8655,
      "ĠChris": 8656,
      "pects": 8657,
      "Ġadvis": 8658,
      "ĠIncorporate": 8659,
      "ynasty": 8660,
      "Ġfishing": 8661,
      "Ġsavory": 8662,
      "Pre": 8663,
      "ingers": 8664,
      "Ġtoward": 8665,
      "Ġindicate": 8666,
      "Ġprotocol": 8667,
      "Ġsubjects": 8668,
      "Ġ1962": 8669,
      "Ġ1963": 8670,
      "2001": 8671,
      "iability": 8672,
      "vard": 8673,
      "aters": 8674,
      "antly": 8675,
      "ĠKat": 8676,
      "Ġbene": 8677,
      "Ġhardware": 8678,
      "har": 8679,
      "sex": 8680,
      "ĠRout": 8681,
      "ĠKitt": 8682,
      "uddenly": 8683,
      "Ġvolunteer": 8684,
      "Error": 8685,
      "agraph": 8686,
      "Ġconqu": 8687,
      "lower": 8688,
      "phony": 8689,
      "ĠComb": 8690,
      "Ġemphasis": 8691,
      "node": 8692,
      "Ġgym": 8693,
      "Ġstuff": 8694,
      "ĠFair": 8695,
      "Ġassum": 8696,
      "Ġemerging": 8697,
      "Ġcounsel": 8698,
      "Ġwish": 8699,
      "Ġovers": 8700,
      "ewable": 8701,
      "Ġagree": 8702,
      "Ġfamiliar": 8703,
      "Ġbroke": 8704,
      "Ġordered": 8705,
      "Ġamounts": 8706,
      "Ġcommittee": 8707,
      "Ġinequality": 8708,
      "ĠTaylor": 8709,
      "bed": 8710,
      "sub": 8711,
      "ĠST": 8712,
      "Ġlegend": 8713,
      "Ġcurse": 8714,
      "ĠSunday": 8715,
      "vens": 8716,
      "alt": 8717,
      "Ġord": 8718,
      "Ġaged": 8719,
      "Ġrequests": 8720,
      "Ġpainter": 8721,
      "ĠBrig": 8722,
      "Ac": 8723,
      "Further": 8724,
      "Ġretailers": 8725,
      "natural": 8726,
      "ĠPour": 8727,
      "Ġdepends": 8728,
      "powered": 8729,
      "ĠGreece": 8730,
      "ilantro": 8731,
      "size": 8732,
      "ading": 8733,
      "ĠDark": 8734,
      "ighth": 8735,
      "luded": 8736,
      "Ġcoat": 8737,
      "Ġsinging": 8738,
      "Ġoppon": 8739,
      "ĠStephen": 8740,
      "east": 8741,
      "Ġpour": 8742,
      "Ġshock": 8743,
      "Ġshops": 8744,
      "Ġdamaged": 8745,
      "Ġindependence": 8746,
      "Ġpercentage": 8747,
      "Ġwaters": 8748,
      "izable": 8749,
      "Ġinspiring": 8750,
      "Ġcivilization": 8751,
      "ĠArizona": 8752,
      "Ġbeneath": 8753,
      "aro": 8754,
      "olis": 8755,
      "ĠMond": 8756,
      "Ġshut": 8757,
      "ĠKim": 8758,
      "Ġflash": 8759,
      "ĠMarg": 8760,
      "ĠPrime": 8761,
      "Ġdiplom": 8762,
      "Ġrefreshing": 8763,
      "Ġprofit": 8764,
      "Ġflower": 8765,
      "Ġtitled": 8766,
      "Ġmistakes": 8767,
      "Ġpaprika": 8768,
      "Ġillustrate": 8769,
      "85": 8770,
      "Ġcock": 8771,
      "Ġbomb": 8772,
      "ĠAD": 8773,
      "import": 8774,
      "Ġbear": 8775,
      "ĠFle": 8776,
      "Ġwarmth": 8777,
      "United": 8778,
      "aki": 8779,
      "actions": 8780,
      "Ġconsidering": 8781,
      "Ġsuspense": 8782,
      "Ġorganize": 8783,
      "ĠIndepend": 8784,
      "ventional": 8785,
      "ĠSmart": 8786,
      "Ġgraduate": 8787,
      "Ġimplications": 8788,
      "Ġgene": 8789,
      "sey": 8790,
      "aga": 8791,
      "ĠLes": 8792,
      "Ġeveryday": 8793,
      "Ġcoastal": 8794,
      "anchester": 8795,
      "South": 8796,
      "2003": 8797,
      "Ġoverwhelming": 8798,
      "Her": 8799,
      "PA": 8800,
      "Ġbinary": 8801,
      "eler": 8802,
      "Ġgently": 8803,
      "ĠAS": 8804,
      "opter": 8805,
      "aba": 8806,
      "ĠLind": 8807,
      "Ġlect": 8808,
      "ĠJunior": 8809,
      "Ġabuse": 8810,
      "Ġmodified": 8811,
      "ycled": 8812,
      "Ġenjoying": 8813,
      "Ġquantum": 8814,
      "Ġ)": 8815,
      "athered": 8816,
      "idth": 8817,
      "ĠRub": 8818,
      "nce": 8819,
      "Ġinsect": 8820,
      "ĠFund": 8821,
      "uality": 8822,
      "Ġpreserve": 8823,
      "Ġveter": 8824,
      "Ġstreaming": 8825,
      "Ġphotograph": 8826,
      "Ġperfectly": 8827,
      "Ġnavig": 8828,
      "ĠChick": 8829,
      "Ġreturning": 8830,
      "Ġlisting": 8831,
      "IL": 8832,
      "but": 8833,
      "abil": 8834,
      "Ġdesignated": 8835,
      "ĠGuard": 8836,
      "Ã¡n": 8837,
      "ĠRepublican": 8838,
      "Ġassessment": 8839,
      "Ġdrugs": 8840,
      "agh": 8841,
      "peror": 8842,
      "Ġfinance": 8843,
      "Ġsecondary": 8844,
      "Ġlands": 8845,
      "Ġdietary": 8846,
      "ĠCambridge": 8847,
      "Ġpreparation": 8848,
      "Ġdurable": 8849,
      "Part": 8850,
      "Ġcompat": 8851,
      "pectives": 8852,
      "Ġdelivered": 8853,
      "App": 8854,
      "tering": 8855,
      "Ġdeals": 8856,
      "Ġ1944": 8857,
      "span": 8858,
      "French": 8859,
      "ĠBa": 8860,
      "pton": 8861,
      "ĠStone": 8862,
      "Ġotherwise": 8863,
      "ooks": 8864,
      "Ġraw": 8865,
      "ĠAdminist": 8866,
      "Ġseafood": 8867,
      "timately": 8868,
      "ĠAh": 8869,
      "Ġroots": 8870,
      "Ġgrill": 8871,
      "bourne": 8872,
      "Ġmuscles": 8873,
      "ĠNetherlands": 8874,
      "vol": 8875,
      "Ġpun": 8876,
      "Ġtempl": 8877,
      "Ġ1956": 8878,
      "Ġconsistency": 8879,
      "Ġpredators": 8880,
      "ĠMalays": 8881,
      "Generate": 8882,
      "IG": 8883,
      "ĠBat": 8884,
      "Ġproducers": 8885,
      "Ġplane": 8886,
      "Ġboil": 8887,
      "Ġdifficulty": 8888,
      "Ġcorrectly": 8889,
      "?:": 8890,
      "Ġgaming": 8891,
      "Ġconsole": 8892,
      "Ġintu": 8893,
      "Reg": 8894,
      "Ġputting": 8895,
      "Ġsteam": 8896,
      "quarters": 8897,
      "Once": 8898,
      "Ġtheatre": 8899,
      "ilation": 8900,
      "ĠEvent": 8901,
      "Ġextension": 8902,
      "2002": 8903,
      "ĠSmall": 8904,
      "Ġautomatically": 8905,
      "Ġexactly": 8906,
      "ĠJesus": 8907,
      "Ġgalax": 8908,
      "98": 8909,
      "case": 8910,
      "ĠCall": 8911,
      "Ġsimmer": 8912,
      "Ġfrequent": 8913,
      "ASON": 8914,
      "Ġshaping": 8915,
      "Olymp": 8916,
      "Ġstead": 8917,
      "ĠLew": 8918,
      "Ġsending": 8919,
      "osion": 8920,
      "Ġplug": 8921,
      "ĠBaron": 8922,
      "Ġbalanced": 8923,
      "ĠGlobal": 8924,
      "ĠDefine": 8925,
      "run": 8926,
      "Ġwrap": 8927,
      "ĠJake": 8928,
      "ĠTrail": 8929,
      "Ġcomposer": 8930,
      "ĠMember": 8931,
      "anth": 8932,
      "rout": 8933,
      "ouses": 8934,
      "Ġsoap": 8935,
      "Ġdomestic": 8936,
      "mouth": 8937,
      "Ġisn": 8938,
      "Ġattach": 8939,
      "incoln": 8940,
      "which": 8941,
      "Based": 8942,
      "RO": 8943,
      "Ġcrop": 8944,
      "istical": 8945,
      "ulum": 8946,
      "appy": 8947,
      "Ġmeasuring": 8948,
      "Ġintegers": 8949,
      "boy": 8950,
      "ocial": 8951,
      "ĠNations": 8952,
      "Ġscan": 8953,
      "Ġperhaps": 8954,
      "Ġretrie": 8955,
      "Ġfounder": 8956,
      "Ġinsert": 8957,
      "ika": 8958,
      "Ġspecified": 8959,
      "Ġ150": 8960,
      "Ġchickpeas": 8961,
      "ĠAnton": 8962,
      "Ġtranslation": 8963,
      "Ġpreferred": 8964,
      "ibliography": 8965,
      "ĠLinkedIn": 8966,
      "kay": 8967,
      "Ġfoster": 8968,
      "urches": 8969,
      "estion": 8970,
      "ĠJon": 8971,
      "ĠProfessor": 8972,
      "Ġdistractions": 8973,
      "lar": 8974,
      "alid": 8975,
      "Ġpine": 8976,
      "ĠCEO": 8977,
      "ĠMand": 8978,
      "ĠBBC": 8979,
      "Ġshares": 8980,
      "Ġhealthier": 8981,
      "Ġinvolving": 8982,
      "Ġlanding": 8983,
      "Ġparks": 8984,
      "Ġburied": 8985,
      "ĠHawai": 8986,
      "CS": 8987,
      "UN": 8988,
      "aug": 8989,
      "mates": 8990,
      "uz": 8991,
      "Ġlent": 8992,
      "Ġdriven": 8993,
      "rainian": 8994,
      "ĠTraining": 8995,
      "Ġdiscussion": 8996,
      "Ġnutritional": 8997,
      "Austral": 8998,
      "Ġmic": 8999,
      "ĠKal": 9000,
      "reeze": 9001,
      "wegian": 9002,
      "Ġtextures": 9003,
      "Ġsatisfying": 9004,
      "ĠEngineering": 9005,
      "Ġrestrictions": 9006,
      "Ġlie": 9007,
      "Chapter": 9008,
      "Ġexpressed": 9009,
      "ĠSamantha": 9010,
      "ĠSpring": 9011,
      "Ġinhabit": 9012,
      "International": 9013,
      "ĠEmploy": 9014,
      "Ġ1958": 9015,
      "Ġ1941": 9016,
      "regon": 9017,
      "Ġnuclear": 9018,
      "43": 9019,
      "Ġcontrovers": 9020,
      "angers": 9021,
      "Ġpainted": 9022,
      "Ġ1961": 9023,
      "Ġhyper": 9024,
      "Ġdisplayed": 9025,
      "ĠKhan": 9026,
      "ĠIdentify": 9027,
      "td": 9028,
      "inth": 9029,
      "ĠWinter": 9030,
      "ĠLiter": 9031,
      "Ġreporting": 9032,
      "Ġemphasizes": 9033,
      "Ġneighb": 9034,
      "ĠIslamic": 9035,
      "Jack": 9036,
      "fef": 9037,
      "aded": 9038,
      "emet": 9039,
      "ĠUnivers": 9040,
      "Ġmeters": 9041,
      "boards": 9042,
      "Ġhoping": 9043,
      "Ġconcentration": 9044,
      "Ġvert": 9045,
      "Ġdining": 9046,
      "ĠJam": 9047,
      "Ġzero": 9048,
      "Ġtower": 9049,
      "ennessee": 9050,
      "erick": 9051,
      "Ġfalls": 9052,
      "ĠBowl": 9053,
      "ĠDream": 9054,
      "ĠLog": 9055,
      "Ġdisput": 9056,
      "inton": 9057,
      "gged": 9058,
      "oming": 9059,
      "Ġstable": 9060,
      "Ġstraw": 9061,
      "essica": 9062,
      "arios": 9063,
      "ĠJews": 9064,
      "Ġretirement": 9065,
      "HL": 9066,
      "Sub": 9067,
      "World": 9068,
      "Ġbub": 9069,
      "Ġwhisk": 9070,
      "Ġprey": 9071,
      "Ġvisible": 9072,
      "Ġclassroom": 9073,
      "Ġreflection": 9074,
      "Ġcamping": 9075,
      "anean": 9076,
      "Ġmelted": 9077,
      "65": 9078,
      "Sw": 9079,
      "zed": 9080,
      "ĠDrag": 9081,
      "ĠRef": 9082,
      "University": 9083,
      "Ġhoriz": 9084,
      "erly": 9085,
      "Ġpret": 9086,
      "Ġconscious": 9087,
      "1999": 9088,
      "Ġlosses": 9089,
      "Ġsubscrib": 9090,
      "Ġwalks": 9091,
      "Ġlibraries": 9092,
      "Ãº": 9093,
      "ĠAle": 9094,
      "Ġadult": 9095,
      "ĠUnd": 9096,
      "ĠStadium": 9097,
      "Ġsmile": 9098,
      "Ġterrain": 9099,
      "fire": 9100,
      "Ġtap": 9101,
      "Ġeleg": 9102,
      "Ġpersist": 9103,
      "ĠPrior": 9104,
      "ĠFollowing": 9105,
      "Ġberries": 9106,
      "Ġfrag": 9107,
      "ĠOp": 9108,
      "Ġtries": 9109,
      "Ġtargeting": 9110,
      "fefefe": 9111,
      "May": 9112,
      "Track": 9113,
      "anut": 9114,
      "Ġtoss": 9115,
      "bec": 9116,
      "Ġdealing": 9117,
      "Ġsmoothie": 9118,
      "Ġcrafts": 9119,
      "Ġpassengers": 9120,
      "function": 9121,
      "Ġmedian": 9122,
      "ĠLeon": 9123,
      "Ġ<<": 9124,
      "ĠPhiladelphia": 9125,
      "ĠMicrosoft": 9126,
      "sky": 9127,
      "Ġgate": 9128,
      "ĠBatt": 9129,
      "ĠFox": 9130,
      "Ġleaf": 9131,
      "ĠBarb": 9132,
      "number": 9133,
      "pet": 9134,
      "orge": 9135,
      "eller": 9136,
      "Ġdism": 9137,
      "Ġhappening": 9138,
      "Ġlayers": 9139,
      "Ġwearing": 9140,
      "Ġcontinuous": 9141,
      "Ġparsley": 9142,
      "Ġauthors": 9143,
      "emetery": 9144,
      "taking": 9145,
      "Ġduration": 9146,
      "otton": 9147,
      "ĠBru": 9148,
      "agers": 9149,
      "Ġdisorder": 9150,
      "Ġlock": 9151,
      "Ġpride": 9152,
      "ĠScient": 9153,
      "ussion": 9154,
      "Ġlasting": 9155,
      "Ġhotels": 9156,
      "Ġclinical": 9157,
      "MA": 9158,
      "iterr": 9159,
      "Ġspray": 9160,
      "Ġinvestors": 9161,
      "Ġshaped": 9162,
      "fe": 9163,
      "arks": 9164,
      "Ġkilling": 9165,
      "Ġages": 9166,
      "Ġstrengthen": 9167,
      "Ġdebt": 9168,
      "from": 9169,
      "reement": 9170,
      "Ġtargets": 9171,
      "ĠNorway": 9172,
      "TP": 9173,
      "iances": 9174,
      "ĠStock": 9175,
      "Ġpossibility": 9176,
      "iscons": 9177,
      "Ġoptimal": 9178,
      "Ġscheduled": 9179,
      "Ġcircumst": 9180,
      "sized": 9181,
      "Ġlunch": 9182,
      "ĠMoh": 9183,
      "ĠRoss": 9184,
      "ĠNick": 9185,
      "Ġrival": 9186,
      "Ġstruck": 9187,
      "present": 9188,
      "ĠTa": 9189,
      "ĠHold": 9190,
      "ession": 9191,
      "aval": 9192,
      "Ġinstruct": 9193,
      "Ġcompetitions": 9194,
      "Ġoccasionally": 9195,
      "ĠAtlantic": 9196,
      "Now": 9197,
      "tes": 9198,
      "inem": 9199,
      "leep": 9200,
      "ĠHay": 9201,
      "rizzle": 9202,
      "ĠVi": 9203,
      "Ġgrace": 9204,
      "Ġjoining": 9205,
      "Ã¼r": 9206,
      "Ġsubsid": 9207,
      "isconsin": 9208,
      "alion": 9209,
      "Ġediting": 9210,
      "ĠMilitary": 9211,
      "Ġstew": 9212,
      "ĠDNA": 9213,
      "ĠKir": 9214,
      "ĠHeat": 9215,
      "Ġfunctional": 9216,
      "Ġcriteria": 9217,
      "ĠMinistry": 9218,
      "Ġaccompan": 9219,
      "new": 9220,
      "ĠCab": 9221,
      "ivia": 9222,
      "ĠExt": 9223,
      "Ġobserv": 9224,
      "Per": 9225,
      "eing": 9226,
      "western": 9227,
      "chi": 9228,
      "ĠDu": 9229,
      "duate": 9230,
      "Ġpromotes": 9231,
      "Ġslice": 9232,
      "Ġrepresentation": 9233,
      "Ġactively": 9234,
      "Ġprocedures": 9235,
      "68": 9236,
[...]
